<pad>	0
<s>	0
</s>	0
<unk>	0
<IDENTITY>	0
en	-0
st	-1
re	-2
in	-3
er	-4
at	-5
ar	-6
al	-7
ent	-8
len	-9
me	-10
de	-11
le	-12
pt	-13
co	-14
uf	-15
fi	-16
buf	-17
arg	-18
pe	-19
str	-20
te	-21
se	-22
ptr	-23
ad	-24
ame	-25
si	-26
to	-27
val	-28
vent	-29
ne	-30
un	-31
ro	-32
mp	-33
th	-34
ata	-35
ze	-36
ta	-37
lo	-38
ma	-39
sa	-40
la	-41
name	-42
ut	-43
size	-44
ch	-45
ret	-46
or	-47
li	-48
ty	-49
_0	-50
tok	-51
data	-52
ur	-53
file	-54
id	-55
ct	-56
sy	-57
is	-58
res	-59
ck	-60
type	-61
ue	-62
stat	-63
um	-64
ce	-65
ra	-66
it	-67
pa	-68
out	-69
ode	-70
po	-71
lt	-72
__	-73
on	-74
event	-75
ld	-76
an	-77
sym	-78
fd	-79
dr	-80
ms	-81
token	-82
new	-83
pevent	-84
cur	-85
rc	-86
lin	-87
state	-88
di	-89
ia	-90
pro	-91
xt	-92
list	-93
op	-94
value	-95
tmp	-96
this	-97
num	-98
fer	-99
unt	-100
fo	-101
err	-102
con	-103
cp	-104
lag	-105
ti	-106
ke	-107
node	-108
ge	-109
ve	-110
line	-111
yte	-112
flag	-113
src	-114
ult	-115
par	-116
tr	-117
addr	-118
byte	-119
ff	-120
msg	-121
curr	-122
ca	-123
fp	-124
key	-125
sh	-126
ing	-127
count	-128
ba	-129
lena	-130
cpu	-131
buffer	-132
ite	-133
dex	-134
he	-135
fa	-136
so	-137
opt	-138
ion	-139
ath	-140
result	-141
end	-142
ctx	-143
off	-144
us	-145
In	-146
current	-147
info	-148
code	-149
ig	-150
lock	-151
md	-152
pos	-153
star	-154
ha	-155
ss	-156
set	-157
strm	-158
gth	-159
ble	-160
int	-161
filt	-162
index	-163
td	-164
filter	-165
loc	-166
path	-167
fun	-168
max	-169
eld	-170
Id	-171
and	-172
ry	-173
field	-174
dst	-175
io	-176
start	-177
bj	-178
temp	-179
am	-180
da	-181
time	-182
ap	-183
old	-184
item	-185
et	-186
bytes	-187
read	-188
func	-189
ks	-190
flags	-191
map	-192
Len	-193
next	-194
lf	-195
put	-196
Idx	-197
na	-198
no	-199
entry	-200
comp	-201
pr	-202
cmd	-203
length	-204
self	-205
bit	-206
argv	-207
dis	-208
ep	-209
dir	-210
ft	-211
fs	-212
ex	-213
andle	-214
ptrs	-215
tc	-216
head	-217
ver	-218
sc	-219
offset	-220
go	-221
il	-222
pre	-223
ate	-224
be	-225
dev	-226
cor	-227
prop	-228
sizea	-229
sock	-230
mat	-231
ip	-232
disks	-233
recor	-234
mo	-235
Re	-236
string	-237
vq	-238
table	-239
namea	-240
sk	-241
dest	-242
wor	-243
igh	-244
ol	-245
ort	-246
dataa	-247
reg	-248
que	-249
sec	-250
idx	-251
ul	-252
enu	-253
local	-254
min	-255
toka	-256
text	-257
status	-258
mode	-259
ser	-260
hash	-261
cess	-262
menu	-263
base	-264
obj	-265
stra	-266
handle	-267
De	-268
sum	-269
block	-270
tra	-271
ib	-272
pi	-273
adata	-274
lename	-275
typea	-276
sta	-277
hdr	-278
filename	-279
ize	-280
record	-281
ree	-282
sys	-283
ment	-284
process	-285
Buf	-286
do	-287
cy	-288
cb	-289
for	-290
input	-291
yy	-292
met	-293
Size	-294
lob	-295
ic	-296
up	-297
metadata	-298
pid	-299
isa	-300
ed	-301
fir	-302
ls	-303
port	-304
page	-305
glob	-306
env	-307
compr	-308
mm	-309
per	-310
bo	-311
ice	-312
urce	-313
fn	-314
ps	-315
global	-316
add	-317
chan	-318
args	-319
sm	-320
left	-321
word	-322
iter	-323
rom	-324
poli	-325
retstr	-326
ction	-327
ime	-328
qu	-329
tx	-330
nd	-331
St	-332
su	-333
ray	-334
db	-335
ror	-336
sig	-337
wr	-338
ea	-339
link	-340
Co	-341
param	-342
last	-343
arga	-344
erra	-345
xa	-346
ild	-347
source	-348
che	-349
optIn	-350
mask	-351
ng	-352
first	-353
error	-354
Buffer	-355
ri	-356
Val	-357
req	-358
format	-359
sp	-360
para	-361
ok	-362
dp	-363
ssa	-364
policy	-365
bufa	-366
from	-367
Per	-368
va	-369
kbuf	-370
mem	-371
ts	-372
IE	-373
vala	-374
mt	-375
ation	-376
leve	-377
lay	-378
sion	-379
ila	-380
tree	-381
inter	-382
bits	-383
lu	-384
params	-385
ot	-386
Str	-387
ist	-388
ream	-389
context	-390
parent	-391
nel	-392
Perio	-393
ress	-394
fr	-395
linebuf	-396
Name	-397
lement	-398
cli	-399
unta	-400
dptr	-401
faila	-402
sz	-403
chun	-404
ci	-405
gov	-406
flagsa	-407
child	-408
ev	-409
au	-410
fail	-411
Data	-412
array	-413
def	-414
conn	-415
Time	-416
if	-417
LA	-418
LD	-419
best	-420
Node	-421
counta	-422
PT	-423
ptra	-424
tab	-425
Ptr	-426
ho	-427
aa	-428
FLA	-429
FLAG	-430
ber	-431
YIE	-432
YIELD	-433
thread	-434
targ	-435
row	-436
prev	-437
stream	-438
mit	-439
uc	-440
frame	-441
Fi	-442
sub	-443
py	-444
dd	-445
pM	-446
fix	-447
nt	-448
rt	-449
ext	-450
print	-451
win	-452
pd	-453
startIdx	-454
_1	-455
ure	-456
my	-457
cast	-458
png	-459
pool	-460
ie	-461
thisa	-462
header	-463
Value	-464
app	-465
ja	-466
seta	-467
act	-468
channel	-469
all	-470
ted	-471
layer	-472
cket	-473
back	-474
ya	-475
comprLen	-476
copy	-477
col	-478
mc	-479
rw	-480
ight	-481
ter	-482
wq	-483
write	-484
test	-485
ind	-486
ype	-487
TimePerio	-488
optInTimePerio	-489
ance	-490
output	-491
attr	-492
Length	-493
valuea	-494
Info	-495
ll	-496
uct	-497
Obj	-498
bl	-499
Par	-500
En	-501
Po	-502
hi	-503
able	-504
iv	-505
use	-506
argc	-507
fmt	-508
cla	-509
level	-510
ac	-511
lista	-512
reta	-513
nr	-514
im	-515
events	-516
rea	-517
ns	-518
target	-519
und	-520
File	-521
bor	-522
ine	-523
wp	-524
pb	-525
chunk	-526
argva	-527
wa	-528
ir	-529
save	-530
tot	-531
ssage	-532
msr	-533
pk	-534
any	-535
om	-536
ator	-537
vec	-538
Real	-539
offseta	-540
neigh	-541
tex	-542
sysfs	-543
one	-544
user	-545
com	-546
tag	-547
prog	-548
cmdline	-549
alloc	-550
nb	-551
srca	-552
expe	-553
try	-554
sockfd	-555
idth	-556
seq	-557
Type	-558
Count	-559
tor	-560
low	-561
nu	-562
address	-563
ab	-564
Index	-565
total	-566
client	-567
vice	-568
root	-569
globala	-570
dq	-571
neighbor	-572
struct	-573
oc	-574
opcode	-575
pN	-576
aux	-577
cache	-578
List	-579
desc	-580
stance	-581
ph	-582
dat	-583
Ar	-584
pp	-585
message	-586
var	-587
ring	-588
char	-589
rec	-590
gin	-591
Con	-592
ide	-593
pMy	-594
age	-595
ler	-596
alen	-597
ref	-598
rp	-599
stack	-600
32	-601
width	-602
gs	-603
ran	-604
bro	-605
option	-606
wd	-607
dow	-608
limit	-609
sysfsfp	-610
Disa	-611
buff	-612
curve	-613
mand	-614
Disasm	-615
pMyDisasm	-616
cinfo	-617
broad	-618
hs	-619
fds	-620
number	-621
broadcast	-622
Table	-623
ga	-624
ive	-625
exp	-626
sign	-627
ule	-628
cont	-629
newa	-630
queue	-631
Num	-632
ker	-633
mmu	-634
Element	-635
car	-636
ka	-637
iommu	-638
Handle	-639
uta	-640
numa	-641
printk	-642
Path	-643
prefix	-644
Be	-645
gIdx	-646
bytesa	-647
lp	-648
cs	-649
endIdx	-650
State	-651
es	-652
argp	-653
lengtha	-654
now	-655
sumx	-656
tk	-657
opa	-658
Entry	-659
sb	-660
tion	-661
mac	-662
rl	-663
bu	-664
ds	-665
sent	-666
call	-667
window	-668
cnt	-669
ins	-670
resul	-671
pix	-672
host	-673
ity	-674
locala	-675
dsta	-676
mer	-677
orig	-678
oldval	-679
der	-680
tm	-681
words	-682
pin	-683
mult	-684
keya	-685
sed	-686
command	-687
pc	-688
net	-689
crc	-690
war	-691
its	-692
ial	-693
sha	-694
ly	-695
fda	-696
posi	-697
pages	-698
dy	-699
mod	-700
datalen	-701
pat	-702
nodea	-703
el	-704
cl	-705
colo	-706
Desc	-707
pace	-708
face	-709
txn	-710
algo	-711
log	-712
rel	-713
em	-714
bin	-715
top	-716
load	-717
eventa	-718
freq	-719
del	-720
itera	-721
pNtk	-722
sr	-723
ops	-724
send	-725
pth	-726
comm	-727
diff	-728
ect	-729
mote	-730
16	-731
_8	-732
outN	-733
right	-734
BegIdx	-735
ow	-736
mach	-737
Res	-738
mple	-739
fig	-740
tif	-741
AL	-742
element	-743
rad	-744
whi	-745
bp	-746
shi	-747
ses	-748
loop	-749
which	-750
hand	-751
outBegIdx	-752
son	-753
structure	-754
bs	-755
addra	-756
ew	-757
fname	-758
shift	-759
match	-760
errb	-761
optInTimePerioda	-762
quest	-763
gen	-764
Stat	-765
mage	-766
stride	-767
gro	-768
warn	-769
red	-770
String	-771
msgque	-772
sd	-773
seen	-774
cf	-775
sl	-776
stringa	-777
ints	-778
symb	-779
machine	-780
trace	-781
uncomprLen	-782
packet	-783
ec	-784
dl	-785
plu	-786
inode	-787
Pa	-788
server	-789
sla	-790
position	-791
rb	-792
ruc	-793
init	-794
bc	-795
dag	-796
optarg	-797
timea	-798
Pos	-799
rep	-800
ele	-801
buflen	-802
ten	-803
av	-804
plugin	-805
cr	-806
ory	-807
syma	-808
cha	-809
callback	-810
delta	-811
depth	-812
ull	-813
resa	-814
pipe	-815
Device	-816
pay	-817
interval	-818
sw	-819
dict	-820
rm	-821
texta	-822
ht	-823
group	-824
found	-825
atom	-826
farg	-827
_2	-828
nex	-829
newval	-830
recorda	-831
cted	-832
Pro	-833
tail	-834
So	-835
space	-836
ctrl	-837
Player	-838
ual	-839
urn	-840
indexa	-841
vm	-842
usa	-843
rece	-844
lot	-845
neighbors	-846
metr	-847
Ch	-848
pkt	-849
tv	-850
fin	-851
opaque	-852
vi	-853
outNB	-854
outNBElement	-855
posa	-856
dig	-857
sid	-858
mul	-859
ida	-860
sptr	-861
core	-862
Add	-863
ript	-864
Parser	-865
sq	-866
yybytes	-867
currentPlayer	-868
eta	-869
optInTimePeriod	-870
ads	-871
classa	-872
model	-873
failb	-874
era	-875
free	-876
ub	-877
Status	-878
sample	-879
filea	-880
request	-881
pC	-882
argsa	-883
ids	-884
codec	-885
player	-886
sele	-887
pass	-888
conf	-889
np	-890
config	-891
instance	-892
dic	-893
nleft	-894
ument	-895
rval	-896
version	-897
tp	-898
symbol	-899
msga	-900
codea	-901
pObj	-902
pA	-903
ence	-904
body	-905
To	-906
uni	-907
timer	-908
inReal	-909
rr	-910
curvea	-911
gra	-912
levela	-913
mfn	-914
frames	-915
rhs	-916
buflena	-917
He	-918
seg	-919
itten	-920
outIdx	-921
tokena	-922
content	-923
ina	-924
as	-925
New	-926
pathname	-927
slen	-928
bufp	-929
mpt	-930
ctfail	-931
ctfailcb	-932
secon	-933
expect	-934
fra	-935
linea	-936
have	-937
actual	-938
den	-939
errno	-940
cmdlinesa	-941
real	-942
rtmetr	-943
cho	-944
localb	-945
globalb	-946
arr	-947
outa	-948
lea	-949
perf	-950
symtab	-951
wc	-952
device	-953
mdoc	-954
dist	-955
of	-956
priv	-957
uncompr	-958
point	-959
od	-960
written	-961
ID	-962
once	-963
uncomp	-964
iop	-965
mb	-966
tern	-967
1_	-968
elem	-969
tobj	-970
check	-971
est	-972
2_	-973
ger	-974
lstr	-975
spe	-976
full	-977
uid	-978
man	-979
Ma	-980
ena	-981
Pri	-982
Th	-983
argument	-984
resultobj	-985
Ex	-986
wait	-987
Var	-988
rule	-989
Flag	-990
seqno	-991
pfn	-992
buffera	-993
keep	-994
clock	-995
retval	-996
ther	-997
mu	-998
timeout	-999
chunks	-1000
uri	-1001
fe	-1002
got	-1003
sourceLen	-1004
prompt	-1005
origin	-1006
rv	-1007
nor	-1008
filep	-1009
cmdlist	-1010
rs	-1011
expected	-1012
pNode	-1013
cmdlines	-1014
funclist	-1015
yyvalue	-1016
constra	-1017
Priv	-1018
slab	-1019
ped	-1020
adler	-1021
Address	-1022
Array	-1023
dh	-1024
mount	-1025
fl	-1026
range	-1027
uncompra	-1028
windowB	-1029
rap	-1030
startIdxa	-1031
ero	-1032
Tok	-1033
remote	-1034
ary	-1035
urg	-1036
firsta	-1037
pg	-1038
ita	-1039
_4	-1040
Byte	-1041
nbytes	-1042
pP	-1043
gest	-1044
outReal	-1045
pla	-1046
nread	-1047
counter	-1048
proto	-1049
Io	-1050
maxa	-1051
tran	-1052
Le	-1053
reloc	-1054
ang	-1055
Ret	-1056
quer	-1057
acc	-1058
wps	-1059
image	-1060
section	-1061
ateg	-1062
order	-1063
fpa	-1064
starta	-1065
other	-1066
tb	-1067
pattern	-1068
rate	-1069
pf	-1070
div	-1071
expr	-1072
ey	-1073
art	-1074
ereg	-1075
tt	-1076
rstr	-1077
session	-1078
class	-1079
ign	-1080
scal	-1081
unicast	-1082
mil	-1083
rtmetric	-1084
stunicast	-1085
abc	-1086
parm	-1087
cmp	-1088
work	-1089
ecode	-1090
tempo	-1091
radio	-1092
choice	-1093
carry	-1094
color	-1095
isor	-1096
cc	-1097
oldlen	-1098
phy	-1099
tbl	-1100
vallen	-1101
vc	-1102
stats	-1103
help	-1104
pon	-1105
emp	-1106
pad	-1107
listen	-1108
lst	-1109
wrap	-1110
ob	-1111
Lo	-1112
nexth	-1113
pri	-1114
dataptr	-1115
ers	-1116
20	-1117
fsyma	-1118
printklist	-1119
qmul	-1120
instr	-1121
lim	-1122
tsd	-1123
pointer	-1124
action	-1125
dc	-1126
trans	-1127
ii	-1128
rem	-1129
keys	-1130
payload	-1131
rlen	-1132
sort	-1133
card	-1134
nexthop	-1135
sg	-1136
ute	-1137
cat	-1138
Block	-1139
patha	-1140
contexta	-1141
opaqueData	-1142
polite	-1143
hapd	-1144
wh	-1145
Head	-1146
Out	-1147
cle	-1148
iver	-1149
used	-1150
ast	-1151
datalena	-1152
gr	-1153
resulta	-1154
edge	-1155
parser	-1156
fna	-1157
enda	-1158
raw	-1159
serv	-1160
ssl	-1161
ipaddr	-1162
constraints	-1163
ln	-1164
fault	-1165
failaa	-1166
failba	-1167
bot	-1168
Token	-1169
Cur	-1170
rbtree	-1171
lval	-1172
we	-1173
argca	-1174
funca	-1175
options	-1176
pkg	-1177
cpua	-1178
ack	-1179
ppd	-1180
rev	-1181
clo	-1182
dup	-1183
por	-1184
url	-1185
Arg	-1186
wt	-1187
main	-1188
basea	-1189
os	-1190
Context	-1191
pE	-1192
Number	-1193
Ad	-1194
mar	-1195
heap	-1196
Key	-1197
need	-1198
channe	-1199
insn	-1200
Cmd	-1201
object	-1202
initial	-1203
cdb	-1204
secret	-1205
move	-1206
enc	-1207
hop	-1208
iei	-1209
bd	-1210
zero	-1211
fields	-1212
basedir	-1213
nl	-1214
iterator	-1215
long	-1216
labe	-1217
divisor	-1218
mid	-1219
ui	-1220
dbi	-1221
conne	-1222
puta	-1223
ard	-1224
ature	-1225
pbd	-1226
pha	-1227
hd	-1228
Dev	-1229
Code	-1230
dep	-1231
hlock	-1232
ption	-1233
handler	-1234
px	-1235
byteptr	-1236
pack	-1237
Set	-1238
famil	-1239
cer	-1240
Sizea	-1241
ino	-1242
daddr	-1243
pas	-1244
rbuf	-1245
Start	-1246
xlen	-1247
extra	-1248
nextptr	-1249
suf	-1250
mesh	-1251
This	-1252
statea	-1253
channels	-1254
dum	-1255
interp	-1256
opts	-1257
height	-1258
unit	-1259
Of	-1260
flu	-1261
botto	-1262
dummy	-1263
pInfo	-1264
socket	-1265
compa	-1266
Lengtha	-1267
colum	-1268
recv	-1269
Gra	-1270
receiver	-1271
look	-1272
strtab	-1273
day	-1274
ority	-1275
ies	-1276
json	-1277
cook	-1278
digit	-1279
module	-1280
endp	-1281
pol	-1282
digest	-1283
bi	-1284
ighta	-1285
reason	-1286
meth	-1287
Temp	-1288
term	-1289
za	-1290
ponse	-1291
ded	-1292
dstreg	-1293
rlimit	-1294
bufptr	-1295
part	-1296
parga	-1297
wordsa	-1298
begin	-1299
contro	-1300
ifname	-1301
outfile	-1302
finis	-1303
Mem	-1304
fielda	-1305
mutex	-1306
cq	-1307
peer	-1308
sor	-1309
blocks	-1310
ission	-1311
inc	-1312
uncomprLena	-1313
yyvaluep	-1314
Char	-1315
ipolite	-1316
Addr	-1317
arena	-1318
ctor	-1319
pair	-1320
pl	-1321
cost	-1322
rta	-1323
scan	-1324
pub	-1325
serial	-1326
alk	-1327
gover	-1328
priority	-1329
cookie	-1330
hex	-1331
Lena	-1332
prod	-1333
positiona	-1334
verif	-1335
bitpos	-1336
governor	-1337
frag	-1338
vt	-1339
coded	-1340
query	-1341
atch	-1342
xmit	-1343
Se	-1344
moda	-1345
dication	-1346
ces	-1347
resp	-1348
rq	-1349
upper	-1350
location	-1351
here	-1352
pBuffer	-1353
mes	-1354
slot	-1355
dira	-1356
nn	-1357
Ba	-1358
hasha	-1359
Result	-1360
Li	-1361
tem	-1362
seed	-1363
timetable	-1364
ml	-1365
run	-1366
pkey	-1367
blk	-1368
pida	-1369
shape	-1370
Walk	-1371
ObjDesc	-1372
Reg	-1373
auth	-1374
statusa	-1375
cta	-1376
sto	-1377
older	-1378
lhs	-1379
WalkState	-1380
img	-1381
smission	-1382
nc	-1383
inta	-1384
Sum	-1385
lic	-1386
bwt	-1387
vector	-1388
active	-1389
quo	-1390
date	-1391
step	-1392
service	-1393
chain	-1394
ag	-1395
newtok	-1396
tia	-1397
SC	-1398
vict	-1399
family	-1400
hdrptr	-1401
signature	-1402
ord	-1403
ner	-1404
tcache	-1405
show	-1406
riptor	-1407
befo	-1408
nodeb	-1409
arch	-1410
scale	-1411
synd	-1412
flush	-1413
originator	-1414
finish	-1415
yybotto	-1416
romes	-1417
syndromes	-1418
gener	-1419
infoa	-1420
aft	-1421
regs	-1422
ru	-1423
tid	-1424
Sy	-1425
case	-1426
ilt	-1427
built	-1428
secs	-1429
second	-1430
strateg	-1431
passed	-1432
64	-1433
Op	-1434
cn	-1435
wal	-1436
where	-1437
ram	-1438
mmar	-1439
receive	-1440
suffix	-1441
victim	-1442
return	-1443
dom	-1444
targeta	-1445
reader	-1446
Line	-1447
zPtr	-1448
MA	-1449
starttoken	-1450
fro	-1451
DevicePath	-1452
porta	-1453
desta	-1454
Return	-1455
Holder	-1456
siz	-1457
label	-1458
itsa	-1459
dim	-1460
ctxt	-1461
high	-1462
Off	-1463
skfd	-1464
optptr	-1465
walker	-1466
sumy	-1467
sumxy	-1468
capa	-1469
End	-1470
ink	-1471
ster	-1472
pS	-1473
For	-1474
align	-1475
strings	-1476
perio	-1477
Source	-1478
_16	-1479
Leve	-1480
Fast	-1481
memory	-1482
hist	-1483
Cont	-1484
detail	-1485
sza	-1486
game	-1487
default	-1488
bf	-1489
entri	-1490
ctxa	-1491
org	-1492
exit	-1493
Max	-1494
qa	-1495
Dest	-1496
cert	-1497
select	-1498
km	-1499
control	-1500
vo	-1501
cell	-1502
clu	-1503
Grammar	-1504
Socket	-1505
sector	-1506
rix	-1507
world	-1508
widtha	-1509
nbits	-1510
Bytes	-1511
sql	-1512
radi	-1513
numread	-1514
Object	-1515
bn	-1516
hem	-1517
sip	-1518
generic	-1519
optInS	-1520
blocka	-1521
dx	-1522
ephem	-1523
ST	-1524
svc	-1525
lc	-1526
rows	-1527
ee	-1528
response	-1529
cpa	-1530
hp	-1531
distance	-1532
IEs	-1533
cvt	-1534
iface	-1535
larg	-1536
lat	-1537
stbroadcast	-1538
Cu	-1539
stamp	-1540
bola	-1541
today	-1542
Instance	-1543
Period	-1544
pCo	-1545
city	-1546
cal	-1547
cycle	-1548
listenfd	-1549
pdev	-1550
wl	-1551
the	-1552
sect	-1553
builtname	-1554
ava	-1555
Flags	-1556
eno	-1557
Item	-1558
area	-1559
bitptr	-1560
leep	-1561
denom	-1562
stringb	-1563
iler	-1564
seconds	-1565
symbola	-1566
jo	-1567
Sta	-1568
Base	-1569
form	-1570
Option	-1571
fragment	-1572
before	-1573
paramHolder	-1574
Al	-1575
wi	-1576
ched	-1577
wraplen	-1578
curlen	-1579
iable	-1580
FileName	-1581
avctx	-1582
rypt	-1583
nwritten	-1584
Image	-1585
vcpu	-1586
graph	-1587
windowBits	-1588
sel	-1589
rank	-1590
voffset	-1591
af	-1592
cptr	-1593
eventsa	-1594
password	-1595
sender	-1596
DevPath	-1597
sche	-1598
details	-1599
eventptr	-1600
connfd	-1601
Read	-1602
iph	-1603
ssid	-1604
sreg	-1605
xtype	-1606
newv	-1607
get	-1608
rg	-1609
done	-1610
swap	-1611
Param	-1612
pina	-1613
pErr	-1614
poll	-1615
rexmit	-1616
bb	-1617
retb	-1618
rd	-1619
med	-1620
reply	-1621
ned	-1622
oldlenpa	-1623
box	-1624
descriptor	-1625
matrix	-1626
yybottoma	-1627
Guid	-1628
pred	-1629
ination	-1630
ctl	-1631
odd	-1632
task	-1633
script	-1634
entries	-1635
saved	-1636
bdf	-1637
yyrule	-1638
newsize	-1639
bitsa	-1640
optInFast	-1641
hCu	-1642
flaga	-1643
ressa	-1644
Di	-1645
after	-1646
Private	-1647
sleep	-1648
gfn	-1649
beg	-1650
toa	-1651
oot	-1652
windowBitsa	-1653
sup	-1654
otal	-1655
Offset	-1656
Lang	-1657
play	-1658
Ca	-1659
bt	-1660
___	-1661
Slot	-1662
rwlock	-1663
usage	-1664
pAbc	-1665
counts	-1666
transmission	-1667
nbytesa	-1668
Fun	-1669
skip	-1670
Total	-1671
digits	-1672
trailer	-1673
irq	-1674
mtd	-1675
lib	-1676
alia	-1677
qual	-1678
inted	-1679
lower	-1680
My	-1681
lan	-1682
cursor	-1683
Msg	-1684
indent	-1685
pm	-1686
modea	-1687
radius	-1688
nameptr	-1689
Level	-1690
kernel	-1691
received	-1692
funcInfo	-1693
inputa	-1694
Stream	-1695
cond	-1696
enable	-1697
bus	-1698
ciph	-1699
Loc	-1700
uptr	-1701
pFile	-1702
led	-1703
bestperf	-1704
Perioda	-1705
lex	-1706
pret	-1707
ension	-1708
devp	-1709
Pci	-1710
ller	-1711
pointa	-1712
connection	-1713
vr	-1714
chr	-1715
incr	-1716
destLen	-1717
ix	-1718
vb	-1719
cfg	-1720
pow	-1721
spec	-1722
mysql	-1723
dent	-1724
ua	-1725
yystr	-1726
cre	-1727
errc	-1728
post	-1729
acter	-1730
pCore	-1731
dn	-1732
psz	-1733
sess	-1734
sal	-1735
quence	-1736
lookback	-1737
arb	-1738
bucket	-1739
tnode	-1740
method	-1741
rth	-1742
indication	-1743
ound	-1744
maxlen	-1745
RA	-1746
mptr	-1747
sn	-1748
ures	-1749
iz	-1750
nal	-1751
member	-1752
vol	-1753
colon	-1754
tablea	-1755
track	-1756
lk	-1757
dbg	-1758
cod	-1759
dot	-1760
Mode	-1761
opta	-1762
pic	-1763
atea	-1764
Limit	-1765
strea	-1766
disa	-1767
inf	-1768
uage	-1769
addrlen	-1770
function	-1771
are	-1772
Next	-1773
reada	-1774
ios	-1775
From	-1776
round	-1777
sublen	-1778
ant	-1779
dupl	-1780
Variable	-1781
Child	-1782
xx	-1783
lowest	-1784
rror	-1785
ative	-1786
alpha	-1787
stop	-1788
fullname	-1789
oper	-1790
Bit	-1791
printed	-1792
valid	-1793
Ha	-1794
rdata	-1795
xb	-1796
rega	-1797
column	-1798
std	-1799
Header	-1800
bind	-1801
cbyte	-1802
Memory	-1803
paramHolderPriv	-1804
ih	-1805
nodes	-1806
pR	-1807
program	-1808
sequence	-1809
ilin	-1810
ilevel	-1811
lute	-1812
attrib	-1813
solute	-1814
dec	-1815
fixed	-1816
verify	-1817
filenamea	-1818
Ptra	-1819
pB	-1820
hig	-1821
home	-1822
Old	-1823
21	-1824
cba	-1825
lines	-1826
2_0	-1827
dlg	-1828
tit	-1829
offs	-1830
disable	-1831
infile	-1832
Ver	-1833
srv	-1834
Contro	-1835
pixel	-1836
fm	-1837
alf	-1838
capacity	-1839
outBegIdxa	-1840
bose	-1841
requ	-1842
cu	-1843
arraya	-1844
absolute	-1845
inv	-1846
stem	-1847
indi	-1848
ious	-1849
ftp	-1850
lineno	-1851
optInSlow	-1852
loca	-1853
Me	-1854
Inode	-1855
schema	-1856
period	-1857
feat	-1858
mtx	-1859
clockid	-1860
dt	-1861
uction	-1862
streama	-1863
extension	-1864
kmer	-1865
hw	-1866
neg	-1867
oldpa	-1868
tri	-1869
srcp	-1870
tw	-1871
features	-1872
mig	-1873
oldlenp	-1874
trailin	-1875
pretty	-1876
inReala	-1877
idxa	-1878
Curr	-1879
cols	-1880
mapped	-1881
No	-1882
half	-1883
sched	-1884
sem	-1885
sco	-1886
expra	-1887
Packet	-1888
rsdp	-1889
newline	-1890
cd	-1891
nexta	-1892
Language	-1893
multi	-1894
nextlen	-1895
Page	-1896
apic	-1897
havea	-1898
contents	-1899
bz	-1900
menua	-1901
fixa	-1902
cipher	-1903
pNew	-1904
ting	-1905
ping	-1906
coder	-1907
mpl	-1908
transmissions	-1909
board	-1910
ervice	-1911
gt	-1912
encoded	-1913
icl	-1914
elm	-1915
lon	-1916
hdl	-1917
trailingIdx	-1918
rx	-1919
ud	-1920
dictLengtha	-1921
RAB	-1922
largest	-1923
Tree	-1924
pw	-1925
theta	-1926
yymsga	-1927
sin	-1928
kern	-1929
leaf	-1930
oldp	-1931
Valuea	-1932
ofs	-1933
bug	-1934
maska	-1935
strategy	-1936
Namea	-1937
Nb	-1938
Error	-1939
points	-1940
wpa	-1941
signal	-1942
ifi	-1943
numwrite	-1944
nlh	-1945
isci	-1946
orom	-1947
gap	-1948
proces	-1949
mon	-1950
coe	-1951
lit	-1952
nz	-1953
Exp	-1954
title	-1955
worst	-1956
ated	-1957
hCuCmd	-1958
tmpM	-1959
hps	-1960
outer	-1961
eb	-1962
mfna	-1963
over	-1964
working	-1965
ident	-1966
non	-1967
Stack	-1968
callbacks	-1969
nonce	-1970
change	-1971
instruction	-1972
tokens	-1973
bitmap	-1974
inder	-1975
ency	-1976
outNBElementa	-1977
visi	-1978
nC	-1979
elf	-1980
even	-1981
wlen	-1982
tl	-1983
allocRes	-1984
tmpMallocRes	-1985
taba	-1986
Hash	-1987
Text	-1988
currenta	-1989
Pr	-1990
tmpa	-1991
liers	-1992
ition	-1993
migrate	-1994
tora	-1995
outliers	-1996
pList	-1997
oa	-1998
tcp	-1999
udp	-2000
tf	-2001
ans	-2002
pixf	-2003
mgr	-2004
heada	-2005
codeb	-2006
ndx	-2007
route	-2008
bio	-2009
flt	-2010
sep	-2011
hostname	-2012
hc	-2013
itr	-2014
fmta	-2015
rora	-2016
character	-2017
paramIndex	-2018
hops	-2019
entrya	-2020
ression	-2021
callbacka	-2022
vertex	-2023
Left	-2024
newitem	-2025
Enc	-2026
cred	-2027
coding	-2028
only	-2029
delim	-2030
mountpointa	-2031
xy	-2032
Ida	-2033
force	-2034
symname	-2035
mark	-2036
pPa	-2037
vdev	-2038
fifo	-2039
threads	-2040
psock	-2041
selector	-2042
La	-2043
datap	-2044
sourcea	-2045
jb	-2046
categ	-2047
Or	-2048
lasta	-2049
ica	-2050
retCode	-2051
tries	-2052
rection	-2053
idp	-2054
Bits	-2055
oldest	-2056
vmcb	-2057
username	-2058
gl	-2059
eloop	-2060
flen	-2061
stor	-2062
previous	-2063
reen	-2064
pbmul	-2065
store	-2066
display	-2067
txt	-2068
vp	-2069
cent	-2070
delay	-2071
lete	-2072
mainder	-2073
Sa	-2074
cept	-2075
Usb	-2076
itch	-2077
BufferSize	-2078
Link	-2079
alloca	-2080
tun	-2081
blen	-2082
yyvaluepa	-2083
10	-2084
Comp	-2085
Typea	-2086
Allocation	-2087
rat	-2088
region	-2089
curM	-2090
Space	-2091
rdc	-2092
Dataa	-2093
angle	-2094
tempReal	-2095
nm	-2096
shm	-2097
lient	-2098
At	-2099
vid	-2100
plain	-2101
inputb	-2102
lm	-2103
deno	-2104
alias	-2105
inodo	-2106
prefer	-2107
ren	-2108
inet	-2109
not	-2110
life	-2111
mcx	-2112
answ	-2113
psEnc	-2114
marker	-2115
cx	-2116
pdi	-2117
uration	-2118
uv	-2119
suc	-2120
grp	-2121
PciIo	-2122
righta	-2123
fileName	-2124
sfd	-2125
rect	-2126
buffa	-2127
history	-2128
bound	-2129
debug	-2130
conta	-2131
nla	-2132
open	-2133
ont	-2134
sca	-2135
pai	-2136
pPager	-2137
xml	-2138
Pool	-2139
outNb	-2140
channelno	-2141
outNbElement	-2142
hest	-2143
nodec	-2144
patch	-2145
records	-2146
pal	-2147
swp	-2148
Port	-2149
results	-2150
prv	-2151
propa	-2152
Tra	-2153
Controller	-2154
proc	-2155
vl	-2156
score	-2157
nf	-2158
smfn	-2159
lity	-2160
Ext	-2161
Ter	-2162
Event	-2163
weight	-2164
veca	-2165
RC	-2166
newp	-2167
Sub	-2168
drhd	-2169
Com	-2170
Parent	-2171
Buffera	-2172
rvp	-2173
IP	-2174
linka	-2175
queuebuf	-2176
stringTable	-2177
syms	-2178
cliaddr	-2179
cel	-2180
sysfsfpa	-2181
side	-2182
zone	-2183
ai	-2184
uest	-2185
eol	-2186
Hand	-2187
norm	-2188
AllocationSize	-2189
Request	-2190
factor	-2191
vrh	-2192
abs	-2193
argvb	-2194
dpi	-2195
job	-2196
mag	-2197
psf	-2198
erega	-2199
Na	-2200
meta	-2201
samples	-2202
product	-2203
Tempstr	-2204
cap	-2205
Word	-2206
dataptra	-2207
mnt	-2208
perm	-2209
avail	-2210
du	-2211
values	-2212
pBt	-2213
pD	-2214
SumX	-2215
fta	-2216
segment	-2217
setting	-2218
gtest	-2219
amt	-2220
Client	-2221
ches	-2222
Action	-2223
lig	-2224
close	-2225
vaa	-2226
offa	-2227
pCur	-2228
vars	-2229
datasize	-2230
processes	-2231
ank	-2232
subclass	-2233
gram	-2234
userspace	-2235
originatora	-2236
hn	-2237
ofp	-2238
Stride	-2239
rca	-2240
elt	-2241
cid	-2242
pdu	-2243
nest	-2244
poly	-2245
alignment	-2246
bestprefer	-2247
esca	-2248
gg	-2249
tory	-2250
froma	-2251
rover	-2252
mountpoint	-2253
bm	-2254
phase	-2255
Config	-2256
gw	-2257
Def	-2258
prefixa	-2259
hay	-2260
pixe	-2261
newlen	-2262
rexmits	-2263
haystack	-2264
outputa	-2265
Price	-2266
lshift	-2267
descriptors	-2268
minor	-2269
enabled	-2270
errora	-2271
remain	-2272
gb	-2273
attrs	-2274
alg	-2275
drv	-2276
pMan	-2277
nv	-2278
maj	-2279
whence	-2280
frequ	-2281
bfW	-2282
pAbfW	-2283
handPos	-2284
lanInfo	-2285
pAbfWlanInfo	-2286
diction	-2287
Mod	-2288
lenLimit	-2289
Vol	-2290
gu	-2291
enta	-2292
initialize	-2293
Pe	-2294
needle	-2295
highest	-2296
ini	-2297
ni	-2298
roo	-2299
Expr	-2300
System	-2301
uts	-2302
salt	-2303
mana	-2304
files	-2305
pT	-2306
errnum	-2307
heighta	-2308
ims	-2309
currentPlayera	-2310
grid	-2311
encoding	-2312
room	-2313
ell	-2314
onent	-2315
ratio	-2316
answer	-2317
domain	-2318
optionsa	-2319
categor	-2320
oerrno	-2321
verbose	-2322
timestamp	-2323
minator	-2324
rn	-2325
hopsa	-2326
netdev	-2327
lb	-2328
cluster	-2329
bility	-2330
pci	-2331
Form	-2332
rout	-2333
tick	-2334
ppm	-2335
tau	-2336
uiA	-2337
claims	-2338
Destination	-2339
frequency	-2340
cbp	-2341
Func	-2342
verifya	-2343
ressed	-2344
categories	-2345
transa	-2346
_32	-2347
pIo	-2348
portDesc	-2349
Sup	-2350
pixels	-2351
expecta	-2352
Output	-2353
kv	-2354
mlen	-2355
Found	-2356
newNode	-2357
enum	-2358
pctx	-2359
copylen	-2360
reads	-2361
stdout	-2362
paramInfo	-2363
eth	-2364
shndx	-2365
linkage	-2366
inser	-2367
fb	-2368
cpuid	-2369
success	-2370
ked	-2371
bytesize	-2372
sty	-2373
expression	-2374
with	-2375
Proto	-2376
final	-2377
attribute	-2378
Min	-2379
evsel	-2380
cola	-2381
mx	-2382
conv	-2383
Width	-2384
ripaddr	-2385
ordera	-2386
sition	-2387
rypted	-2388
dyn	-2389
Service	-2390
Div	-2391
mi	-2392
Ctx	-2393
progress	-2394
rdr	-2395
secrets	-2396
gmfn	-2397
mosq	-2398
pIoman	-2399
dip	-2400
impl	-2401
power	-2402
Pack	-2403
pageind	-2404
SystemTable	-2405
slash	-2406
vallena	-2407
Fan	-2408
rlc	-2409
mf	-2410
lice	-2411
nCap	-2412
teger	-2413
ameter	-2414
nameptra	-2415
Mo	-2416
lace	-2417
yymsg	-2418
medi	-2419
destr	-2420
cnta	-2421
storage	-2422
foo	-2423
Results	-2424
nsecs	-2425
paths	-2426
addressa	-2427
fac	-2428
joint	-2429
tunnel	-2430
resh	-2431
rid	-2432
outSize	-2433
progname	-2434
lega	-2435
lease	-2436
mime	-2437
pPar	-2438
loy	-2439
ernal	-2440
fw	-2441
32_	-2442
Ta	-2443
bla	-2444
funcDef	-2445
usec	-2446
cial	-2447
maps	-2448
1_0	-2449
cig	-2450
Posa	-2451
hhdr	-2452
allocator	-2453
ara	-2454
loyee	-2455
hdrbytesize	-2456
has	-2457
Prob	-2458
probe	-2459
indice	-2460
zz	-2461
bar	-2462
Dis	-2463
alo	-2464
legacy	-2465
encounter	-2466
strategya	-2467
ImageHandle	-2468
ctr	-2469
efd	-2470
lefta	-2471
secta	-2472
bufsize	-2473
numbera	-2474
Wr	-2475
keylen	-2476
maxfd	-2477
manager	-2478
notif	-2479
plugina	-2480
querya	-2481
fic	-2482
compare	-2483
outmin	-2484
hwm	-2485
parsed	-2486
Da	-2487
phi	-2488
sib	-2489
flow	-2490
checksum	-2491
Inter	-2492
Tmp	-2493
dista	-2494
plane	-2495
elements	-2496
nops	-2497
dif	-2498
siga	-2499
ipin	-2500
netif	-2501
river	-2502
multihop	-2503
rst	-2504
unk	-2505
adding	-2506
parama	-2507
termios	-2508
MyAddress	-2509
sen	-2510
wild	-2511
pty	-2512
ling	-2513
pL	-2514
major	-2515
colora	-2516
Indication	-2517
Args	-2518
Term	-2519
cbytea	-2520
kno	-2521
stored	-2522
Ap	-2523
nmem	-2524
Input	-2525
guard	-2526
pta	-2527
late	-2528
atype	-2529
formata	-2530
SourceBuffer	-2531
destination	-2532
Attr	-2533
Prev	-2534
linelen	-2535
Capa	-2536
chars	-2537
public	-2538
_3	-2539
amma	-2540
cells	-2541
Vars	-2542
mapa	-2543
Low	-2544
dictionary	-2545
Buff	-2546
knock	-2547
arglst	-2548
Position	-2549
ivo	-2550
pfx	-2551
pirq	-2552
publi	-2553
profile	-2554
Dir	-2555
Map	-2556
columns	-2557
Loop	-2558
igno	-2559
bssid	-2560
champ	-2561
mname	-2562
gain	-2563
fla	-2564
frac	-2565
First	-2566
lenb	-2567
oExp	-2568
tbin	-2569
roota	-2570
private	-2571
eng	-2572
tria	-2573
nta	-2574
agent	-2575
newfd	-2576
clilen	-2577
rtimer	-2578
rrp	-2579
rest	-2580
tptr	-2581
accept	-2582
interface	-2583
ws	-2584
Call	-2585
Flagsa	-2586
ception	-2587
lass	-2588
owner	-2589
nbr	-2590
parse	-2591
cmda	-2592
strb	-2593
zeroa	-2594
cfd	-2595
Bin	-2596
optptra	-2597
rand	-2598
hints	-2599
Current	-2600
arage	-2601
who	-2602
asc	-2603
dialo	-2604
treeT	-2605
rsa	-2606
occ	-2607
cptra	-2608
original	-2609
LS	-2610
flo	-2611
direction	-2612
rtaa	-2613
Src	-2614
Driver	-2615
qx	-2616
mata	-2617
chrdev	-2618
matches	-2619
uuid	-2620
inner	-2621
dpif	-2622
place	-2623
newnode	-2624
padding	-2625
daga	-2626
split	-2627
argumenta	-2628
ppi	-2629
ange	-2630
dirname	-2631
pCu	-2632
note	-2633
Format	-2634
recvline	-2635
spi	-2636
flgo	-2637
ReturnValue	-2638
licate	-2639
pBuf	-2640
ister	-2641
Pages	-2642
Mask	-2643
stmt	-2644
bk	-2645
rsp	-2646
shif	-2647
direc	-2648
idend	-2649
pfd	-2650
ifnode	-2651
pCode	-2652
fh	-2653
ear	-2654
arguments	-2655
rtmetrica	-2656
saw	-2657
items	-2658
search	-2659
newlena	-2660
transaction	-2661
lh	-2662
coef	-2663
expa	-2664
User	-2665
tags	-2666
insert	-2667
CA	-2668
fai	-2669
lsta	-2670
Ident	-2671
stridea	-2672
dna	-2673
rset	-2674
magic	-2675
Pei	-2676
ignore	-2677
connect	-2678
iay	-2679
lua	-2680
csid	-2681
merge	-2682
xp	-2683
amo	-2684
let	-2685
numbers	-2686
If	-2687
Root	-2688
kind	-2689
protocol	-2690
Is	-2691
Setup	-2692
qname	-2693
remove	-2694
ple	-2695
nPar	-2696
posSlot	-2697
trig	-2698
ume	-2699
arget	-2700
parenta	-2701
outReala	-2702
gp	-2703
xm	-2704
acsm	-2705
Local	-2706
comment	-2707
Init	-2708
disk	-2709
find	-2710
etype	-2711
pul	-2712
font	-2713
doc	-2714
eps	-2715
smsg	-2716
two	-2717
setup	-2718
vli	-2719
rela	-2720
Command	-2721
publica	-2722
pixs	-2723
gamma	-2724
pPage	-2725
escaped	-2726
pSocket	-2727
crt	-2728
Indexa	-2729
pwr	-2730
defa	-2731
quote	-2732
repmsg	-2733
Log	-2734
utf	-2735
vaddr	-2736
Cop	-2737
adj	-2738
bad	-2739
cao	-2740
mic	-2741
oLink	-2742
vidsa	-2743
fsym	-2744
Counta	-2745
descs	-2746
prime	-2747
OpCode	-2748
ending	-2749
prevlen	-2750
endtoken	-2751
bfp	-2752
noa	-2753
dump	-2754
names	-2755
Prices	-2756
hlen	-2757
rz	-2758
mis	-2759
dian	-2760
pref	-2761
Stringa	-2762
12	-2763
Ip	-2764
rk	-2765
Top	-2766
lsize	-2767
Handler	-2768
dynArray	-2769
csi	-2770
unl	-2771
blo	-2772
random	-2773
avp	-2774
see	-2775
down	-2776
ignal	-2777
verse	-2778
pn	-2779
tel	-2780
blka	-2781
iblk	-2782
vert	-2783
fpout	-2784
Interface	-2785
enva	-2786
chval	-2787
evt	-2788
curMatch	-2789
bita	-2790
duplicate	-2791
pMe	-2792
privatea	-2793
gid	-2794
cmds	-2795
cure	-2796
beare	-2797
ene	-2798
ulBlock	-2799
yp	-2800
stu	-2801
Bar	-2802
Lex	-2803
Dict	-2804
compressed	-2805
vlen	-2806
dialog	-2807
package	-2808
posicao	-2809
big	-2810
dlen	-2811
Component	-2812
sv	-2813
hdra	-2814
tient	-2815
cfp	-2816
dgram	-2817
ninodo	-2818
rrepmsg	-2819
denominator	-2820
inSize	-2821
octe	-2822
devfn	-2823
salen	-2824
typeflags	-2825
beta	-2826
Au	-2827
itema	-2828
children	-2829
aPtr	-2830
boundary	-2831
zh	-2832
flg	-2833
treea	-2834
handPosa	-2835
bpp	-2836
lvl	-2837
sdp	-2838
external	-2839
curelm	-2840
vtt	-2841
Oper	-2842
lookup	-2843
sockconn	-2844
eventLoop	-2845
11	-2846
bh	-2847
Pass	-2848
links	-2849
iommua	-2850
supp	-2851
clientfd	-2852
des	-2853
ioa	-2854
curp	-2855
Nodes	-2856
Point	-2857
black	-2858
Target	-2859
outlen	-2860
operation	-2861
clone	-2862
bearer	-2863
revent	-2864
attrlist	-2865
ax	-2866
shared	-2867
quotient	-2868
dm	-2869
pte	-2870
via	-2871
sing	-2872
cts	-2873
fid	-2874
UE	-2875
Up	-2876
multip	-2877
nba	-2878
ved	-2879
ecta	-2880
fout	-2881
exc	-2882
dirty	-2883
slice	-2884
white	-2885
strtaba	-2886
AT	-2887
Sec	-2888
inst	-2889
parameter	-2890
olda	-2891
propp	-2892
tempStr	-2893
0_	-2894
Fa	-2895
entic	-2896
exception	-2897
pie	-2898
prob	-2899
iList	-2900
hdrsizea	-2901
requester	-2902
shiftCount	-2903
lookbackTotal	-2904
ecc	-2905
quality	-2906
oLinkList	-2907
pipefd	-2908
wfd	-2909
numer	-2910
Statea	-2911
fc	-2912
ou	-2913
ibc	-2914
tba	-2915
cause	-2916
Ho	-2917
Col	-2918
hit	-2919
pdata	-2920
ationa	-2921
players	-2922
signed	-2923
displaya	-2924
seqnoa	-2925
mdContext	-2926
upa	-2927
maxlena	-2928
bitsLeft	-2929
servaddr	-2930
mr	-2931
mib	-2932
apparg	-2933
Sco	-2934
short	-2935
idP	-2936
pwc	-2937
exec	-2938
lang	-2939
wpls	-2940
Fv	-2941
parity	-2942
outbuf	-2943
Stra	-2944
comma	-2945
Blk	-2946
nptr	-2947
Pre	-2948
how	-2949
ctime	-2950
champion	-2951
PciIoDevice	-2952
Sym	-2953
remainder	-2954
uart	-2955
als	-2956
rptr	-2957
update	-2958
pMessage	-2959
progressa	-2960
Mar	-2961
vla	-2962
cura	-2963
idle	-2964
dicPos	-2965
limita	-2966
DataSize	-2967
ship	-2968
hlocka	-2969
Rep	-2970
cigar	-2971
engine	-2972
retran	-2973
bns	-2974
rowa	-2975
signo	-2976
longest	-2977
special	-2978
Dig	-2979
tty	-2980
Lista	-2981
thresh	-2982
debugfs	-2983
lem	-2984
band	-2985
pres	-2986
distances	-2987
outera	-2988
mapping	-2989
endian	-2990
Integer	-2991
LP	-2992
Oc	-2993
Aml	-2994
cand	-2995
indx	-2996
null	-2997
obja	-2998
const	-2999
pRule	-3000
pRuleEntry	-3001
Fr	-3002
rary	-3003
float	-3004
psize	-3005
arp	-3006
inval	-3007
parms	-3008
access	-3009
Pointer	-3010
paramsa	-3011
On	-3012
asd	-3013
failure	-3014
inp	-3015
what	-3016
style	-3017
usize	-3018
EN	-3019
lol	-3020
rer	-3021
adsa	-3022
sity	-3023
Lexer	-3024
started	-3025
Callback	-3026
remaining	-3027
bru	-3028
Lock	-3029
ptha	-3030
Write	-3031
auto	-3032
lemp	-3033
opsa	-3034
employee	-3035
symnamea	-3036
amount	-3037
repe	-3038
vide	-3039
Sample	-3040
delete	-3041
vd	-3042
nera	-3043
wk	-3044
Wor	-3045
ire	-3046
scr	-3047
deltaa	-3048
duration	-3049
bmp	-3050
msra	-3051
Frame	-3052
inlen	-3053
locked	-3054
ToBe	-3055
teda	-3056
bzerror	-3057
ebuf	-3058
sbuf	-3059
rxmit	-3060
types	-3061
borrow	-3062
datatype	-3063
mina	-3064
phdr	-3065
prot	-3066
ptrb	-3067
periodTotal	-3068
ill	-3069
ipv	-3070
lna	-3071
rfd	-3072
tool	-3073
tup	-3074
compptr	-3075
Sig	-3076
ticks	-3077
portDescPtr	-3078
pgno	-3079
plen	-3080
props	-3081
lap	-3082
mcs	-3083
ette	-3084
good	-3085
nown	-3086
speed	-3087
MAType	-3088
retransmission	-3089
IDa	-3090
ori	-3091
TreeNode	-3092
appD	-3093
lear	-3094
nment	-3095
reser	-3096
lz	-3097
sectors	-3098
__1	-3099
FMsg	-3100
blob	-3101
hook	-3102
Graph	-3103
inodea	-3104
pParse	-3105
Vec	-3106
attra	-3107
share	-3108
outputBuffer	-3109
clear	-3110
Un	-3111
wer	-3112
tens	-3113
SumXY	-3114
scoped	-3115
recvbuf	-3116
bir	-3117
Message	-3118
progName	-3119
shad	-3120
envp	-3121
rfds	-3122
Trans	-3123
pDe	-3124
voke	-3125
year	-3126
coord	-3127
appstate	-3128
guest	-3129
Operand	-3130
unda	-3131
ported	-3132
router	-3133
Function	-3134
troot	-3135
Sw	-3136
irus	-3137
freed	-3138
inbuf	-3139
milli	-3140
tempa	-3141
oldsize	-3142
packeta	-3143
ource	-3144
ference	-3145
Hdr	-3146
tuple	-3147
szFileName	-3148
suite	-3149
signum	-3150
Ctr	-3151
dio	-3152
taga	-3153
nParms	-3154
Aa	-3155
nua	-3156
piv	-3157
vie	-3158
pFan	-3159
Protocol	-3160
subframe	-3161
High	-3162
library	-3163
mh	-3164
oid	-3165
blue	-3166
selecta	-3167
tca	-3168
Field	-3169
halfH	-3170
numaa	-3171
Package	-3172
directory	-3173
curptr	-3174
resource	-3175
Free	-3176
ulta	-3177
repeat	-3178
aFile	-3179
metric	-3180
shadow	-3181
ggle	-3182
jsona	-3183
commit	-3184
_48	-3185
iht	-3186
rpl	-3187
urs	-3188
empty	-3189
closed	-3190
Remainder	-3191
Ehc	-3192
ttl	-3193
qui	-3194
SumY	-3195
pivot	-3196
native	-3197
passwd	-3198
psi	-3199
bia	-3200
clic	-3201
cfile	-3202
green	-3203
cyclic	-3204
normal	-3205
commandline	-3206
lab	-3207
lead	-3208
vals	-3209
cm	-3210
lsp	-3211
pwd	-3212
dify	-3213
brush	-3214
stbir	-3215
wsize	-3216
hdrsize	-3217
chk	-3218
mean	-3219
hdrlen	-3220
Statusa	-3221
Mil	-3222
rege	-3223
Milli	-3224
inIdx	-3225
plist	-3226
optInSlowPerioda	-3227
aip	-3228
stk	-3229
ascii	-3230
incre	-3231
modes	-3232
replace	-3233
ov	-3234
uiB	-3235
tblP	-3236
identity	-3237
bw	-3238
eid	-3239
iia	-3240
spa	-3241
argvp	-3242
appstatea	-3243
sdom	-3244
front	-3245
pBuffera	-3246
outfilename	-3247
ifier	-3248
clb	-3249
abuf	-3250
bufpa	-3251
units	-3252
optInSignal	-3253
pv	-3254
Open	-3255
sink	-3256
Marker	-3257
linenoa	-3258
Location	-3259
fication	-3260
atcha	-3261
forwar	-3262
nBytes	-3263
lifetime	-3264
mPtr	-3265
plot	-3266
master	-3267
indenta	-3268
messagea	-3269
optInFastPerioda	-3270
rpc	-3271
ridge	-3272
internal	-3273
optInSlowPeriod	-3274
LSF	-3275
bst	-3276
Sock	-3277
disp	-3278
fptr	-3279
hashtblP	-3280
chn	-3281
vmcs	-3282
Struct	-3283
revents	-3284
MemoryType	-3285
opc	-3286
uma	-3287
ener	-3288
fdset	-3289
fnamea	-3290
inlena	-3291
pState	-3292
mail	-3293
rexm	-3294
tmppc	-3295
bitposa	-3296
rexmita	-3297
Grammara	-3298
VolNum	-3299
parg	-3300
cmpa	-3301
resol	-3302
PInode	-3303
countera	-3304
instancea	-3305
mq	-3306
devfna	-3307
innera	-3308
prompta	-3309
addrstra	-3310
bzf	-3311
klen	-3312
LB	-3313
ush	-3314
veloc	-3315
MATypea	-3316
amtreada	-3317
authentic	-3318
Row	-3319
nrm	-3320
_8_1	-3321
usrbuf	-3322
reasons	-3323
increment	-3324
Ac	-3325
grow	-3326
ntax	-3327
emm	-3328
Quest	-3329
copya	-3330
exact	-3331
Samples	-3332
comprLena	-3333
gi	-3334
sVal	-3335
VmPtr	-3336
endor	-3337
enuma	-3338
iname	-3339
Region	-3340
wildcard	-3341
Req	-3342
ams	-3343
more	-3344
ppos	-3345
UsbIo	-3346
optInFastPeriod	-3347
gta	-3348
iov	-3349
squ	-3350
Comm	-3351
Disk	-3352
lose	-3353
report	-3354
dya	-3355
worda	-3356
pCuCmd	-3357
00	-3358
Right	-3359
ltime	-3360
VarName	-3361
retValue	-3362
SA	-3363
pts	-3364
nmemb	-3365
syntax	-3366
kb	-3367
gota	-3368
uaddr	-3369
usera	-3370
envdir	-3371
register	-3372
tsa	-3373
cpus	-3374
equal	-3375
shell	-3376
Ctrl	-3377
Scope	-3378
lapsed	-3379
nCapMin	-3380
relocs	-3381
angleMilli	-3382
arc	-3383
avg	-3384
rtp	-3385
Proc	-3386
wire	-3387
PoolType	-3388
sf	-3389
rot	-3390
fill	-3391
ived	-3392
pCut	-3393
Resulta	-3394
ControllerHandle	-3395
wga	-3396
http	-3397
Bridge	-3398
needcolon	-3399
dsa	-3400
arse	-3401
seqa	-3402
vpmu	-3403
availa	-3404
coarse	-3405
itional	-3406
unsigned	-3407
cpy	-3408
ifp	-3409
eded	-3410
hint	-3411
inal	-3412
numerator	-3413
icem	-3414
eventp	-3415
linked	-3416
decoder	-3417
Resource	-3418
sectionaddra	-3419
lg	-3420
mounts	-3421
tcpsock	-3422
neighbo	-3423
pI	-3424
esa	-3425
soc	-3426
bnum	-3427
chal	-3428
supply	-3429
Decoder	-3430
static	-3431
tocopy	-3432
CH	-3433
tgt	-3434
itra	-3435
fence	-3436
locka	-3437
toler	-3438
qinval	-3439
tolerance	-3440
ef	-3441
hu	-3442
Dec	-3443
Response	-3444
gz	-3445
deva	-3446
ject	-3447
lyph	-3448
jj	-3449
ada	-3450
psd	-3451
Host	-3452
oTreeNode	-3453
gpa	-3454
trap	-3455
times	-3456
towrite	-3457
inputdata	-3458
commandlinea	-3459
tcb	-3460
defs	-3461
ical	-3462
inda	-3463
proga	-3464
snd	-3465
idate	-3466
discard	-3467
Sign	-3468
enca	-3469
Order	-3470
allow	-3471
errmsg	-3472
ponent	-3473
ctimewait	-3474
Ax	-3475
lip	-3476
qun	-3477
istr	-3478
thiz	-3479
shake	-3480
toggle	-3481
pending	-3482
listener	-3483
supplyPos	-3484
br	-3485
ekey	-3486
Verbose	-3487
huge	-3488
border	-3489
childa	-3490
derived	-3491
sist	-3492
keysa	-3493
nVars	-3494
price	-3495
Garage	-3496
Tbl	-3497
alt	-3498
ckh	-3499
mpa	-3500
curs	-3501
inLow	-3502
rowsa	-3503
Question	-3504
28	-3505
hrec	-3506
bject	-3507
chunkb	-3508
taille	-3509
constraint	-3510
DB	-3511
qi	-3512
mob	-3513
pru	-3514
mesg	-3515
couts	-3516
attrlen	-3517
sendline	-3518
jwe	-3519
Supported	-3520
Err	-3521
can	-3522
jwk	-3523
sorted	-3524
bea	-3525
timeouta	-3526
pListEntry	-3527
ucs	-3528
objecta	-3529
curMatcha	-3530
Opa	-3531
eax	-3532
Range	-3533
learn	-3534
maddr	-3535
by	-3536
fbn	-3537
imum	-3538
lenge	-3539
listP	-3540
backoff	-3541
gy	-3542
ipa	-3543
crit	-3544
pixd	-3545
uria	-3546
utes	-3547
Conne	-3548
Nodea	-3549
media	-3550
useda	-3551
vptr	-3552
bina	-3553
chea	-3554
rqst	-3555
spacea	-3556
thr	-3557
gena	-3558
chunka	-3559
Divisor	-3560
playera	-3561
nrtmetrica	-3562
fit	-3563
ifr	-3564
confi	-3565
outlink	-3566
pStream	-3567
Upd	-3568
ecx	-3569
Match	-3570
blena	-3571
deptha	-3572
driver	-3573
nstart	-3574
Optional	-3575
Descriptor	-3576
ach	-3577
epa	-3578
bank	-3579
fdsa	-3580
inC	-3581
numero	-3582
predic	-3583
Section	-3584
Services	-3585
chor	-3586
piece	-3587
opaqueCtx	-3588
ador	-3589
cons	-3590
diag	-3591
familya	-3592
challenge	-3593
Bea	-3594
mea	-3595
rema	-3596
rime	-3597
vera	-3598
preda	-3599
yytop	-3600
fVerbose	-3601
yybottom	-3602
cos	-3603
dpci	-3604
draw	-3605
Bound	-3606
posState	-3607
expressiona	-3608
okm	-3609
pbuf	-3610
ifnum	-3611
system	-3612
palette	-3613
PeiServices	-3614
Ack	-3615
Fac	-3616
etx	-3617
serve	-3618
mapbits	-3619
pointsa	-3620
hf	-3621
epd	-3622
ona	-3623
pdx	-3624
bIdx	-3625
screen	-3626
srcLen	-3627
fHandle	-3628
xq	-3629
Cnt	-3630
fil	-3631
ehdr	-3632
pArea	-3633
sistent	-3634
visible	-3635
rimeaddr	-3636
handshake	-3637
apa	-3638
perc	-3639
network	-3640
deg	-3641
Fail	-3642
decrypted	-3643
encrypted	-3644
camin	-3645
quota	-3646
needed	-3647
Filename	-3648
Bo	-3649
destro	-3650
Last	-3651
xnew	-3652
scopedResults	-3653
txa	-3654
trip	-3655
vnum	-3656
Nr	-3657
btype	-3658
ulIdx	-3659
errstr	-3660
closeda	-3661
Argument	-3662
archivo	-3663
streamable	-3664
csrc	-3665
lump	-3666
bodya	-3667
seals	-3668
wgapa	-3669
pNtkNew	-3670
available	-3671
ancel	-3672
incon	-3673
telnet	-3674
FormSet	-3675
MyNumber	-3676
inconsistent	-3677
dnode	-3678
separ	-3679
milliseconds	-3680
Dh	-3681
Dhcp	-3682
virt	-3683
camino	-3684
transfer	-3685
xi	-3686
acb	-3687
spr	-3688
costa	-3689
small	-3690
PrivateData	-3691
mn	-3692
puc	-3693
lladdr	-3694
DBF	-3695
Hii	-3696
ado	-3697
bran	-3698
echo	-3699
errd	-3700
tbla	-3701
switch	-3702
inClose	-3703
policya	-3704
multiple	-3705
newarray	-3706
VariableName	-3707
hv	-3708
cdr	-3709
micro	-3710
Proper	-3711
Update	-3712
destruc	-3713
optInNb	-3714
UR	-3715
ense	-3716
ents	-3717
seek	-3718
turn	-3719
codes	-3720
OpCodeHandle	-3721
Ref	-3722
eap	-3723
slo	-3724
imer	-3725
crypt	-3726
minus	-3727
proxy	-3728
weigh	-3729
ronment	-3730
PtrArray	-3731
oldvalue	-3732
predicate	-3733
tempfloat	-3734
partition	-3735
requested	-3736
rte	-3737
wta	-3738
Envi	-3739
square	-3740
instructiona	-3741
Big	-3742
lev	-3743
rip	-3744
Copy	-3745
visibility	-3746
lr	-3747
gce	-3748
alig	-3749
szVarName	-3750
npa	-3751
succ	-3752
aliasa	-3753
crement	-3754
die	-3755
pptr	-3756
basen	-3757
retry	-3758
cstate	-3759
quoted	-3760
basename	-3761
nSamples	-3762
velocity	-3763
heck	-3764
ListHead	-3765
NumberOf	-3766
Isp	-3767
Thru	-3768
meas	-3769
saddr	-3770
IspEnvi	-3771
offsets	-3772
PassThru	-3773
IspEnvironment	-3774
Fd	-3775
SS	-3776
nh	-3777
vh	-3778
xe	-3779
pac	-3780
RABToBe	-3781
namebuf	-3782
oExpToken	-3783
adc	-3784
modi	-3785
gc	-3786
bau	-3787
mal	-3788
nna	-3789
Check	-3790
distb	-3791
nable	-3792
ong	-3793
vara	-3794
liste	-3795
reset	-3796
employeePtrArray	-3797
loga	-3798
addrs	-3799
scope	-3800
ution	-3801
vNodes	-3802
leftCount	-3803
prom	-3804
cture	-3805
eeprom	-3806
Increment	-3807
xs	-3808
jbuf	-3809
Stora	-3810
lexer	-3811
nsyms	-3812
pfile	-3813
varsa	-3814
Storage	-3815
Timeout	-3816
dte	-3817
Boot	-3818
clcf	-3819
Extra	-3820
baudr	-3821
light	-3822
clienta	-3823
configa	-3824
WalkStatea	-3825
Use	-3826
fat	-3827
jcp	-3828
own	-3829
deci	-3830
dstp	-3831
iType	-3832
moves	-3833
paddr	-3834
psEncC	-3835
subclassa	-3836
tempValue	-3837
tep	-3838
cust	-3839
metho	-3840
verbo	-3841
denoma	-3842
spring	-3843
champions	-3844
dstStride	-3845
verbosity	-3846
ProbPrices	-3847
outSizeCur	-3848
mlist	-3849
curity	-3850
numBytes	-3851
Inc	-3852
yes	-3853
ning	-3854
least	-3855
inlink	-3856
bVolNum	-3857
maxsize	-3858
dg	-3859
fde	-3860
lid	-3861
pdn	-3862
rcv	-3863
allocBig	-3864
IN	-3865
Clu	-3866
had	-3867
Meth	-3868
Test	-3869
hift	-3870
ueid	-3871
month	-3872
create	-3873
ioapic	-3874
Property	-3875
hh	-3876
edx	-3877
epb	-3878
shn	-3879
ura	-3880
cset	-3881
controller	-3882
Pin	-3883
pata	-3884
tgta	-3885
accum	-3886
tmparea	-3887
iteration	-3888
threshold	-3889
imp	-3890
oks	-3891
tsc	-3892
tify	-3893
uhdr	-3894
ename	-3895
oname	-3896
postfix	-3897
dividend	-3898
blockSize	-3899
dpa	-3900
intr	-3901
oriz	-3902
tcba	-3903
monst	-3904
psDec	-3905
Volume	-3906
binary	-3907
oExpParser	-3908
ux	-3909
eya	-3910
snap	-3911
fract	-3912
Notify	-3913
maxLen	-3914
notifya	-3915
additional	-3916
infilename	-3917
abfd	-3918
picref	-3919
vlapic	-3920
symtabsize	-3921
df	-3922
Rank	-3923
Shift	-3924
activ	-3925
gamea	-3926
opflags	-3927
FilePath	-3928
addrlena	-3929
relative	-3930
Orig	-3931
inum	-3932
ould	-3933
limits	-3934
Ai	-3935
Bus	-3936
boxa	-3937
fpin	-3938
trav	-3939
Exist	-3940
oldpc	-3941
encrypt	-3942
pyx	-3943
sap	-3944
ckey	-3945
octet	-3946
ription	-3947
decl	-3948
copyb	-3949
Method	-3950
pFanin	-3951
shifted	-3952
mandator	-3953
uriTable	-3954
hna	-3955
irp	-3956
newpa	-3957
exponent	-3958
Sd	-3959
cia	-3960
ypa	-3961
flip	-3962
csida	-3963
rvala	-3964
strlen	-3965
formation	-3966
4_	-3967
Sb	-3968
descr	-3969
tracee	-3970
nick	-3971
team	-3972
typeb	-3973
Configuration	-3974
uy	-3975
Udp	-3976
pmk	-3977
tar	-3978
psRC	-3979
probs	-3980
psDBF	-3981
letter	-3982
complex	-3983
relocsa	-3984
stringArray	-3985
Opt	-3986
msp	-3987
spo	-3988
bpos	-3989
center	-3990
founda	-3991
det	-3992
trp	-3993
Iter	-3994
expi	-3995
tracer	-3996
lla	-3997
zip	-3998
arqu	-3999
clnt	-4000
ivya	-4001
pDst	-4002
reqa	-4003
topa	-4004
parts	-4005
compst	-4006
beforea	-4007
Typ	-4008
pitch	-4009
ession	-4010
extraa	-4011
namelen	-4012
pMyArgument	-4013
eq	-4014
glyph	-4015
listfd	-4016
should	-4017
newsockfd	-4018
eda	-4019
mda	-4020
pIn	-4021
phys	-4022
oldptr	-4023
tracea	-4024
MO	-4025
cwd	-4026
nsec	-4027
sectorsa	-4028
01	-4029
NB	-4030
Tx	-4031
cv	-4032
vpic	-4033
cteda	-4034
rulea	-4035
protoa	-4036
Dividend	-4037
baudrate	-4038
bsx	-4039
did	-4040
Wext	-4041
guid	-4042
nCapa	-4043
Common	-4044
filePtr	-4045
Vi	-4046
pit	-4047
uplo	-4048
anchor	-4049
ipPacket	-4050
pStringa	-4051
TableDesc	-4052
ofservice	-4053
qualityofservice	-4054
GCA	-4055
typ	-4056
clan	-4057
energy	-4058
addrstr	-4059
errcode	-4060
present	-4061
SH	-4062
nas	-4063
oka	-4064
Arch	-4065
icmp	-4066
nowa	-4067
pCtx	-4068
totd	-4069
utex	-4070
bufev	-4071
realm	-4072
hvalue	-4073
pconfig	-4074
deck	-4075
dkey	-4076
nargs	-4077
bufsizea	-4078
dummyBuffer	-4079
Mat	-4080
flist	-4081
iSize	-4082
vring	-4083
newSize	-4084
statbuf	-4085
prioritya	-4086
1_8	-4087
ior	-4088
Decl	-4089
revs	-4090
Intern	-4091
aftera	-4092
classb	-4093
contact	-4094
valuesa	-4095
fragmenta	-4096
denominatora	-4097
ust	-4098
dete	-4099
envP	-4100
notify	-4101
pagesa	-4102
pindex	-4103
rangea	-4104
Failure	-4105
PL	-4106
eva	-4107
Bind	-4108
Symb	-4109
pData	-4110
ready	-4111
Attrib	-4112
Symbol	-4113
exiType	-4114
operand	-4115
linenuma	-4116
selected	-4117
matchByte	-4118
30	-4119
Do	-4120
iw	-4121
bss	-4122
iot	-4123
nra	-4124
flgn	-4125
outp	-4126
tmpl	-4127
udev	-4128
vids	-4129
cancel	-4130
compra	-4131
pAction	-4132
HiiHandle	-4133
optInFastD	-4134
Gro	-4135
msi	-4136
bool	-4137
pixt	-4138
quad	-4139
clifd	-4140
valida	-4141
lineNumber	-4142
aes	-4143
prg	-4144
sur	-4145
Coef	-4146
ific	-4147
Alloc	-4148
amask	-4149
dmask	-4150
proper	-4151
shifta	-4152
symtaba	-4153
cad	-4154
rnd	-4155
Thread	-4156
prep	-4157
rtsp	-4158
erride	-4159
BufferPos	-4160
cyclicBufferPos	-4161
hm	-4162
qq	-4163
vx	-4164
cord	-4165
pOut	-4166
ruth	-4167
known	-4168
pposa	-4169
sical	-4170
slave	-4171
subject	-4172
contentType	-4173
nx	-4174
fnd	-4175
fol	-4176
nue	-4177
oti	-4178
opena	-4179
itrack	-4180
sibling	-4181
Ga	-4182
pu	-4183
xc	-4184
Int	-4185
agc	-4186
ppt	-4187
Auth	-4188
cmap	-4189
crca	-4190
dnew	-4191
build	-4192
hCuWext	-4193
candidate	-4194
nom	-4195
pba	-4196
Colo	-4197
dirp	-4198
hold	-4199
wake	-4200
regex	-4201
cadena	-4202
0_0	-4203
gmt	-4204
tam	-4205
Menu	-4206
exta	-4207
ndim	-4208
shdr	-4209
pktin	-4210
verts	-4211
PosState	-4212
portDescPtra	-4213
Ppi	-4214
Tag	-4215
ife	-4216
pgp	-4217
pti	-4218
Long	-4219
nblo	-4220
pGraph	-4221
Binding	-4222
nbloque	-4223
vf	-4224
pfec	-4225
destroy	-4226
nodeptr	-4227
template	-4228
aad	-4229
eNB	-4230
esm	-4231
oom	-4232
prc	-4233
usr	-4234
sync	-4235
vvmcs	-4236
Bearer	-4237
DhcpSb	-4238
retvala	-4239
serveur	-4240
pNewState	-4241
bytearraya	-4242
Ne	-4243
Que	-4244
baud	-4245
Sector	-4246
groupa	-4247
strptr	-4248
nonTerm	-4249
pinBase	-4250
Dst	-4251
rqd	-4252
atta	-4253
tout	-4254
binind	-4255
filtera	-4256
security	-4257
rxmittimea	-4258
transmissionsa	-4259
nid	-4260
cdst	-4261
prim	-4262
sole	-4263
elapsed	-4264
settings	-4265
ReturnObject	-4266
funcDefTable	-4267
PA	-4268
hx	-4269
ict	-4270
rgb	-4271
sser	-4272
Cache	-4273
nvars	-4274
Enable	-4275
bufSize	-4276
parents	-4277
Languages	-4278
ComponentName	-4279
fdt	-4280
elen	-4281
Stamp	-4282
skill	-4283
sters	-4284
iclass	-4285
Internal	-4286
transport	-4287
FileHandle	-4288
TG	-4289
Fat	-4290
tch	-4291
labela	-4292
nameFile	-4293
description	-4294
wg	-4295
paa	-4296
suma	-4297
erial	-4298
Default	-4299
adr	-4300
zdd	-4301
ilen	-4302
olen	-4303
cpmsg	-4304
quiet	-4305
Decode	-4306
newptr	-4307
Counter	-4308
ME	-4309
bel	-4310
fork	-4311
nomb	-4312
account	-4313
remains	-4314
flp	-4315
nib	-4316
pleb	-4317
Digits	-4318
dirent	-4319
release	-4320
capability	-4321
retransmissionsa	-4322
RE	-4323
sx	-4324
Chan	-4325
dwin	-4326
mass	-4327
inHigh	-4328
digitsa	-4329
indexes	-4330
subtree	-4331
___0	-4332
aded	-4333
inga	-4334
ctxta	-4335
branch	-4336
linenum	-4337
colonpos	-4338
channelsa	-4339
zerolength	-4340
rh	-4341
Visi	-4342
bump	-4343
msec	-4344
parr	-4345
bps	-4346
sga	-4347
stm	-4348
vma	-4349
refa	-4350
tour	-4351
MyBuf	-4352
desca	-4353
relas	-4354
smaps	-4355
using	-4356
reject	-4357
pollfds	-4358
threada	-4359
symtabsizea	-4360
sectionbasea	-4361
pMob	-4362
hooks	-4363
quant	-4364
childusage	-4365
jc	-4366
LPC	-4367
MAC	-4368
qua	-4369
noti	-4370
priva	-4371
Lea	-4372
pcmd	-4373
newbuf	-4374
readlen	-4375
comparea	-4376
Non	-4377
iva	-4378
narg	-4379
Delete	-4380
pop	-4381
sepa	-4382
Class	-4383
offsa	-4384
lengths	-4385
ParentNode	-4386
ves	-4387
rptra	-4388
bloque	-4389
nmemba	-4390
tabptr	-4391
invalid	-4392
scaling	-4393
sentine	-4394
reserved	-4395
FromValue	-4396
signaturea	-4397
CRC	-4398
Seg	-4399
circ	-4400
sired	-4401
nzmaxa	-4402
Release	-4403
toff	-4404
passa	-4405
plast	-4406
virus	-4407
statsa	-4408
ComponentNamea	-4409
but	-4410
pde	-4411
upt	-4412
Mult	-4413
cphi	-4414
dima	-4415
Colum	-4416
Verts	-4417
macro	-4418
pName	-4419
scratch	-4420
tcachea	-4421
nw	-4422
buy	-4423
cut	-4424
ola	-4425
tip	-4426
Numa	-4427
izer	-4428
ucle	-4429
ooter	-4430
bitPer	-4431
untime	-4432
gparent	-4433
nbloques	-4434
lowercase	-4435
nSamplesIn	-4436
kl	-4437
chpa	-4438
deli	-4439
Group	-4440
argcb	-4441
bytea	-4442
exist	-4443
garage	-4444
shapea	-4445
Control	-4446
Connection	-4447
cpi	-4448
sRC	-4449
uses	-4450
arity	-4451
otide	-4452
damage	-4453
picture	-4454
operator	-4455
ucleotide	-4456
TokenNumber	-4457
Mac	-4458
equ	-4459
gwa	-4460
ick	-4461
oob	-4462
sol	-4463
stp	-4464
Glob	-4465
Resp	-4466
Vala	-4467
ffrg	-4468
maca	-4469
seca	-4470
todo	-4471
pname	-4472
matcha	-4473
Contexta	-4474
ico	-4475
Rate	-4476
dead	-4477
epis	-4478
oact	-4479
semid	-4480
tdata	-4481
aligned	-4482
changed	-4483
episode	-4484
optiona	-4485
property	-4486
kk	-4487
LAR	-4488
corr	-4489
paia	-4490
pkts	-4491
rmrr	-4492
expan	-4493
Second	-4494
volume	-4495
IS	-4496
apE	-4497
chb	-4498
hexa	-4499
pied	-4500
clipy	-4501
nrows	-4502
Acknow	-4503
totdoc	-4504
actuala	-4505
amtread	-4506
pString	-4507
Acknowled	-4508
neighbour	-4509
ErrorLevel	-4510
sphi	-4511
heads	-4512
fullpath	-4513
goo	-4514
caid	-4515
pent	-4516
ropy	-4517
valb	-4518
bottom	-4519
Entries	-4520
entropy	-4521
delimiter	-4522
tempString	-4523
Wa	-4524
pch	-4525
tap	-4526
rote	-4527
email	-4528
progs	-4529
separator	-4530
dictLength	-4531
Fra	-4532
Lim	-4533
dro	-4534
mix	-4535
lenp	-4536
pile	-4537
Queue	-4538
domid	-4539
savea	-4540
npages	-4541
modname	-4542
weighta	-4543
xlength	-4544
uriEntry	-4545
eep	-4546
lnk	-4547
pfc	-4548
coefs	-4549
modul	-4550
vconn	-4551
contextb	-4552
filesize	-4553
handlera	-4554
ChildNode	-4555
dle	-4556
eof	-4557
colle	-4558
regsa	-4559
sweep	-4560
taman	-4561
Occurs	-4562
isters	-4563
charset	-4564
suffixa	-4565
Handover	-4566
uppercase	-4567
testResults	-4568
ebx	-4569
sam	-4570
want	-4571
voice	-4572
Footer	-4573
custom	-4574
pcache	-4575
vendor	-4576
optional	-4577
xmlParser	-4578
syntaxTree	-4579
bg	-4580
amp	-4581
pPg	-4582
pnm	-4583
psc	-4584
Label	-4585
pNLSF	-4586
periods	-4587
uniname	-4588
rounding	-4589
LI	-4590
Sha	-4591
fbp	-4592
nat	-4593
tios	-4594
consu	-4595
linha	-4596
ports	-4597
LocalPath	-4598
Acknowledge	-4599
errorBuffer	-4600
SD	-4601
dfa	-4602
ppa	-4603
oram	-4604
wave	-4605
linep	-4606
video	-4607
invoke	-4608
Transfer	-4609
videoram	-4610
ification	-4611
timeStamp	-4612
fx	-4613
Iso	-4614
psa	-4615
spA	-4616
prof	-4617
lvala	-4618
ptype	-4619
verti	-4620
Record	-4621
iremap	-4622
opCode	-4623
srcLena	-4624
microseconds	-4625
3_	-4626
eh	-4627
sthe	-4628
resid	-4629
argvpa	-4630
define	-4631
escape	-4632
vtimea	-4633
tamanho	-4634
physical	-4635
TableIndex	-4636
TextDevice	-4637
bv	-4638
chp	-4639
pst	-4640
higha	-4641
parti	-4642
OfGarage	-4643
mj	-4644
Gpe	-4645
bca	-4646
Cell	-4647
fier	-4648
fnidx	-4649
simple	-4650
reverse	-4651
AV	-4652
ak	-4653
ebi	-4654
ied	-4655
jif	-4656
clen	-4657
osip	-4658
prio	-4659
alist	-4660
rvalb	-4661
rvalc	-4662
Switch	-4663
arquivo	-4664
encoder	-4665
latency	-4666
varname	-4667
srcStride	-4668
tos	-4669
Pene	-4670
Sele	-4671
memb	-4672
Color	-4673
Penetr	-4674
middle	-4675
indices	-4676
trylock	-4677
subValue	-4678
blockList	-4679
optInPenetr	-4680
Now	-4681
mos	-4682
ose	-4683
spc	-4684
ton	-4685
Prog	-4686
peda	-4687
qstr	-4688
celer	-4689
pTime	-4690
strip	-4691
copied	-4692
inFile	-4693
needlea	-4694
22	-4695
Fvb	-4696
adv	-4697
aff	-4698
npt	-4699
tsp	-4700
blog	-4701
fies	-4702
ized	-4703
pseg	-4704
vlia	-4705
minal	-4706
chanic	-4707
ground	-4708
nombre	-4709
numPro	-4710
pDesca	-4711
srvreg	-4712
blogico	-4713
jiffies	-4714
SetupList	-4715
optInMAType	-4716
pV	-4717
msa	-4718
coor	-4719
ness	-4720
chirp	-4721
fsize	-4722
netns	-4723
Initial	-4724
attributeWord	-4725
fam	-4726
ise	-4727
Msga	-4728
lamb	-4729
maxt	-4730
confa	-4731
kmers	-4732
optsa	-4733
sizes	-4734
checka	-4735
lambda	-4736
optval	-4737
Capacity	-4738
variable	-4739
FD	-4740
SU	-4741
safe	-4742
nSize	-4743
Cluster	-4744
ifindex	-4745
pixelsa	-4746
Pid	-4747
Txt	-4748
gre	-4749
nxt	-4750
psp	-4751
Expe	-4752
iptr	-4753
strc	-4754
void	-4755
RetStr	-4756
srclen	-4757
Setting	-4758
resolver	-4759
63	-4760
dou	-4761
hmm	-4762
oht	-4763
uop	-4764
Dist	-4765
pMsg	-4766
freqa	-4767
toread	-4768
numVerts	-4769
numberOf	-4770
secondsa	-4771
component	-4772
vg	-4773
mcf	-4774
pcm	-4775
mpro	-4776
tive	-4777
fencepost	-4778
matchBytea	-4779
yb	-4780
ert	-4781
errs	-4782
flgs	-4783
pTab	-4784
Begin	-4785
reuse	-4786
rings	-4787
whata	-4788
arator	-4789
bindir	-4790
symbols	-4791
celeration	-4792
outputBuffera	-4793
ivhd	-4794
spot	-4795
hvmem	-4796
colors	-4797
apparga	-4798
decimal	-4799
hashval	-4800
hvmemul	-4801
SubBuffer	-4802
lowestIdx	-4803
Emp	-4804
Mnp	-4805
abx	-4806
tom	-4807
bPtr	-4808
soci	-4809
clean	-4810
direct	-4811
eca	-4812
Alig	-4813
ethIf	-4814
increa	-4815
outlena	-4816
station	-4817
StackTop	-4818
childpid	-4819
contains	-4820
highestIdx	-4821
far	-4822
lar	-4823
nblk	-4824
pArg	-4825
pRoom	-4826
templ	-4827
loader	-4828
newStr	-4829
createa	-4830
Hz	-4831
IO	-4832
chi	-4833
dlh	-4834
pbc	-4835
smfna	-4836
valor	-4837
vlena	-4838
Copied	-4839
ackbuf	-4840
troota	-4841
bytesCopied	-4842
hz	-4843
tn	-4844
zer	-4845
Load	-4846
busa	-4847
gfna	-4848
mape	-4849
nome	-4850
tage	-4851
semap	-4852
Invoke	-4853
reasona	-4854
lya	-4855
dele	-4856
rawa	-4857
samp	-4858
outfd	-4859
ptime	-4860
octets	-4861
tstamp	-4862
writes	-4863
integer	-4864
pPInode	-4865
statusb	-4866
ulInode	-4867
InvokeData	-4868
HandleCount	-4869
Bl	-4870
LT	-4871
Act	-4872
dpp	-4873
fref	-4874
pArray	-4875
builtin	-4876
contain	-4877
sendbuf	-4878
bytesRead	-4879
inSizeCur	-4880
Sh	-4881
qm	-4882
AVI	-4883
maxv	-4884
Exists	-4885
nvarsa	-4886
optInAc	-4887
filepath	-4888
optInNbDev	-4889
As	-4890
MD	-4891
cgi	-4892
ghdr	-4893
uida	-4894
vSup	-4895
equiv	-4896
retur	-4897
errors	-4898
outline	-4899
readLen	-4900
sociated	-4901
ReturnDesc	-4902
IPv	-4903
ira	-4904
lsf	-4905
hole	-4906
cargv	-4907
freea	-4908
resflt	-4909
Version	-4910
elementa	-4911
entriesa	-4912
numProbs	-4913
alignmenta	-4914
Ftw	-4915
uff	-4916
auds	-4917
bptr	-4918
etch	-4919
fPtr	-4920
nfds	-4921
infos	-4922
Factor	-4923
encaps	-4924
yc	-4925
Ram	-4926
cro	-4927
mwp	-4928
ados	-4929
stab	-4930
contr	-4931
diffa	-4932
errnoa	-4933
modela	-4934
RamDisk	-4935
dnaDecode	-4936
dnaDecodeTable	-4937
MP	-4938
arq	-4939
oth	-4940
orta	-4941
site	-4942
Flaga	-4943
datas	-4944
ended	-4945
outptr	-4946
pktout	-4947
Register	-4948
pNewDesc	-4949
optInMATypea	-4950
gn	-4951
ens	-4952
lum	-4953
ssz	-4954
uce	-4955
dbgp	-4956
dims	-4957
jobs	-4958
rssi	-4959
smal	-4960
optim	-4961
myusage	-4962
clientData	-4963
Gr	-4964
qb	-4965
Tcb	-4966
abb	-4967
adx	-4968
dba	-4969
dss	-4970
eff	-4971
pse	-4972
isrc	-4973
opins	-4974
sizeP	-4975
primary	-4976
retvalb	-4977
runtime	-4978
negative	-4979
background	-4980
00_4	-4981
mess	-4982
wpld	-4983
eeded	-4984
errNb	-4985
manda	-4986
bufram	-4987
Employee	-4988
echoback	-4989
flagsstr	-4990
oldcount	-4991
buframptr	-4992
theBuffer	-4993
compression	-4994
roundingMode	-4995
dv	-4996
kc	-4997
iew	-4998
rio	-4999
deta	-5000
fila	-5001
lean	-5002
vlan	-5003
cessa	-5004
mapelm	-5005
typesa	-5006
decoded	-5007
sublinkage	-5008
Va	-5009
qy	-5010
Snp	-5011
cma	-5012
adja	-5013
land	-5014
nlen	-5015
Names	-5016
binfo	-5017
hline	-5018
orith	-5019
thunk	-5020
inodes	-5021
stateb	-5022
numChar	-5023
voltage	-5024
processed	-5025
cum	-5026
xdr	-5027
ctra	-5028
gpio	-5029
pDesc	-5030
entity	-5031
mychar	-5032
packed	-5033
single	-5034
valueb	-5035
removed	-5036
elemento	-5037
hugepage	-5038
sectionaddr	-5039
Ia	-5040
Tr	-5041
MOA	-5042
Uhc	-5043
atp	-5044
tlen	-5045
cmdbuf	-5046
starto	-5047
subrta	-5048
Channel	-5049
outbufa	-5050
Astorage	-5051
speciala	-5052
startofsym	-5053
outNbElementa	-5054
stringTablePriv	-5055
El	-5056
zy	-5057
jmp	-5058
nrg	-5059
Scsi	-5060
bufb	-5061
dups	-5062
tore	-5063
cores	-5064
ligne	-5065
watch	-5066
spaces	-5067
Console	-5068
Process	-5069
rxmittime	-5070
servaddra	-5071
14	-5072
Ya	-5073
100	-5074
_24	-5075
ste	-5076
Bufa	-5077
boot	-5078
cube	-5079
mant	-5080
pamh	-5081
Modify	-5082
failed	-5083
nibble	-5084
complete	-5085
tempBuffer	-5086
authentication	-5087
retransmissions	-5088
Tab	-5089
Tri	-5090
dns	-5091
Qual	-5092
View	-5093
lazy	-5094
less	-5095
sure	-5096
bufsz	-5097
clazz	-5098
pItem	-5099
Tokena	-5100
BufSize	-5101
forwarda	-5102
schemaFile	-5103
Bot	-5104
_8_	-5105
nvs	-5106
unc	-5107
gate	-5108
spsi	-5109
subs	-5110
Klena	-5111
faked	-5112
menta	-5113
istate	-5114
prevMA	-5115
pulses	-5116
sockid	-5117
columnsa	-5118
currentNr	-5119
restarted	-5120
pservaddra	-5121
fdb	-5122
Argsa	-5123
adapt	-5124
ctype	-5125
requi	-5126
Tokens	-5127
Written	-5128
weightd	-5129
timediff	-5130
UEContext	-5131
allocation	-5132
uap	-5133
king	-5134
them	-5135
addrp	-5136
numbuf	-5137
oldoffs	-5138
consumed	-5139
kmerSize	-5140
pcmdStra	-5141
pBtAction	-5142
Qu	-5143
TX	-5144
kd	-5145
may	-5146
anum	-5147
cour	-5148
Virus	-5149
iflag	-5150
newDe	-5151
salta	-5152
Prefix	-5153
inLena	-5154
partial	-5155
aResulta	-5156
isOutput	-5157
returned	-5158
nonTermID	-5159
HandlerObj	-5160
isOutputInteger	-5161
pca	-5162
qos	-5163
Used	-5164
cval	-5165
rier	-5166
00_4_	-5167
_16_1	-5168
elema	-5169
socka	-5170
degree	-5171
rovera	-5172
states	-5173
stheta	-5174
useIPv	-5175
BinFile	-5176
Pricesa	-5177
missing	-5178
Signature	-5179
numstrlen	-5180
ProbPricesa	-5181
shareClient	-5182
fragmentable	-5183
DriverBinding	-5184
Fmt	-5185
Spe	-5186
api	-5187
ipe	-5188
shp	-5189
Arga	-5190
Pair	-5191
dioa	-5192
ival	-5193
xfer	-5194
stdin	-5195
findex	-5196
unused	-5197
frompro	-5198
Registers	-5199
fromprocess	-5200
NA	-5201
bM	-5202
pSb	-5203
Entr	-5204
ined	-5205
szpa	-5206
colsa	-5207
someth	-5208
Handles	-5209
scanner	-5210
override	-5211
servinfo	-5212
something	-5213
ChildHandle	-5214
ED	-5215
hy	-5216
pbh	-5217
bias	-5218
nump	-5219
pose	-5220
lenTo	-5221
msgin	-5222
pagea	-5223
bufferb	-5224
handlea	-5225
submenu	-5226
vectora	-5227
lenToPosState	-5228
02	-5229
phe	-5230
shr	-5231
trac	-5232
exita	-5233
Module	-5234
devname	-5235
fittest	-5236
percent	-5237
varName	-5238
Original	-5239
newCapacity	-5240
bra	-5241
nqu	-5242
Back	-5243
cseq	-5244
ectx	-5245
patt	-5246
Truth	-5247
pnode	-5248
stage	-5249
biased	-5250
scheme	-5251
perioda	-5252
contenta	-5253
newBlock	-5254
identifier	-5255
pee	-5256
Modi	-5257
mtda	-5258
phil	-5259
rudp	-5260
wgap	-5261
codee	-5262
dlast	-5263
symnr	-5264
yypos	-5265
bwtInc	-5266
flight	-5267
outStr	-5268
newDeck	-5269
yythunk	-5270
flippeda	-5271
Attributes	-5272
mandatorya	-5273
yythunkpos	-5274
currentView	-5275
optInPenetration	-5276
Lba	-5277
prl	-5278
prt	-5279
sda	-5280
acta	-5281
eval	-5282
hapt	-5283
datad	-5284
parma	-5285
haptic	-5286
lnEntry	-5287
outsize	-5288
retcode	-5289
ulation	-5290
inputLen	-5291
payloada	-5292
And	-5293
Arr	-5294
Avg	-5295
kvm	-5296
ppr	-5297
Cost	-5298
Draw	-5299
hPtr	-5300
hcpu	-5301
histo	-5302
paren	-5303
patter	-5304
chunksa	-5305
autogrow	-5306
fileData	-5307
Character	-5308
cipherKey	-5309
optInFastK	-5310
OptionOrder	-5311
staticIndex	-5312
feca	-5313
refs	-5314
derer	-5315
layout	-5316
matched	-5317
attrrqst	-5318
category	-5319
renderer	-5320
Uni	-5321
ale	-5322
bev	-5323
chks	-5324
dowa	-5325
fact	-5326
rhsa	-5327
wner	-5328
Power	-5329
atypa	-5330
Binary	-5331
Params	-5332
headera	-5333
pHandle	-5334
pNtkRes	-5335
kHz	-5336
bega	-5337
inea	-5338
nice	-5339
phid	-5340
pstr	-5341
vail	-5342
nswer	-5343
pStat	-5344
ifacea	-5345
queuea	-5346
shrink	-5347
servera	-5348
clusters	-5349
exitcode	-5350
sentinel	-5351
blocksize	-5352
Gp	-5353
Sc	-5354
ToF	-5355
Gain	-5356
dctx	-5357
docs	-5358
mins	-5359
pSop	-5360
Store	-5361
smask	-5362
szTmp	-5363
Search	-5364
halfHV	-5365
proble	-5366
tables	-5367
backlog	-5368
keyword	-5369
settime	-5370
cardDraw	-5371
fileSize	-5372
adedImage	-5373
nrtmetric	-5374
pBtActionMsga	-5375
Db	-5376
Ata	-5377
Date	-5378
Nbuf	-5379
hMsg	-5380
pSrc	-5381
assoc	-5382
totlen	-5383
unique	-5384
buckets	-5385
secreta	-5386
samplesa	-5387
intervala	-5388
newElement	-5389
Ra	-5390
wev	-5391
Keya	-5392
pDir	-5393
pval	-5394
passw	-5395
append	-5396
double	-5397
ToCount	-5398
customer	-5399
bufferLength	-5400
DU	-5401
vs	-5402
PDU	-5403
URL	-5404
aio	-5405
gsi	-5406
vel	-5407
mbuf	-5408
argem	-5409
audio	-5410
Remain	-5411
Spacea	-5412
curpos	-5413
auxnode	-5414
factory	-5415
Remaining	-5416
Xa	-5417
cw	-5418
infd	-5419
pter	-5420
Deref	-5421
added	-5422
nextp	-5423
windowa	-5424
threadsa	-5425
userData	-5426
encodinga	-5427
LoadedImage	-5428
kt	-5429
pH	-5430
xw	-5431
Ite	-5432
nea	-5433
sat	-5434
tol	-5435
Help	-5436
bile	-5437
brea	-5438
sBlk	-5439
ncols	-5440
begina	-5441
detect	-5442
genptr	-5443
mobile	-5444
subset	-5445
Packets	-5446
forward	-5447
Previous	-5448
dictSize	-5449
servlena	-5450
yyoutput	-5451
tempVirus	-5452
Identifier	-5453
currentBar	-5454
hel	-5455
Full	-5456
Over	-5457
inic	-5458
pMem	-5459
tech	-5460
csize	-5461
khash	-5462
prefa	-5463
pubKey	-5464
Display	-5465
pathlen	-5466
TT	-5467
exa	-5468
pip	-5469
wrk	-5470
ibuf	-5471
qlen	-5472
Words	-5473
strok	-5474
abbrev	-5475
writer	-5476
npoints	-5477
sigmask	-5478
distancea	-5479
bufferSize	-5480
pan	-5481
role	-5482
Opcode	-5483
beacon	-5484
logfile	-5485
dicBufSize	-5486
CallbackData	-5487
DD	-5488
Md	-5489
ww	-5490
ikm	-5491
Gate	-5492
iPos	-5493
inte	-5494
pids	-5495
prec	-5496
Column	-5497
backup	-5498
uHandle	-5499
commands	-5500
uHandleIdx	-5501
iy	-5502
bal	-5503
bkt	-5504
bno	-5505
bso	-5506
tdp	-5507
Task	-5508
adda	-5509
pend	-5510
ToSet	-5511
pollfd	-5512
algorith	-5513
direntry	-5514
linesize	-5515
classmark	-5516
mobilestation	-5517
CP	-5518
bon	-5519
tou	-5520
mctx	-5521
tbuf	-5522
Mutex	-5523
ender	-5524
ranka	-5525
modify	-5526
srvrqst	-5527
unknown	-5528
Elements	-5529
substring	-5530
numeratora	-5531
Vp	-5532
The	-5533
epe	-5534
fld	-5535
rwa	-5536
lain	-5537
rctx	-5538
iconn	-5539
mixer	-5540
rango	-5541
Needed	-5542
extent	-5543
namesa	-5544
triple	-5545
ListIEs	-5546
curaddr	-5547
keylena	-5548
destructor	-5549
xu	-5550
Man	-5551
fft	-5552
Only	-5553
ends	-5554
fast	-5555
lita	-5556
near	-5557
vari	-5558
Desca	-5559
edges	-5560
lists	-5561
super	-5562
Script	-5563
Values	-5564
cloned	-5565
hwinfo	-5566
inchar	-5567
UdpData	-5568
pHolder	-5569
pszName	-5570
Addressa	-5571
patterna	-5572
dsaparams	-5573
encapsulation	-5574
tta	-5575
flux	-5576
hmap	-5577
iPtr	-5578
bSlot	-5579
cksum	-5580
pCube	-5581
rrora	-5582
szLine	-5583
desired	-5584
nucleotide	-5585
valueTable	-5586
charToCount	-5587
resultProto	-5588
ahx	-5589
dsk	-5590
pms	-5591
ulI	-5592
pLib	-5593
raop	-5594
matri	-5595
attach	-5596
hugefd	-5597
ptable	-5598
hBinary	-5599
pcEvent	-5600
authoriz	-5601
raopClient	-5602
ResponseIEs	-5603
complexGrammara	-5604
fq	-5605
ato	-5606
hia	-5607
ics	-5608
ifs	-5609
pps	-5610
snp	-5611
aBuf	-5612
fied	-5613
inoa	-5614
oken	-5615
bloom	-5616
pfeca	-5617
proba	-5618
motion	-5619
ranges	-5620
regval	-5621
addrbuf	-5622
groupId	-5623
pclient	-5624
subfile	-5625
surface	-5626
Settings	-5627
bytearray	-5628
startTime	-5629
correction	-5630
Ind	-5631
Indx	-5632
anti	-5633
lter	-5634
ttpd	-5635
lpath	-5636
errupt	-5637
groups	-5638
ieValue	-5639
samplea	-5640
newcapacity	-5641
XY	-5642
qz	-5643
vw	-5644
att	-5645
vis	-5646
WPtr	-5647
dash	-5648
hard	-5649
hour	-5650
hptr	-5651
sbit	-5652
filen	-5653
nzmax	-5654
preci	-5655
spare	-5656
oldindex	-5657
pSession	-5658
transform	-5659
RootBridge	-5660
zb	-5661
Net	-5662
ipc	-5663
our	-5664
crlf	-5665
sigA	-5666
Filea	-5667
Owner	-5668
Shape	-5669
Levels	-5670
assign	-5671
leader	-5672
headers	-5673
modulus	-5674
newList	-5675
readers	-5676
Bu	-5677
Lp	-5678
SK	-5679
qd	-5680
qp	-5681
Pat	-5682
gui	-5683
hbp	-5684
oct	-5685
ome	-5686
plp	-5687
IpSb	-5688
pRoot	-5689
szBuff	-5690
NewSize	-5691
cliente	-5692
warning	-5693
Ed	-5694
fv	-5695
ept	-5696
fri	-5697
hen	-5698
tim	-5699
NLSF	-5700
cabe	-5701
cans	-5702
ered	-5703
Clean	-5704
steps	-5705
Uplink	-5706
Vendor	-5707
btfilt	-5708
lexera	-5709
schedp	-5710
Unicode	-5711
extenta	-5712
Expected	-5713
commanda	-5714
contextc	-5715
multiline	-5716
btfiltFlags	-5717
Fn	-5718
wb	-5719
ENB	-5720
_40	-5721
lfn	-5722
pinv	-5723
flash	-5724
hashp	-5725
inLen	-5726
ksize	-5727
ppgrp	-5728
Vector	-5729
longit	-5730
tmpbuf	-5731
MaxSize	-5732
minutes	-5733
radiotap	-5734
arraySize	-5735
nvsBinFile	-5736
OptionCount	-5737
pszLocalPath	-5738
timeStampStr	-5739
TA	-5740
Seq	-5741
ken	-5742
loa	-5743
vex	-5744
ivrs	-5745
nrow	-5746
smit	-5747
vCmd	-5748
msgid	-5749
resse	-5750
yload	-5751
Profile	-5752
maxtype	-5753
stroker	-5754
nelement	-5755
instances	-5756
information	-5757
authorization	-5758
bet	-5759
hvm	-5760
omp	-5761
tbp	-5762
Inta	-5763
cmos	-5764
mifa	-5765
sval	-5766
chier	-5767
iovar	-5768
testa	-5769
hlines	-5770
methods	-5771
elementP	-5772
locationa	-5773
HT	-5774
kp	-5775
iro	-5776
osa	-5777
pme	-5778
wan	-5779
verb	-5780
Items	-5781
Sense	-5782
bsize	-5783
RetVal	-5784
dictid	-5785
Payload	-5786
activate	-5787
SourceDesc	-5788
FirstString	-5789
SE	-5790
Mov	-5791
csc	-5792
pRe	-5793
Enda	-5794
axis	-5795
ulld	-5796
inMov	-5797
pMenu	-5798
patta	-5799
sigset	-5800
thpool	-5801
argIndex	-5802
inMovAvg	-5803
yyscanner	-5804
ij	-5805
foc	-5806
pex	-5807
ural	-5808
ward	-5809
anter	-5810
funcs	-5811
listp	-5812
orted	-5813
vlist	-5814
msglen	-5815
charact	-5816
curSize	-5817
ancestor	-5818
solution	-5819
destructora	-5820
wildcardArray	-5821
kr	-5822
pq	-5823
Hob	-5824
htt	-5825
idn	-5826
dnaa	-5827
asize	-5828
mtime	-5829
Limita	-5830
nested	-5831
External	-5832
maxtypea	-5833
txstatus	-5834
connected	-5835
errstring	-5836
mountflags	-5837
LevelExists	-5838
Bp	-5839
dz	-5840
dos	-5841
ifn	-5842
nch	-5843
sBl	-5844
ubi	-5845
Cond	-5846
keyP	-5847
pAdd	-5848
shut	-5849
sBlka	-5850
Points	-5851
growth	-5852
Contents	-5853
anterior	-5854
prefault	-5855
VendorGuid	-5856
CC	-5857
Lx	-5858
Td	-5859
crl	-5860
pvt	-5861
scc	-5862
way	-5863
Diff	-5864
fici	-5865
temI	-5866
nuevo	-5867
newstr	-5868
procfs	-5869
btracer	-5870
inicial	-5871
FvHandle	-5872
coeffici	-5873
corwidth	-5874
indirect	-5875
BlockSize	-5876
bytesleft	-5877
kmerSizea	-5878
ToS	-5879
dvd	-5880
pct	-5881
vch	-5882
Pred	-5883
aData	-5884
atoms	-5885
insns	-5886
msecs	-5887
longitud	-5888
temphand	-5889
selection	-5890
Es	-5891
Cpt	-5892
dta	-5893
fpv	-5894
jcf	-5895
Heat	-5896
dbuf	-5897
lnum	-5898
mema	-5899
pNext	-5900
spell	-5901
stype	-5902
Answer	-5903
colour	-5904
countb	-5905
planes	-5906
routing	-5907
tokensa	-5908
buffsize	-5909
compress	-5910
Win	-5911
btn	-5912
iLB	-5913
jbc	-5914
xen	-5915
Heap	-5916
tval	-5917
focus	-5918
imgIO	-5919
kpath	-5920
peers	-5921
train	-5922
common	-5923
layers	-5924
datasrc	-5925
methoda	-5926
extEntry	-5927
RABRelease	-5928
newCapacitya	-5929
uncompressed	-5930
LE	-5931
tz	-5932
Sol	-5933
mba	-5934
nUn	-5935
sic	-5936
tmr	-5937
cfpa	-5938
dhcp	-5939
pwrq	-5940
toks	-5941
gsize	-5942
signa	-5943
wrote	-5944
Levela	-5945
astats	-5946
bitlen	-5947
traini	-5948
usizea	-5949
encontr	-5950
numkeys	-5951
channela	-5952
freelist	-5953
newState	-5954
nbElement	-5955
encontrado	-5956
FS	-5957
OB	-5958
cca	-5959
hci	-5960
kew	-5961
ncl	-5962
tya	-5963
rdrs	-5964
song	-5965
Multi	-5966
ivity	-5967
prioa	-5968
blocksa	-5969
problem	-5970
existing	-5971
notifier	-5972
tempNode	-5973
connectivity	-5974
Box	-5975
dcm	-5976
esc	-5977
lba	-5978
whe	-5979
amba	-5980
nval	-5981
Coord	-5982
Slice	-5983
cnext	-5984
colli	-5985
fpath	-5986
pTemp	-5987
SizeIn	-5988
ahxMod	-5989
ambass	-5990
naddrs	-5991
nwrite	-5992
pError	-5993
symcnt	-5994
typeId	-5995
defined	-5996
Children	-5997
matchlet	-5998
hashtable	-5999
hashvalue	-6000
notfounda	-6001
pDescHead	-6002
ambassador	-6003
currentSet	-6004
inputTable	-6005
cyclicBufferSize	-6006
Smm	-6007
bnd	-6008
lha	-6009
cpid	-6010
mgmt	-6011
pIdx	-6012
pins	-6013
seqs	-6014
xmax	-6015
cover	-6016
ctheta	-6017
minora	-6018
tokenizer	-6019
Ci	-6020
TH	-6021
zf	-6022
Sil	-6023
ami	-6024
bur	-6025
tas	-6026
tio	-6027
Work	-6028
arda	-6029
plmn	-6030
asser	-6031
marka	-6032
pubkey	-6033
Cleanup	-6034
elemptr	-6035
multipli	-6036
peercert	-6037
meanValue	-6038
pVariable	-6039
retValuea	-6040
QuestionFlagsa	-6041
MME	-6042
bch	-6043
cis	-6044
Acpi	-6045
Down	-6046
emit	-6047
expB	-6048
past	-6049
shot	-6050
when	-6051
wide	-6052
allum	-6053
cumul	-6054
scene	-6055
stime	-6056
linesa	-6057
pValue	-6058
tracks	-6059
errmsga	-6060
maximum	-6061
Progress	-6062
ntowrite	-6063
reporter	-6064
cumulative	-6065
iterations	-6066
settingType	-6067
8_	-6068
Sm	-6069
xM	-6070
gcr	-6071
hwa	-6072
mjr	-6073
tpa	-6074
Vert	-6075
coin	-6076
intf	-6077
trim	-6078
rules	-6079
Digest	-6080
callid	-6081
varPtr	-6082
license	-6083
natural	-6084
StatusBlk	-6085
tenscount	-6086
24	-6087
OS	-6088
vy	-6089
cnf	-6090
gue	-6091
nza	-6092
sim	-6093
htab	-6094
llen	-6095
plus	-6096
reps	-6097
omega	-6098
pairs	-6099
rport	-6100
vtime	-6101
ToRead	-6102
alphaa	-6103
columna	-6104
servlen	-6105
curEntry	-6106
condition	-6107
BaseAddress	-6108
QA	-6109
gh	-6110
Lun	-6111
cef	-6112
dia	-6113
ttt	-6114
Done	-6115
atsr	-6116
encr	-6117
hmmp	-6118
resi	-6119
sigs	-6120
tear	-6121
Colon	-6122
certa	-6123
ffset	-6124
pUser	-6125
profi	-6126
tvbuf	-6127
wpath	-6128
cycles	-6129
holder	-6130
inbufa	-6131
nbitsa	-6132
pLatch	-6133
rounds	-6134
uTruth	-6135
Content	-6136
countsa	-6137
NewEntry	-6138
npollfds	-6139
TopValuea	-6140
profiling	-6141
coefficient	-6142
newProperty	-6143
lq	-6144
lx	-6145
zi	-6146
bda	-6147
ddy	-6148
egg	-6149
lsr	-6150
sch	-6151
tlb	-6152
udo	-6153
ckle	-6154
ecef	-6155
edit	-6156
ostr	-6157
ptmp	-6158
rply	-6159
fdout	-6160
sAddr	-6161
unpack	-6162
balance	-6163
trickle	-6164
ToBeRead	-6165
backloga	-6166
overflow	-6167
numBytesToBeRead	-6168
MN	-6169
yi	-6170
Rad	-6171
mme	-6172
nrl	-6173
rqp	-6174
tka	-6175
xia	-6176
astr	-6177
cnts	-6178
idum	-6179
meda	-6180
nbuf	-6181
view	-6182
Solve	-6183
aArch	-6184
halfV	-6185
inout	-6186
scall	-6187
filesa	-6188
forcea	-6189
quanti	-6190
curport	-6191
myblock	-6192
Terminal	-6193
UsbIoPpi	-6194
valueToSet	-6195
UnicodeString	-6196
ju	-6197
Ent	-6198
cln	-6199
mpp	-6200
urb	-6201
Prod	-6202
eppm	-6203
nict	-6204
nums	-6205
Score	-6206
pHelp	-6207
Filter	-6208
cabeza	-6209
except	-6210
medium	-6211
origina	-6212
szValue	-6213
textlen	-6214
typeIda	-6215
detailsa	-6216
tracking	-6217
weightsa	-6218
BytesRead	-6219
Parameter	-6220
haystacka	-6221
gx	-6222
ik	-6223
dfd	-6224
ird	-6225
iwa	-6226
lda	-6227
LARp	-6228
cofa	-6229
retc	-6230
Valid	-6231
deepe	-6232
usecs	-6233
sitive	-6234
ethaddr	-6235
outmode	-6236
segments	-6237
hb	-6238
cra	-6239
dra	-6240
Silk	-6241
pStr	-6242
sela	-6243
topt	-6244
traf	-6245
istop	-6246
remap	-6247
upnpt	-6248
Window	-6249
strbuf	-6250
subvert	-6251
nodeList	-6252
timeline	-6253
upnptoken	-6254
neighbours	-6255
DaM	-6256
LBR	-6257
OBV	-6258
opd	-6259
prk	-6260
ENCH	-6261
Frac	-6262
MACD	-6263
Trie	-6264
auxa	-6265
cker	-6266
pmem	-6267
poch	-6268
dstat	-6269
higuy	-6270
thing	-6271
Packed	-6272
Proces	-6273
ccache	-6274
played	-6275
dicSize	-6276
outMACD	-6277
prevOBV	-6278
DaMargem	-6279
OfBuffer	-6280
newDataa	-6281
newstack	-6282
ulPInode	-6283
versiona	-6284
pIpcEvent	-6285
precision	-6286
headerBuffer	-6287
tamanhoDaMargem	-6288
CB	-6289
yw	-6290
SCa	-6291
hed	-6292
gray	-6293
igen	-6294
lowa	-6295
maxs	-6296
plan	-6297
rase	-6298
that	-6299
tida	-6300
ueur	-6301
betaa	-6302
clude	-6303
elems	-6304
froms	-6305
grama	-6306
zeros	-6307
thetaa	-6308
CAfilea	-6309
barrier	-6310
compiler	-6311
pfunction	-6312
BufferSizea	-6313
neighboursa	-6314
ku	-6315
nL	-6316
pur	-6317
news	-6318
nout	-6319
argcp	-6320
burst	-6321
tempt	-6322
there	-6323
thresa	-6324
netlist	-6325
origlen	-6326
ToDelete	-6327
blocking	-6328
RegionObj	-6329
container	-6330
elementGrammar	-6331
CF	-6332
sS	-6333
Ide	-6334
mxa	-6335
sba	-6336
Edge	-6337
SPtr	-6338
bubi	-6339
idsa	-6340
vect	-6341
Trace	-6342
rsize	-6343
thres	-6344
treen	-6345
bindTo	-6346
errbuf	-6347
libubi	-6348
Handlea	-6349
Pattern	-6350
actiona	-6351
seriala	-6352
Allocated	-6353
directive	-6354
returnValue	-6355
lv	-6356
qs	-6357
aor	-6358
aCpt	-6359
incx	-6360
sert	-6361
spee	-6362
vmin	-6363
algoa	-6364
atest	-6365
maybe	-6366
nvcpu	-6367
simpl	-6368
visit	-6369
btents	-6370
button	-6371
btarray	-6372
filters	-6373
dataSize	-6374
greatest	-6375
occIndex	-6376
transmit	-6377
NewObject	-6378
hostnamea	-6379
typeEntry	-6380
conference	-6381
NextInterface	-6382
cumulativeCount	-6383
Rx	-6384
je	-6385
xl	-6386
LEN	-6387
Ser	-6388
bpf	-6389
rch	-6390
Part	-6391
Seed	-6392
pnew	-6393
ppid	-6394
then	-6395
unum	-6396
coeff	-6397
licit	-6398
ToCopy	-6399
locker	-6400
minsize	-6401
ostride	-6402
readfds	-6403
bufSizea	-6404
pointera	-6405
allocated	-6406
interrupt	-6407
translate	-6408
HO	-6409
ima	-6410
mif	-6411
tlv	-6412
www	-6413
fUse	-6414
pScr	-6415
scom	-6416
large	-6417
lname	-6418
third	-6419
adjust	-6420
scombo	-6421
Logical	-6422
buflenb	-6423
fromlen	-6424
posPrev	-6425
require	-6426
trigger	-6427
mismatch	-6428
championsa	-6429
pNewStatea	-6430
serverSocket	-6431
fut	-6432
ulk	-6433
vio	-6434
bios	-6435
nela	-6436
olsr	-6437
reca	-6438
bonus	-6439
ences	-6440
inclu	-6441
perms	-6442
Bytesa	-6443
apping	-6444
etwork	-6445
hashes	-6446
toaddr	-6447
entryID	-6448
statush	-6449
language	-6450
messages	-6451
treenode	-6452
templatea	-6453
gf	-6454
nH	-6455
Sem	-6456
cam	-6457
fold	-6458
pDel	-6459
plug	-6460
rtea	-6461
chara	-6462
ftime	-6463
hosta	-6464
inStr	-6465
pager	-6466
applic	-6467
iction	-6468
bitrate	-6469
newData	-6470
nfinish	-6471
ScsiDisk	-6472
Symbolsa	-6473
areaidentity	-6474
ScsiDiskDevice	-6475
_6	-6476
Fna	-6477
dpy	-6478
leg	-6479
qid	-6480
epsi	-6481
eptr	-6482
rans	-6483
alena	-6484
cname	-6485
pmksa	-6486
portno	-6487
cardNum	-6488
newlist	-6489
Downlink	-6490
lockfile	-6491
peeraddr	-6492
pucFrame	-6493
vertical	-6494
hashTable	-6495
sensitive	-6496
pBtControl	-6497
privateKey	-6498
pBtControlAction	-6499
Ix	-6500
dw	-6501
pW	-6502
All	-6503
fan	-6504
Best	-6505
cmcf	-6506
gopt	-6507
runq	-6508
tmpX	-6509
ular	-6510
ength	-6511
nelem	-6512
scode	-6513
Leaves	-6514
decode	-6515
maxfda	-6516
newfda	-6517
transl	-6518
BlockIo	-6519
deepest	-6520
fichier	-6521
ninodes	-6522
dirEntry	-6523
thisname	-6524
SubString	-6525
expecteda	-6526
functiona	-6527
application	-6528
mountpoints	-6529
jd	-6530
SHA	-6531
ifd	-6532
ipo	-6533
Atom	-6534
LBRR	-6535
fpga	-6536
sino	-6537
buyer	-6538
httpd	-6539
expand	-6540
myname	-6541
pNodea	-6542
archive	-6543
charPer	-6544
ciphers	-6545
nblocks	-6546
notfound	-6547
arraySizea	-6548
xn	-6549
Lig	-6550
oll	-6551
Olsr	-6552
drop	-6553
Bitsa	-6554
Plain	-6555
Retry	-6556
apERAB	-6557
filled	-6558
insize	-6559
irport	-6560
padint	-6561
prunum	-6562
regexa	-6563
cpumask	-6564
newcomm	-6565
StartPos	-6566
critical	-6567
inVolume	-6568
newmodel	-6569
pContext	-6570
signchar	-6571
weightda	-6572
blockmask	-6573
testParam	-6574
ParamCount	-6575
RequestIEs	-6576
charactera	-6577
endianchar	-6578
authenticator	-6579
oLinkListChild	-6580
Si	-6581
san	-6582
sop	-6583
Bulk	-6584
ecca	-6585
fake	-6586
htbl	-6587
imax	-6588
ocnt	-6589
rels	-6590
movie	-6591
retor	-6592
sizep	-6593
ticle	-6594
unset	-6595
TypeId	-6596
ailist	-6597
cmdBuf	-6598
malloc	-6599
pieces	-6600
minimum	-6601
Mechanic	-6602
maxsizea	-6603
repeater	-6604
srcSlice	-6605
subblock	-6606
listEntry	-6607
declarator	-6608
sectionbase	-6609
FormatString	-6610
sOpCodeHandle	-6611
InternalObject	-6612
TextDeviceNodea	-6613
_12	-6614
cie	-6615
enb	-6616
lta	-6617
mne	-6618
sts	-6619
tfs	-6620
Elem	-6621
Look	-6622
ntmp	-6623
obuf	-6624
tone	-6625
cnode	-6626
intel	-6627
stopa	-6628
taila	-6629
Frames	-6630
evtchn	-6631
rtable	-6632
newsock	-6633
weights	-6634
newsizea	-6635
verbosea	-6636
bitstream	-6637
nelements	-6638
startsizea	-6639
pIndication	-6640
iS	-6641
LTP	-6642
cpp	-6643
tms	-6644
Mail	-6645
iIdx	-6646
ledv	-6647
posb	-6648
cards	-6649
fdTra	-6650
movea	-6651
pExpr	-6652
prota	-6653
eflags	-6654
invert	-6655
numBit	-6656
userbuf	-6657
NextNode	-6658
outputNb	-6659
OfGarages	-6660
pInstance	-6661
FailureIEs	-6662
samplesref	-6663
Modification	-6664
StartOfBuffer	-6665
xr	-6666
App	-6667
Tcp	-6668
bre	-6669
les	-6670
pFi	-6671
wtp	-6672
erro	-6673
obss	-6674
reda	-6675
tNow	-6676
dtype	-6677
iedge	-6678
ihash	-6679
ioreq	-6680
sabre	-6681
rgroup	-6682
splita	-6683
verted	-6684
Session	-6685
include	-6686
zerocnt	-6687
codepage	-6688
reuseVal	-6689
tmpBlock	-6690
uninamea	-6691
Alignment	-6692
SenseData	-6693
expansion	-6694
pMobIndex	-6695
paramPriv	-6696
reference	-6697
funcDefTableSize	-6698
PI	-6699
oh	-6700
ctc	-6701
nnz	-6702
ofd	-6703
calc	-6704
disc	-6705
hopa	-6706
mctc	-6707
pixa	-6708
same	-6709
datum	-6710
llist	-6711
grammar	-6712
ordinal	-6713
pthread	-6714
signals	-6715
document	-6716
sequencea	-6717
bitPerChar	-6718
yl	-6719
Sim	-6720
dtp	-6721
fcn	-6722
fon	-6723
jwl	-6724
pra	-6725
tbc	-6726
wea	-6727
why	-6728
wid	-6729
Hist	-6730
pmea	-6731
rice	-6732
rlim	-6733
BENCH	-6734
bzerr	-6735
endptr	-6736
fnName	-6737
aResult	-6738
finisha	-6739
formats	-6740
FullPath	-6741
attrNode	-6742
strength	-6743
HandleBuffer	-6744
Cid	-6745
msz	-6746
nan	-6747
xxa	-6748
dida	-6749
erta	-6750
frmt	-6751
sega	-6752
dataP	-6753
klena	-6754
ntrea	-6755
ontal	-6756
entrad	-6757
memptr	-6758
printa	-6759
printer	-6760
regions	-6761
socketa	-6762
strfrmt	-6763
minators	-6764
relation	-6765
DataSizea	-6766
MnpDevice	-6767
drawntrea	-6768
intercept	-6769
orizontal	-6770
PackedChar	-6771
PackageList	-6772
ulBlockCount	-6773
MnpDeviceData	-6774
dk	-6775
ox	-6776
Cap	-6777
dbb	-6778
mha	-6779
pfa	-6780
rds	-6781
syn	-6782
esta	-6783
fore	-6784
lest	-6785
lola	-6786
quar	-6787
rtnh	-6788
vbuf	-6789
UsbMa	-6790
batch	-6791
curra	-6792
longs	-6793
mctxa	-6794
nsize	-6795
preva	-6796
rbank	-6797
Comple	-6798
comple	-6799
labels	-6800
permut	-6801
scalea	-6802
transp	-6803
travel	-6804
arcname	-6805
globals	-6806
initlen	-6807
ressave	-6808
trylocka	-6809
AD	-6810
SW	-6811
TO	-6812
zl	-6813
RAM	-6814
Run	-6815
oip	-6816
pmd	-6817
Deva	-6818
iLBC	-6819
intv	-6820
lclp	-6821
mmap	-6822
nLen	-6823
spro	-6824
atime	-6825
datea	-6826
listR	-6827
pnote	-6828
delima	-6829
online	-6830
timera	-6831
attempt	-6832
istride	-6833
locally	-6834
running	-6835
dataLena	-6836
destLena	-6837
dhparams	-6838
pingrecv	-6839
slotFast	-6840
userdata	-6841
histogram	-6842
retValueb	-6843
optInNbDeva	-6844
pingrecvtime	-6845
posSlotPrices	-6846
AcknowledgeIEs	-6847
ask	-6848
cxt	-6849
paf	-6850
pna	-6851
sqn	-6852
ebxa	-6853
ecxa	-6854
edxa	-6855
join	-6856
maxl	-6857
outf	-6858
push	-6859
smpl	-6860
ipher	-6861
loops	-6862
motea	-6863
onlya	-6864
carrya	-6865
exacta	-6866
expire	-6867
headrm	-6868
indexb	-6869
nchild	-6870
phrase	-6871
worker	-6872
LogFile	-6873
portion	-6874
eviction	-6875
fraction	-6876
beginning	-6877
playerNum	-6878
statushdr	-6879
threadIdx	-6880
InstanceID	-6881
ulBlockStart	-6882
mv	-6883
Rca	-6884
dbh	-6885
dbs	-6886
imo	-6887
kbd	-6888
lno	-6889
tml	-6890
ElGr	-6891
amic	-6892
damp	-6893
ncol	-6894
atten	-6895
dptrs	-6896
hours	-6897
incom	-6898
sCont	-6899
Height	-6900
Sorted	-6901
Tablea	-6902
ulImap	-6903
vSuper	-6904
vcpuid	-6905
writea	-6906
ElGrTbl	-6907
EntryId	-6908
Maillon	-6909
UsbMass	-6910
dynamic	-6911
srclena	-6912
EntryIda	-6913
alphabet	-6914
anyEntry	-6915
incoming	-6916
shutdown	-6917
sockaddr	-6918
finalcount	-6919
subsElGrTbl	-6920
Su	-6921
baa	-6922
iip	-6923
luv	-6924
sbi	-6925
capt	-6926
gbuf	-6927
ierr	-6928
ivec	-6929
lsrv	-6930
folha	-6931
hoffs	-6932
nlmsg	-6933
adlera	-6934
antine	-6935
boarda	-6936
gStack	-6937
kdtree	-6938
maxval	-6939
nblock	-6940
optnum	-6941
outend	-6942
tvbufa	-6943
verage	-6944
conhash	-6945
factora	-6946
FileSize	-6947
Particle	-6948
maxOccurs	-6949
minOccurs	-6950
posStatea	-6951
WindowSize	-6952
textLength	-6953
EntryBuffer	-6954
ParserState	-6955
keepWindowSize	-6956
ParticleGrammar	-6957
Ka	-6958
Sop	-6959
csv	-6960
eip	-6961
lpc	-6962
ncy	-6963
pec	-6964
ral	-6965
bnfa	-6966
tstr	-6967
Varsa	-6968
gesta	-6969
turnc	-6970
verity	-6971
Actiona	-6972
Mapping	-6973
pParams	-6974
readset	-6975
wrapped	-6976
fileNamea	-6977
Ui	-6978
OfB	-6979
ccf	-6980
clk	-6981
rgt	-6982
rvs	-6983
ifno	-6984
iobs	-6985
iseq	-6986
liba	-6987
mang	-6988
mpon	-6989
nbit	-6990
nmax	-6991
rndr	-6992
rtpp	-6993
sTmp	-6994
tetr	-6995
ckeya	-6996
envpa	-6997
fetch	-6998
filew	-6999
granu	-7000
lined	-7001
onoff	-7002
pObja	-7003
slack	-7004
slots	-7005
Report	-7006
States	-7007
aRange	-7008
chksum	-7009
scalla	-7010
stacka	-7011
tampon	-7012
tetris	-7013
ipaddra	-7014
largura	-7015
numBits	-7016
lelement	-7017
oldstack	-7018
syscalla	-7019
workFactor	-7020
2_8	-7021
Pha	-7022
Tpl	-7023
evp	-7024
rdb	-7025
rng	-7026
ssi	-7027
svm	-7028
vrb	-7029
wca	-7030
Inte	-7031
Main	-7032
hctx	-7033
mine	-7034
jtest	-7035
lAttr	-7036
pexit	-7037
stick	-7038
Simple	-7039
chaina	-7040
ential	-7041
iBegin	-7042
longsa	-7043
newvec	-7044
Comment	-7045
listPtr	-7046
maxline	-7047
newmask	-7048
parsera	-7049
saveptr	-7050
failures	-7051
transtab	-7052
EntryPoint	-7053
drawscreen	-7054
ENBConfiguration	-7055
qf	-7056
fpr	-7057
ioc	-7058
iss	-7059
Intf	-7060
accu	-7061
ftmp	-7062
Conta	-7063
ctext	-7064
dicta	-7065
genum	-7066
nrels	-7067
PeiBot	-7068
ToFind	-7069
bstree	-7070
unmapa	-7071
hmminfo	-7072
newpath	-7073
nparams	-7074
contacts	-7075
newCount	-7076
algorithm	-7077
linklayer	-7078
pservaddr	-7079
multiplier	-7080
sizeToCopy	-7081
xmlParserP	-7082
serviceSocket	-7083
ny	-7084
vv	-7085
Mmc	-7086
ced	-7087
sbr	-7088
xsa	-7089
usea	-7090
SdMmc	-7091
linux	-7092
ofile	-7093
sizeb	-7094
wordA	-7095
xdata	-7096
pStart	-7097
querda	-7098
purpose	-7099
lablabel	-7100
timeinfo	-7101
groupSize	-7102
SdMmcStatusBlk	-7103
jp	-7104
16_	-7105
One	-7106
PLC	-7107
uen	-7108
xyz	-7109
alla	-7110
blks	-7111
Build	-7112
Delay	-7113
Direc	-7114
psPLC	-7115
radix	-7116
serva	-7117
unita	-7118
aiocbp	-7119
coords	-7120
dirino	-7121
ifiera	-7122
allowed	-7123
itemend	-7124
packets	-7125
toFlaga	-7126
ArgCount	-7127
Extended	-7128
Pathname	-7129
maxValue	-7130
cmpResult	-7131
insertPtr	-7132
pFileName	-7133
pListHead	-7134
subscript	-7135
uenetwork	-7136
ListBearer	-7137
newDeckPos	-7138
songBuffer	-7139
RABToBeSetupList	-7140
hI	-7141
Acc	-7142
Ant	-7143
Cha	-7144
dirs	-7145
dlga	-7146
lptr	-7147
nsam	-7148
pfds	-7149
rtnl	-7150
very	-7151
iside	-7152
merged	-7153
seclen	-7154
actions	-7155
sockfds	-7156
newBound	-7157
numbytes	-7158
outfilea	-7159
groupName	-7160
mandatory	-7161
permission	-7162
newEmployee	-7163
200	-7164
Dup	-7165
atr	-7166
Stop	-7167
Swit	-7168
enas	-7169
hits	-7170
jOld	-7171
junk	-7172
nowP	-7173
Macro	-7174
Requi	-7175
backa	-7176
coins	-7177
ingle	-7178
selfa	-7179
stand	-7180
Cipher	-7181
EndBit	-7182
pathsa	-7183
scheda	-7184
subkey	-7185
Numbera	-7186
SpaceId	-7187
cmdname	-7188
syscall	-7189
tmpname	-7190
Required	-7191
increase	-7192
interfacea	-7193
currentHeader	-7194
TerminalDevice	-7195
3_0	-7196
tmb	-7197
dret	-7198
gera	-7199
igha	-7200
incX	-7201
lvla	-7202
pKey	-7203
quit	-7204
true	-7205
Depth	-7206
epoch	-7207
pdeva	-7208
shmid	-7209
myList	-7210
ystick	-7211
Digitsa	-7212
outFile	-7213
placesa	-7214
propNew	-7215
wordlen	-7216
readonly	-7217
required	-7218
sprocket	-7219
xlengtha	-7220
ObjHandle	-7221
addrlenpa	-7222
rawLength	-7223
PowerLevel	-7224
OR	-7225
Ov	-7226
Sal	-7227
hpa	-7228
mtu	-7229
sea	-7230
was	-7231
ater	-7232
cctx	-7233
cins	-7234
dnum	-7235
lems	-7236
newl	-7237
urla	-7238
Short	-7239
inita	-7240
ioman	-7241
notes	-7242
pnext	-7243
stepa	-7244
trail	-7245
alette	-7246
intack	-7247
msgpos	-7248
areanum	-7249
breaker	-7250
friends	-7251
netmask	-7252
requeue	-7253
nthreads	-7254
thiszone	-7255
MC	-7256
PP	-7257
pz	-7258
peg	-7259
rrn	-7260
sgn	-7261
Typa	-7262
Wait	-7263
cies	-7264
inla	-7265
ipod	-7266
oVec	-7267
rcnt	-7268
reqs	-7269
Linea	-7270
conds	-7271
inptr	-7272
pTrap	-7273
swipe	-7274
nwords	-7275
Include	-7276
closure	-7277
colonne	-7278
memPage	-7279
Encoding	-7280
Material	-7281
Condition	-7282
FoundEntry	-7283
associated	-7284
starsystem	-7285
replacement	-7286
6_	-7287
cg	-7288
fg	-7289
Flu	-7290
Hex	-7291
asm	-7292
fba	-7293
fca	-7294
mdi	-7295
oos	-7296
tst	-7297
2000	-7298
Ctxt	-7299
_8_4	-7300
cdma	-7301
etxa	-7302
fall	-7303
iEnd	-7304
isub	-7305
mcid	-7306
pNum	-7307
pkcs	-7308
Allow	-7309
HOReq	-7310
Instr	-7311
SUReq	-7312
SURes	-7313
aLena	-7314
essid	-7315
fiche	-7316
gmfna	-7317
grand	-7318
jleaf	-7319
jprev	-7320
nbBar	-7321
nulld	-7322
numpr	-7323
pSize	-7324
pgCnt	-7325
prece	-7326
tered	-7327
tunne	-7328
Counts	-7329
Insert	-7330
Remove	-7331
Solvea	-7332
evsela	-7333
graphe	-7334
grplen	-7335
Statusb	-7336
newname	-7337
nulldoc	-7338
pFanout	-7339
project	-7340
statusk	-7341
LogicalS	-7342
Switched	-7343
nfinisha	-7344
optInMax	-7345
DestValue	-7346
RABModify	-7347
Transport	-7348
cardDrawn	-7349
prodFound	-7350
tunneling	-7351
numprinted	-7352
sendBuffera	-7353
modification	-7354
DevicePathNode	-7355
RABToBeSwitched	-7356
MMEConfiguration	-7357
fu	-7358
bcd	-7359
saa	-7360
ensa	-7361
fmap	-7362
hija	-7363
pAig	-7364
pino	-7365
tgid	-7366
Addra	-7367
Sleep	-7368
bFunc	-7369
chrom	-7370
hname	-7371
slena	-7372
hijack	-7373
courant	-7374
edgenum	-7375
lnTable	-7376
newdata	-7377
pidfile	-7378
qnameID	-7379
iniciala	-7380
Identifiera	-7381
bufferSizea	-7382
OriginalObject	-7383
Ev	-7384
CFG	-7385
Sep	-7386
ann	-7387
ape	-7388
dsn	-7389
naa	-7390
rsn	-7391
xmm	-7392
Defa	-7393
cidx	-7394
crdr	-7395
diva	-7396
nret	-7397
srch	-7398
vola	-7399
OfFat	-7400
cross	-7401
itype	-7402
occur	-7403
pvala	-7404
raopc	-7405
reita	-7406
contin	-7407
igenptr	-7408
Database	-7409
reventsa	-7410
errorCode	-7411
increased	-7412
attributes	-7413
locationOfFat	-7414
CO	-7415
wf	-7416
SDa	-7417
cls	-7418
frt	-7419
ncr	-7420
pia	-7421
wri	-7422
ISAd	-7423
Tlen	-7424
fath	-7425
itya	-7426
ofsa	-7427
plpa	-7428
sblk	-7429
xtra	-7430
Funca	-7431
Media	-7432
carda	-7433
defrt	-7434
forma	-7435
ldata	-7436
niter	-7437
noden	-7438
speci	-7439
Entrya	-7440
Single	-7441
rxgood	-7442
whicha	-7443
Registr	-7444
iLBCenc	-7445
pszPath	-7446
reserve	-7447
schemaa	-7448
generate	-7449
newEntry	-7450
repIndex	-7451
unmaxlen	-7452
wgmaxlen	-7453
Directory	-7454
Processed	-7455
bufLimita	-7456
optionala	-7457
startsize	-7458
workgroup	-7459
IpInstance	-7460
encryptKey	-7461
horizontal	-7462
rtspRequest	-7463
Hid	-7464
TXT	-7465
_2_	-7466
bid	-7467
dct	-7468
ght	-7469
lcl	-7470
nda	-7471
tha	-7472
Offs	-7473
cscf	-7474
ging	-7475
ivyl	-7476
nive	-7477
inrow	-7478
prote	-7479
Opaque	-7480
angext	-7481
ptrval	-7482
FvBlock	-7483
correct	-7484
isconst	-7485
nPoints	-7486
timeval	-7487
cgiargsa	-7488
linuxdir	-7489
smallest	-7490
writeLen	-7491
userclock	-7492
Information	-7493
RegisterMask	-7494
FI	-7495
Hi	-7496
ND	-7497
URI	-7498
afp	-7499
bed	-7500
vmx	-7501
web	-7502
Body	-7503
Exit	-7504
acca	-7505
bots	-7506
roll	-7507
svec	-7508
tmpb	-7509
yale	-7510
Avail	-7511
heapa	-7512
objid	-7513
packa	-7514
tests	-7515
dnsser	-7516
howman	-7517
indata	-7518
inputs	-7519
plaina	-7520
KeyData	-7521
cmdfile	-7522
numHash	-7523
numreqs	-7524
pathbuf	-7525
scripta	-7526
prefixID	-7527
ExtraArgs	-7528
dnsserver	-7529
TargetDesc	-7530
testObject	-7531
TextDeviceNode	-7532
oi	-7533
Heq	-7534
Hit	-7535
dfs	-7536
nxy	-7537
rle	-7538
tdb	-7539
LPPa	-7540
UEAs	-7541
clfd	-7542
digl	-7543
jlen	-7544
newb	-7545
puri	-7546
pvec	-7547
repo	-7548
Timer	-7549
nueva	-7550
pkeya	-7551
story	-7552
agcHeq	-7553
ainfoa	-7554
finala	-7555
ioport	-7556
leased	-7557
oldnum	-7558
digesta	-7559
fUpdate	-7560
mangled	-7561
retaddr	-7562
bitCount	-7563
pwmaxlen	-7564
resEntry	-7565
salenptr	-7566
sockAddr	-7567
socketfd	-7568
capacitya	-7569
prefixlen	-7570
timestampa	-7571
currentLine	-7572
UEAssociated	-7573
newPropertya	-7574
subscription	-7575
LPPaTransport	-7576
initialEntries	-7577
40	-7578
An	-7579
brk	-7580
bud	-7581
don	-7582
fwa	-7583
sis	-7584
arba	-7585
bark	-7586
bins	-7587
eros	-7588
fdin	-7589
lema	-7590
mary	-7591
msrs	-7592
ntok	-7593
ptad	-7594
Occur	-7595
going	-7596
login	-7597
struc	-7598
winfo	-7599
Fanins	-7600
TokPtr	-7601
acTrie	-7602
budget	-7603
retMsg	-7604
xpinfo	-7605
OwnerId	-7606
convert	-7607
damagea	-7608
listArg	-7609
support	-7610
Interest	-7611
StartBit	-7612
StringId	-7613
joystick	-7614
Statement	-7615
pFilename	-7616
localPoint	-7617
nextTokPtr	-7618
nonblocking	-7619
tempInteger	-7620
08	-7621
Pkt	-7622
Uri	-7623
dda	-7624
fdr	-7625
hcf	-7626
poa	-7627
rig	-7628
bret	-7629
intc	-7630
ones	-7631
pdes	-7632
Accum	-7633
conda	-7634
fList	-7635
jarga	-7636
logfp	-7637
mypid	-7638
recur	-7639
unded	-7640
rangoa	-7641
salary	-7642
sizeOf	-7643
choices	-7644
clients	-7645
compute	-7646
nodePtr	-7647
optimal	-7648
pStatFS	-7649
pruintc	-7650
Explicit	-7651
filefunc	-7652
follower	-7653
subscale	-7654
Exception	-7655
areaident	-7656
intBuffer	-7657
overheads	-7658
protocola	-7659
rxfiltera	-7660
ulImapNode	-7661
TE	-7662
amd	-7663
ecm	-7664
his	-7665
ias	-7666
tbx	-7667
infa	-7668
loss	-7669
wpid	-7670
writ	-7671
cdata	-7672
jsonb	-7673
rtree	-7674
sofar	-7675
tsize	-7676
txCmd	-7677
Actual	-7678
Server	-7679
ations	-7680
bounda	-7681
dcerta	-7682
flusha	-7683
ifName	-7684
kcount	-7685
knocka	-7686
orient	-7687
resBuf	-7688
retour	-7689
stylea	-7690
entrada	-7691
epsilon	-7692
NameSize	-7693
pIpcEventChild	-7694
TS	-7695
hG	-7696
kq	-7697
uu	-7698
Fro	-7699
Utf	-7700
cif	-7701
ilo	-7702
jun	-7703
mov	-7704
pRa	-7705
pgt	-7706
pkm	-7707
prp	-7708
rra	-7709
sxa	-7710
Lowa	-7711
Recv	-7712
ally	-7713
doku	-7714
dvbs	-7715
icig	-7716
lost	-7717
sobj	-7718
MNPos	-7719
PAddr	-7720
btree	-7721
donne	-7722
mtype	-7723
ndata	-7724
preco	-7725
rcand	-7726
topic	-7727
utime	-7728
csbase	-7729
newenv	-7730
nonopt	-7731
sudoku	-7732
Enabled	-7733
RetCode	-7734
already	-7735
epollfd	-7736
lexPath	-7737
workers	-7738
RetValue	-7739
bufferIx	-7740
grouping	-7741
newright	-7742
sentence	-7743
targnamea	-7744
clientaddr	-7745
StackHandle	-7746
constrainta	-7747
TR	-7748
bmf	-7749
hil	-7750
isc	-7751
pdg	-7752
pfi	-7753
rho	-7754
rtn	-7755
excl	-7756
fixt	-7757
gval	-7758
lope	-7759
ncon	-7760
rsrv	-7761
tile	-7762
aface	-7763
basin	-7764
cmptr	-7765
hills	-7766
trunc	-7767
BufLen	-7768
Matrix	-7769
OfLine	-7770
nelems	-7771
oldtop	-7772
theBuf	-7773
databuf	-7774
fixture	-7775
macaddr	-7776
sSocket	-7777
OpenMode	-7778
disabled	-7779
mechanic	-7780
newindex	-7781
ErrorCode	-7782
buffsizea	-7783
hillslope	-7784
prefixBits	-7785
threadpool	-7786
1_1	-7787
Std	-7788
dur	-7789
hwp	-7790
zit	-7791
TOCa	-7792
dstr	-7793
gens	-7794
jkey	-7795
ncrx	-7796
rreq	-7797
argvc	-7798
hello	-7799
pduId	-7800
Errora	-7801
defval	-7802
integr	-7803
mmPool	-7804
nladdr	-7805
tmpoff	-7806
FastPos	-7807
Replace	-7808
capture	-7809
nUnused	-7810
passwda	-7811
phyaddr	-7812
pricesa	-7813
remotea	-7814
retAtom	-7815
setsize	-7816
sleeper	-7817
swapped	-7818
NewValue	-7819
cmdfilea	-7820
numAvail	-7821
snaplena	-7822
SetupItem	-7823
dimension	-7824
matchaddr	-7825
outInteger	-7826
prucontrol	-7827
numSymbolsa	-7828
LanguageSize	-7829
numHashBytes	-7830
StatusTransfer	-7831
prucontrolregs	-7832
Alt	-7833
Day	-7834
gea	-7835
mbp	-7836
oca	-7837
odb	-7838
poo	-7839
tla	-7840
Ilha	-7841
Redu	-7842
atum	-7843
nets	-7844
uapa	-7845
dados	-7846
iProc	-7847
inpos	-7848
pcSta	-7849
choose	-7850
iSizea	-7851
othera	-7852
InfoPtr	-7853
Keyword	-7854
RetStra	-7855
bitmask	-7856
retorno	-7857
Distance	-7858
encState	-7859
ficheiro	-7860
mySocket	-7861
outgoing	-7862
pcliaddr	-7863
typename	-7864
DeclFileName	-7865
Cor	-7866
TAI	-7867
anc	-7868
dci	-7869
nrh	-7870
ofo	-7871
rqi	-7872
sps	-7873
faci	-7874
hore	-7875
pnum	-7876
ptas	-7877
runa	-7878
Chain	-7879
Modes	-7880
adjac	-7881
itter	-7882
loose	-7883
stuff	-7884
uinfo	-7885
usReg	-7886
cachea	-7887
circle	-7888
endPtr	-7889
instra	-7890
pseudo	-7891
stable	-7892
donnees	-7893
infobuf	-7894
istered	-7895
newtime	-7896
sizeofo	-7897
spiPort	-7898
visited	-7899
StackPtr	-7900
facility	-7901
ingValue	-7902
timezone	-7903
ValueSize	-7904
collapsed	-7905
readCount	-7906
notification	-7907
SocketAddress	-7908
RB	-7909
Ux	-7910
ye	-7911
dsp	-7912
ile	-7913
imm	-7914
jso	-7915
tls	-7916
bval	-7917
cbus	-7918
dibp	-7919
quat	-7920
sigB	-7921
virq	-7922
Audio	-7923
Expra	-7924
idade	-7925
jnode	-7926
logic	-7927
ptree	-7928
28_8_1	-7929
ToFree	-7930
depart	-7931
mapent	-7932
nparts	-7933
readed	-7934
wherea	-7935
OldSize	-7936
TempPtr	-7937
libname	-7938
newdiff	-7939
residue	-7940
xstatsa	-7941
EntryPtr	-7942
Esquerda	-7943
NameGuid	-7944
contextd	-7945
newnamea	-7946
pNodeNew	-7947
psession	-7948
Direction	-7949
wordCount	-7950
allocatora	-7951
modelIndex	-7952
ulOpenMode	-7953
currentCell	-7954
paramsToFree	-7955
ConfigRequest	-7956
sequenceLocation	-7957
Nx	-7958
eg	-7959
bba	-7960
bfs	-7961
fbd	-7962
hid	-7963
lht	-7964
lng	-7965
mtr	-7966
ssp	-7967
Step	-7968
ante	-7969
bloq	-7970
book	-7971
cnum	-7972
dmax	-7973
eepa	-7974
funa	-7975
keym	-7976
maxx	-7977
pFix	-7978
pban	-7979
ridx	-7980
siza	-7981
Ligne	-7982
Proca	-7983
astep	-7984
destb	-7985
devfd	-7986
dices	-7987
ilist	-7988
loopa	-7989
nLine	-7990
pNtka	-7991
qlena	-7992
retri	-7993
vtree	-7994
acache	-7995
charsa	-7996
leaves	-7997
minval	-7998
pCover	-7999
regate	-8000
scorea	-8001
sweepa	-8002
traffi	-8003
Segment	-8004
binding	-8005
ebuflen	-8006
matcode	-8007
nStream	-8008
writefd	-8009
pagesize	-8010
prevReal	-8011
recvtype	-8012
released	-8013
spalette	-8014
starting	-8015
AudioInfo	-8016
MatchList	-8017
lifetimea	-8018
optimized	-8019
optInSlowD	-8020
optInSlowK	-8021
writeCount	-8022
headerLength	-8023
scopedResult	-8024
RG	-8025
fy	-8026
Aft	-8027
Rel	-8028
geo	-8029
ldt	-8030
lsb	-8031
Dira	-8032
aspe	-8033
mmst	-8034
reco	-8035
ymax	-8036
casea	-8037
esize	-8038
targs	-8039
trash	-8040
Change	-8041
Master	-8042
confli	-8043
speeda	-8044
Airport	-8045
DataLen	-8046
Seconds	-8047
newvala	-8048
rdclass	-8049
secname	-8050
AddrSize	-8051
CipherTxt	-8052
buffersize	-8053
finishTime	-8054
nj	-8055
pU	-8056
Bmf	-8057
MCU	-8058
Pad	-8059
hot	-8060
los	-8061
nic	-8062
opr	-8063
pSo	-8064
tvp	-8065
Anew	-8066
Outa	-8067
expt	-8068
flcf	-8069
iopa	-8070
irqa	-8071
memp	-8072
nlha	-8073
trie	-8074
alert	-8075
chana	-8076
iotlb	-8077
pathb	-8078
sible	-8079
Linear	-8080
detach	-8081
matriz	-8082
mynode	-8083
pMiter	-8084
pdataa	-8085
pOpaque	-8086
realloc	-8087
tracing	-8088
vLeaves	-8089
filetype	-8090
lsrvtype	-8091
occCount	-8092
schedule	-8093
clientlen	-8094
tmpbuffer	-8095
PathSwitch	-8096
elementsize	-8097
gv	-8098
Quo	-8099
fea	-8100
her	-8101
pet	-8102
spB	-8103
Fout	-8104
Live	-8105
dstU	-8106
ltmp	-8107
pRes	-8108
roff	-8109
sida	-8110
umsg	-8111
curpa	-8112
hsize	-8113
pTrig	-8114
prepa	-8115
proca	-8116
scape	-8117
sigma	-8118
spect	-8119
ulLen	-8120
EndPos	-8121
cindex	-8122
codeda	-8123
iIndex	-8124
passes	-8125
sCount	-8126
attrUse	-8127
buffers	-8128
numargs	-8129
scanptr	-8130
PlainTxt	-8131
connecta	-8132
RangeInfo	-8133
bytecount	-8134
schemaPtr	-8135
DeviceNode	-8136
attrUseArray	-8137
SupportedLang	-8138
By	-8139
Fc	-8140
Rt	-8141
ek	-8142
CMD	-8143
gtn	-8144
mdp	-8145
mot	-8146
nbe	-8147
pcr	-8148
scs	-8149
sna	-8150
sxy	-8151
Atmp	-8152
asid	-8153
numb	-8154
pidx	-8155
wsec	-8156
CMDID	-8157
bitno	-8158
mntpt	-8159
rdlen	-8160
specs	-8161
uriId	-8162
LValue	-8163
propsa	-8164
wanted	-8165
cgiargs	-8166
fhandle	-8167
hashlin	-8168
ifnamea	-8169
nameend	-8170
newleft	-8171
raopcld	-8172
byteIndx	-8173
caracter	-8174
mysqlrow	-8175
outsizea	-8176
pBufEnda	-8177
panonopt	-8178
ulSector	-8179
codeBlock	-8180
pointsize	-8181
resultvar	-8182
selecteda	-8183
statusReg	-8184
inputSizea	-8185
lowercasea	-8186
Get	-8187
cdp	-8188
rbp	-8189
Have	-8190
Star	-8191
Tdel	-8192
acpi	-8193
dstV	-8194
fina	-8195
jump	-8196
leds	-8197
mone	-8198
surf	-8199
AddAt	-8200
cargc	-8201
corea	-8202
dword	-8203
epsup	-8204
ifest	-8205
pHead	-8206
peeka	-8207
phdrs	-8208
surea	-8209
tinfo	-8210
tours	-8211
kmersa	-8212
mantis	-8213
devicea	-8214
summary	-8215
finished	-8216
foundsec	-8217
manifest	-8218
sessionP	-8219
upsample	-8220
epsupdate	-8221
SourceGuid	-8222
collection	-8223
resolution	-8224
TermGrammar	-8225
sSocketName	-8226
kmerLocation	-8227
Registrationa	-8228
Ro	-8229
wn	-8230
Alg	-8231
Hel	-8232
aug	-8233
fdw	-8234
msb	-8235
pMB	-8236
rkw	-8237
rwx	-8238
uci	-8239
xxx	-8240
LVal	-8241
apna	-8242
bMru	-8243
deps	-8244
nOld	-8245
ncig	-8246
pVeh	-8247
rain	-8248
tola	-8249
QName	-8250
dsize	-8251
fasta	-8252
idesc	-8253
mooth	-8254
oldfn	-8255
refid	-8256
Scorea	-8257
StrLen	-8258
apnagg	-8259
astrom	-8260
folder	-8261
fronta	-8262
goterr	-8263
keybuf	-8264
myaddr	-8265
tablev	-8266
toport	-8267
aliases	-8268
bMruIdx	-8269
vioapic	-8270
whencea	-8271
Sequence	-8272
hardlink	-8273
myStream	-8274
newbrush	-8275
realsize	-8276
serverfd	-8277
urlentry	-8278
NbElement	-8279
exceptfds	-8280
pkcsBlock	-8281
DriverName	-8282
InstanceIDa	-8283
apnaggregate	-8284
maximumbitrate	-8285
lw	-8286
__2	-8287
ban	-8288
cbk	-8289
fnc	-8290
iea	-8291
wgt	-8292
Need	-8293
issu	-8294
peek	-8295
rapl	-8296
strp	-8297
ucta	-8298
wind	-8299
Phase	-8300
Plate	-8301
liter	-8302
works	-8303
xsize	-8304
ysize	-8305
psizea	-8306
rowser	-8307
servfd	-8308
toLena	-8309
Offseta	-8310
Plateau	-8311
amounta	-8312
density	-8313
metrics	-8314
oldmask	-8315
pSocial	-8316
skipped	-8317
sockfda	-8318
newNodea	-8319
ByteCount	-8320
pathnamea	-8321
filestream	-8322
ProtocolGuid	-8323
taillePlateau	-8324
Esc	-8325
SWB	-8326
bip	-8327
gdb	-8328
une	-8329
Bias	-8330
chip	-8331
expA	-8332
much	-8333
okay	-8334
wbuf	-8335
CHRAM	-8336
Outer	-8337
addrj	-8338
archa	-8339
gfile	-8340
ipHdr	-8341
jProc	-8342
kvreq	-8343
marea	-8344
money	-8345
polya	-8346
psSWB	-8347
reach	-8348
respa	-8349
shdra	-8350
toLen	-8351
typei	-8352
uWord	-8353
caller	-8354
cisloa	-8355
compar	-8356
intent	-8357
levels	-8358
linker	-8359
pTruth	-8360
Direita	-8361
NameLen	-8362
average	-8363
comport	-8364
jobNode	-8365
rawtime	-8366
tmpnode	-8367
verseSa	-8368
columnas	-8369
endpoint	-8370
fromskew	-8371
ieLength	-8372
profilea	-8373
requires	-8374
toRemove	-8375
CHRAMData	-8376
FtwDevice	-8377
PacketsRx	-8378
agcLinear	-8379
websocket	-8380
angextenta	-8381
comparator	-8382
quarantine	-8383
readString	-8384
infilenames	-8385
psSWBdetect	-8386
ImageContext	-8387
numBitsWrite	-8388
FP	-8389
bx	-8390
pj	-8391
fsa	-8392
iDb	-8393
ska	-8394
Dele	-8395
cCon	-8396
hdrs	-8397
leap	-8398
lnoa	-8399
nels	-8400
pIna	-8401
pOld	-8402
pPro	-8403
pkta	-8404
rmax	-8405
Porta	-8406
ainfo	-8407
counc	-8408
enemy	-8409
lineb	-8410
pMach	-8411
qumsg	-8412
tmpGr	-8413
vdata	-8414
zonea	-8415
Reduce	-8416
hashid	-8417
itimer	-8418
numsec	-8419
pricea	-8420
Formata	-8421
SubType	-8422
collide	-8423
expires	-8424
npagesa	-8425
Versiona	-8426
detected	-8427
pMachine	-8428
cConEntry	-8429
relationa	-8430
simplType	-8431
statement	-8432
sContEntry	-8433
PRE	-8434
asf	-8435
esk	-8436
oDe	-8437
ons	-8438
uar	-8439
vba	-8440
_8_2	-8441
csum	-8442
curl	-8443
ipad	-8444
iret	-8445
ncla	-8446
rock	-8447
OfThe	-8448
brate	-8449
grade	-8450
pCell	-8451
shard	-8452
Assign	-8453
BitMap	-8454
Blocks	-8455
UsbBus	-8456
carded	-8457
joueur	-8458
numRes	-8459
preply	-8460
stampa	-8461
AndData	-8462
lineptr	-8463
ostream	-8464
student	-8465
unicode	-8466
Override	-8467
respBufa	-8468
respLena	-8469
sendtype	-8470
discarded	-8471
listRouter	-8472
samplesper	-8473
oExpTokenNew	-8474
Pg	-8475
2_1	-8476
ATi	-8477
ATp	-8478
OLD	-8479
Rec	-8480
ftl	-8481
jac	-8482
msw	-8483
okj	-8484
okx	-8485
vil	-8486
wad	-8487
CFGs	-8488
RESH	-8489
Stmt	-8490
Trun	-8491
amat	-8492
onea	-8493
pdcp	-8494
taua	-8495
zSig	-8496
Errno	-8497
autha	-8498
fanin	-8499
guess	-8500
kerns	-8501
nNode	-8502
procs	-8503
rpath	-8504
taken	-8505
THRESH	-8506
aligna	-8507
nzmaxb	-8508
person	-8509
DirPath	-8510
QNameID	-8511
Sourcea	-8512
answera	-8513
decrypt	-8514
maxtime	-8515
msgBuff	-8516
adjacent	-8517
prevleaf	-8518
tripleta	-8519
THRESHOLD	-8520
arraylist	-8521
readcount	-8522
workspace	-8523
envverbose	-8524
currQNameID	-8525
elementsizea	-8526
outbytesleft	-8527
currentFooter	-8528
Qh	-8529
ko	-8530
Gen	-8531
Phy	-8532
bsz	-8533
cff	-8534
ela	-8535
jeu	-8536
lpm	-8537
ono	-8538
rdx	-8539
Area	-8540
Cube	-8541
Peer	-8542
dena	-8543
fval	-8544
gida	-8545
neta	-8546
ptty	-8547
stub	-8548
uarg	-8549
Fetch	-8550
caCmd	-8551
celem	-8552
pRace	-8553
poola	-8554
strma	-8555
effect	-8556
framea	-8557
logBuf	-8558
smooth	-8559
vpMenu	-8560
advance	-8561
globbuf	-8562
leading	-8563
matrice	-8564
waiting	-8565
caCmdBuf	-8566
contours	-8567
modified	-8568
nresults	-8569
optInput	-8570
residual	-8571
snapshot	-8572
targname	-8573
terminal	-8574
Attribute	-8575
elementos	-8576
pContexta	-8577
parentppa	-8578
Capability	-8579
endPointer	-8580
nrOfGarage	-8581
pRoomIndex	-8582
substringa	-8583
terminator	-8584
tolerancea	-8585
SizeInPages	-8586
transformsa	-8587
az	-8588
Aig	-8589
Dot	-8590
MAX	-8591
Neg	-8592
Scr	-8593
cpb	-8594
drh	-8595
esp	-8596
lef	-8597
arya	-8598
cion	-8599
filp	-8600
just	-8601
masc	-8602
msgb	-8603
nano	-8604
opin	-8605
pVal	-8606
tipa	-8607
ulla	-8608
Print	-8609
bname	-8610
doall	-8611
filas	-8612
slota	-8613
Access	-8614
cutoff	-8615
resbuf	-8616
social	-8617
xsinfo	-8618
keyname	-8619
mascara	-8620
memList	-8621
patches	-8622
pcreset	-8623
registr	-8624
Interval	-8625
attrrply	-8626
funcname	-8627
writefds	-8628
ImageBase	-8629
assertion	-8630
errorcode	-8631
archivoSal	-8632
DisplayOnly	-8633
CY	-8634
Ok	-8635
ING	-8636
dan	-8637
exe	-8638
pfp	-8639
spp	-8640
Play	-8641
Save	-8642
hpet	-8643
imsi	-8644
lzma	-8645
pBox	-8646
pNet	-8647
pdss	-8648
xbuf	-8649
acofa	-8650
argin	-8651
avpkt	-8652
blend	-8653
ffile	-8654
newln	-8655
pClan	-8656
trial	-8657
useds	-8658
EscBuf	-8659
clocks	-8660
danger	-8661
formal	-8662
modifi	-8663
sidtab	-8664
tempCY	-8665
tempHT	-8666
tempLT	-8667
termin	-8668
NewHash	-8669
Threads	-8670
autobuf	-8671
backMem	-8672
coffset	-8673
esender	-8674
feature	-8675
membera	-8676
ponenta	-8677
recorre	-8678
revinfo	-8679
rowsper	-8680
saltlen	-8681
toffset	-8682
Lookback	-8683
directed	-8684
grainlen	-8685
maxfirst	-8686
nextnode	-8687
datasizea	-8688
defaultVa	-8689
errnoflag	-8690
hCuCommon	-8691
inputLena	-8692
temphanda	-8693
usedspace	-8694
MenuOption	-8695
ParentType	-8696
curAirport	-8697
incrementa	-8698
mincontext	-8699
DriverEntry	-8700
firstResulta	-8701
resultSpacea	-8702
drawntreasurea	-8703
ay	-8704
fj	-8705
mk	-8706
TCP	-8707
fdm	-8708
lnt	-8709
psm	-8710
swa	-8711
ude	-8712
yyp	-8713
Enum	-8714
Send	-8715
alst	-8716
blan	-8717
clop	-8718
lout	-8719
pEnt	-8720
sbox	-8721
tepa	-8722
topo	-8723
ulen	-8724
Delta	-8725
Pairs	-8726
Timea	-8727
hyper	-8728
ifrom	-8729
mance	-8730
nargv	-8731
subfr	-8732
tname	-8733
under	-8734
until	-8735
wtype	-8736
bjecta	-8737
mechan	-8738
nSizea	-8739
viewer	-8740
Desired	-8741
bestSum	-8742
bufptra	-8743
cStream	-8744
formance	-8745
Authentic	-8746
InputFile	-8747
newstring	-8748
supported	-8749
uesecurity	-8750
messageSize	-8751
collideField	-8752
Authentication	-8753
Sk	-8754
Blt	-8755
ala	-8756
asn	-8757
cxn	-8758
ism	-8759
lgt	-8760
mfd	-8761
ous	-8762
zzM	-8763
HMAC	-8764
Klen	-8765
MASK	-8766
Tbla	-8767
caps	-8768
cstr	-8769
dbrb	-8770
dots	-8771
dstW	-8772
ikey	-8773
ivoa	-8774
luma	-8775
nKey	-8776
pfxa	-8777
phia	-8778
sqrt	-8779
sstr	-8780
ufds	-8781
wlan	-8782
xmin	-8783
Higha	-8784
Trunc	-8785
ndims	-8786
signe	-8787
waita	-8788
IDText	-8789
Serial	-8790
dentry	-8791
future	-8792
stkptr	-8793
trootb	-8794
unlabe	-8795
zzMiss	-8796
ethtype	-8797
maxxlen	-8798
retries	-8799
scripts	-8800
tarenas	-8801
visitor	-8802
MaxBuild	-8803
leadsize	-8804
mainList	-8805
newchild	-8806
positive	-8807
processa	-8808
authblock	-8809
salenptra	-8810
startbyte	-8811
valReturn	-8812
wlanState	-8813
pointsizea	-8814
searchList	-8815
totalBytes	-8816
zzMissText	-8817
NewVariable	-8818
Cx	-8819
DL	-8820
Fe	-8821
cB	-8822
Smb	-8823
aos	-8824
bak	-8825
pSe	-8826
NAST	-8827
cPtr	-8828
ceso	-8829
clip	-8830
dnsc	-8831
elma	-8832
fich	-8833
foot	-8834
hbuf	-8835
nbra	-8836
nres	-8837
rslt	-8838
seda	-8839
sezi	-8840
attsa	-8841
disco	-8842
nvala	-8843
ptrsa	-8844
reptr	-8845
stata	-8846
testi	-8847
usLen	-8848
OfBand	-8849
Starta	-8850
advbuf	-8851
cmdPtr	-8852
finder	-8853
iStart	-8854
logger	-8855
planet	-8856
ratioa	-8857
snonce	-8858
Colonne	-8859
Connect	-8860
Factora	-8861
framesa	-8862
matrixa	-8863
maxBias	-8864
NASTrans	-8865
ThisType	-8866
cutValue	-8867
expanded	-8868
indicesa	-8869
namelena	-8870
retCodea	-8871
retCodeb	-8872
seqWrite	-8873
fdTravail	-8874
localaddr	-8875
maxclocks	-8876
outOfBand	-8877
savedregs	-8878
delimitera	-8879
extensiona	-8880
velocidade	-8881
descriptora	-8882
NASTransport	-8883
SecondString	-8884
numBitLevels	-8885
seqWriteInfo	-8886
GG	-8887
VE	-8888
hg	-8889
Asc	-8890
Dic	-8891
arm	-8892
aut	-8893
rxa	-8894
sav	-8895
cata	-8896
deda	-8897
kena	-8898
msgq	-8899
plat	-8900
rupt	-8901
ties	-8902
walk	-8903
zBuf	-8904
After	-8905
Saved	-8906
bcast	-8907
bufpb	-8908
cflow	-8909
decal	-8910
displ	-8911
dname	-8912
nexps	-8913
pColl	-8914
pSlot	-8915
pglob	-8916
pinva	-8917
tasks	-8918
touch	-8919
conset	-8920
decomp	-8921
gindex	-8922
jitter	-8923
mmBulk	-8924
newdir	-8925
speech	-8926
vNames	-8927
winPtr	-8928
andtime	-8929
central	-8930
fromLen	-8931
hIpcSta	-8932
howLong	-8933
ininame	-8934
pNtkAig	-8935
resseda	-8936
DataType	-8937
FromInta	-8938
EntrySize	-8939
ScopeInfo	-8940
deckIndex	-8941
handIndex	-8942
sourceFile	-8943
lineNumbera	-8944
playedIndex	-8945
trafficflow	-8946
FetchContext	-8947
discardIndex	-8948
timezoneandtime	-8949
RK	-8950
Fin	-8951
LBA	-8952
bya	-8953
clr	-8954
dbl	-8955
fuz	-8956
lsw	-8957
mip	-8958
ngr	-8959
opp	-8960
pea	-8961
thd	-8962
zed	-8963
Case	-8964
diga	-8965
hent	-8966
iesa	-8967
lend	-8968
outb	-8969
pMat	-8970
patb	-8971
posn	-8972
uval	-8973
UdpIo	-8974
dctxa	-8975
drops	-8976
ilobj	-8977
incra	-8978
pBufa	-8979
pipes	-8980
recog	-8981
ulDir	-8982
unmap	-8983
xconn	-8984
centre	-8985
fuzzed	-8986
gotone	-8987
grapha	-8988
inOpen	-8989
questa	-8990
squery	-8991
ultimo	-8992
charmap	-8993
coinage	-8994
curChar	-8995
curtime	-8996
dialoga	-8997
enumber	-8998
kthread	-8999
mailobj	-9000
nFrames	-9001
Password	-9002
durationa	-9003
occurance	-9004
ConfigResp	-9005
MethodDesc	-9006
listBuffer	-9007
serveraddr	-9008
Performance	-9009
controlfile	-9010
schemaFilesCount	-9011
PM	-9012
QS	-9013
UN	-9014
bMR	-9015
gxf	-9016
idl	-9017
ixa	-9018
lcf	-9019
oui	-9020
prx	-9021
rba	-9022
slp	-9023
tie	-9024
uba	-9025
xbt	-9026
Amig	-9027
Seta	-9028
Tail	-9029
absa	-9030
aren	-9031
elmb	-9032
ivmd	-9033
lage	-9034
mpeg	-9035
psLP	-9036
sive	-9037
uraa	-9038
zout	-9039
BlkIo	-9040
aWPtr	-9041
devFD	-9042
devId	-9043
hexid	-9044
nByte	-9045
pinfo	-9046
reent	-9047
sbufa	-9048
undle	-9049
vList	-9050
Occurr	-9051
anglea	-9052
arenaa	-9053
bufpos	-9054
gammaa	-9055
htable	-9056
linepa	-9057
lnamea	-9058
maHeat	-9059
mapper	-9060
miHeat	-9061
newObj	-9062
nlongs	-9063
pToken	-9064
powera	-9065
timers	-9066
ListRes	-9067
clilena	-9068
maxpriv	-9069
numSele	-9070
portstr	-9071
signala	-9072
sources	-9073
village	-9074
AccumCRC	-9075
VCommand	-9076
conflict	-9077
inodeNum	-9078
larguraa	-9079
linkagea	-9080
pActiona	-9081
Callbacka	-9082
exitcodea	-9083
highScore	-9084
pFunction	-9085
valuePtra	-9086
vfilename	-9087
wildcarda	-9088
BootOption	-9089
Nucleotide	-9090
cardDrawna	-9091
finishMode	-9092
highScorea	-9093
pDstPInode	-9094
pVariablea	-9095
controlCode	-9096
numSelected	-9097
outputTable	-9098
seqGrammara	-9099
PeiBotDevice	-9100
RABSetupList	-9101
authenticate	-9102
destinationa	-9103
randomStruct	-9104
ListBearerMod	-9105
aRangeDecoder	-9106
LocationReport	-9107
writerPosition	-9108
lookbackFunction	-9109
MS	-9110
iq	-9111
nP	-9112
Buy	-9113
Foc	-9114
cte	-9115
dad	-9116
fim	-9117
hts	-9118
pAd	-9119
pcd	-9120
pgm	-9121
pls	-9122
rva	-9123
tpu	-9124
Null	-9125
Vide	-9126
arra	-9127
engd	-9128
epfn	-9129
geta	-9130
iFan	-9131
none	-9132
npts	-9133
Cover	-9134
Texta	-9135
Video	-9136
annot	-9137
dereg	-9138
metaa	-9139
ncpus	-9140
pinum	-9141
recid	-9142
resta	-9143
sdata	-9144
their	-9145
tkwin	-9146
viejo	-9147
apicid	-9148
provid	-9149
rotate	-9150
sparse	-9151
Compare	-9152
exitval	-9153
gateway	-9154
mediate	-9155
routine	-9156
sampler	-9157
statBuf	-9158
CallBack	-9159
GpeEvent	-9160
circular	-9161
longlong	-9162
material	-9163
numBitsa	-9164
contentsa	-9165
containing	-9166
headersize	-9167
parameters	-9168
charPerWord	-9169
GpeEventInfo	-9170
OptionNumber	-9171
OptionOrderSize	-9172
IT	-9173
PC	-9174
1_2	-9175
Fon	-9176
Itr	-9177
bat	-9178
iha	-9179
nes	-9180
too	-9181
wra	-9182
Auto	-9183
Supp	-9184
aLen	-9185
boun	-9186
ftok	-9187
leda	-9188
myID	-9189
jlena	-9190
ratea	-9191
scrib	-9192
srvid	-9193
tails	-9194
Stampa	-9195
addstr	-9196
adjncy	-9197
aspect	-9198
export	-9199
fileId	-9200
filler	-9201
igamma	-9202
isnuma	-9203
keyLen	-9204
padLen	-9205
places	-9206
rthbuf	-9207
scores	-9208
Forward	-9209
continu	-9210
council	-9211
example	-9212
funcObj	-9213
lladdra	-9214
ndigits	-9215
pErrora	-9216
parator	-9217
reponse	-9218
textoff	-9219
HostCtrl	-9220
PredCoef	-9221
bufioreq	-9222
defaults	-9223
destroya	-9224
Occurence	-9225
StoreInfo	-9226
blocklist	-9227
qcontents	-9228
sampleSrc	-9229
totalread	-9230
TimeStampa	-9231
TokenSpace	-9232
directiona	-9233
nonTermIDa	-9234
transition	-9235
oExpTokenTree	-9236
sectionoffset	-9237
FA	-9238
Rd	-9239
Arc	-9240
Imp	-9241
adp	-9242
ged	-9243
hms	-9244
ors	-9245
pmi	-9246
wis	-9247
wrd	-9248
CHSE	-9249
Conn	-9250
INGS	-9251
MARG	-9252
arri	-9253
illa	-9254
ison	-9255
ited	-9256
mstr	-9257
numP	-9258
pCom	-9259
pTmp	-9260
ttta	-9261
vale	-9262
Infoa	-9263
addon	-9264
bTemp	-9265
finfo	-9266
garba	-9267
lnStr	-9268
nSeed	-9269
pDest	-9270
pprev	-9271
ulUtf	-9272
08_8_1	-9273
20_8_1	-9274
CHSETT	-9275
MARGIN	-9276
adados	-9277
getran	-9278
lenght	-9279
pfxStr	-9280
uriStr	-9281
AndMask	-9282
HashPtr	-9283
archite	-9284
instart	-9285
ization	-9286
nParmsa	-9287
propsEn	-9288
HobStart	-9289
INGSData	-9290
istridea	-9291
dangerous	-9292
encStatus	-9293
mechanica	-9294
QuestionId	-9295
beforeSize	-9296
compaction	-9297
intercepts	-9298
splitpoints	-9299
architecture	-9300
sizeOfRegion	-9301
configuration	-9302
CHSETTINGSData	-9303
roundIncrement	-9304
distancesPrices	-9305
pG	-9306
cms	-9307
ddp	-9308
gba	-9309
mta	-9310
rsl	-9311
sya	-9312
Poli	-9313
Rsdp	-9314
atyp	-9315
cPin	-9316
enew	-9317
insa	-9318
kill	-9319
mipa	-9320
pxpt	-9321
sipa	-9322
ssrc	-9323
tape	-9324
teng	-9325
Anter	-9326
Flush	-9327
MDefa	-9328
blank	-9329
clave	-9330
inThe	-9331
pTerm	-9332
polyg	-9333
ratch	-9334
rhsOS	-9335
FmtPtr	-9336
Policy	-9337
bitnoa	-9338
evlist	-9339
keystr	-9340
newBin	-9341
pEntry	-9342
padded	-9343
pkteng	-9344
portsa	-9345
startb	-9346
sysctl	-9347
tcpseg	-9348
IncPosa	-9349
LinePtr	-9350
Quality	-9351
Strings	-9352
adresse	-9353
ratchet	-9354
Anterior	-9355
DestDesc	-9356
Overload	-9357
contador	-9358
defaultV	-9359
replacea	-9360
taskinfo	-9361
termPtra	-9362
totwords	-9363
upperArg	-9364
voltagea	-9365
MutexLock	-9366
discovera	-9367
infileptr	-9368
ipaddrlen	-9369
resources	-9370
resultLen	-9371
subblocks	-9372
escapelist	-9373
skipSection	-9374
inTheLinePtr	-9375
previousRank	-9376
ExistingValue	-9377
nrOfGarageFound	-9378
oLinkListStorage	-9379
ei	-9380
qe	-9381
yr	-9382
Cat	-9383
Raw	-9384
TLS	-9385
ccv	-9386
nam	-9387
pmt	-9388
pwm	-9389
xca	-9390
alth	-9391
dato	-9392
dmar	-9393
pafa	-9394
psrc	-9395
rere	-9396
svca	-9397
util	-9398
weak	-9399
Chunk	-9400
Reset	-9401
Visit	-9402
aSPtr	-9403
argpa	-9404
boola	-9405
buddy	-9406
decpt	-9407
iwcmd	-9408
morea	-9409
nBits	-9410
pzlib	-9411
OrData	-9412
PtrPtr	-9413
argNum	-9414
dgrama	-9415
father	-9416
frameP	-9417
intnum	-9418
leasea	-9419
moment	-9420
nCount	-9421
resses	-9422
cursora	-9423
filedes	-9424
metrica	-9425
publicp	-9426
writing	-9427
boxBytes	-9428
sampling	-9429
streamid	-9430
ulLength	-9431
ipAddress	-9432
iteratora	-9433
semaphore	-9434
variables	-9435
components	-9436
listensock	-9437
resistance	-9438
IdeRegisters	-9439
RootBridgeHandle	-9440
Lay	-9441
alc	-9442
fdi	-9443
gss	-9444
ifc	-9445
iib	-9446
lss	-9447
ups	-9448
utc	-9449
Cone	-9450
Ring	-9451
abra	-9452
cput	-9453
days	-9454
elts	-9455
frmd	-9456
ikma	-9457
lkey	-9458
moni	-9459
okma	-9460
pPut	-9461
pold	-9462
prka	-9463
prov	-9464
race	-9465
raiz	-9466
rwbs	-9467
segs	-9468
wfds	-9469
10_8_	-9470
PciId	-9471
basis	-9472
bmfIf	-9473
bread	-9474
cyphe	-9475
gopta	-9476
incip	-9477
pAddr	-9478
pStmt	-9479
prior	-9480
revDo	-9481
slist	-9482
stera	-9483
30_8_4	-9484
inenda	-9485
inodos	-9486
minlen	-9487
pDLink	-9488
sndbuf	-9489
IndexIn	-9490
OutReal	-9491
changes	-9492
ekeylen	-9493
palabra	-9494
princip	-9495
restore	-9496
RABSetup	-9497
cyphered	-9498
fatEntry	-9499
filtered	-9500
nonzeros	-9501
oneOfThe	-9502
packages	-9503
plmnlist	-9504
quantptr	-9505
stringTo	-9506
EndOfLine	-9507
TableSize	-9508
markerVal	-9509
poldchunk	-9510
psDecCtrl	-9511
tableSize	-9512
bitPerWord	-9513
pDLinkHead	-9514
clientDataa	-9515
lzmaDecoder	-9516
newContents	-9517
nodeToDelete	-9518
IndicationIEs	-9519
revDominators	-9520
ExpectedOutReal	-9521
UEContextRelease	-9522
SN	-9523
Wh	-9524
Lit	-9525
lbl	-9526
Apow	-9527
ccip	-9528
ftab	-9529
imap	-9530
quot	-9531
sema	-9532
sequ	-9533
sint	-9534
snmp	-9535
swpa	-9536
teid	-9537
vstr	-9538
ctrla	-9539
gaina	-9540
guida	-9541
naptr	-9542
neare	-9543
nicka	-9544
pComp	-9545
rtime	-9546
whole	-9547
Arraya	-9548
bigger	-9549
chosen	-9550
cvalue	-9551
endSum	-9552
footer	-9553
inData	-9554
linear	-9555
routes	-9556
Visited	-9557
dstlena	-9558
filenum	-9559
howmany	-9560
pDirent	-9561
refname	-9562
segname	-9563
texture	-9564
nexthopa	-9565
pipeline	-9566
srvdereg	-9567
startSum	-9568
AcpiTable	-9569
Reference	-9570
Selection	-9571
locations	-9572
prototype	-9573
submodule	-9574
usernamea	-9575
NewCleanup	-9576
OptionType	-9577
UserHandle	-9578
fAllocated	-9579
pDirStream	-9580
rtspClient	-9581
qualification	-9582
NewCleanupNode	-9583
18	-9584
mw	-9585
qr	-9586
Ffs	-9587
Phi	-9588
anm	-9589
hor	-9590
iol	-9591
kvv	-9592
mdm	-9593
pck	-9594
psk	-9595
sej	-9596
sfs	-9597
Mark	-9598
Octe	-9599
Push	-9600
Spec	-9601
autn	-9602
blea	-9603
blkn	-9604
deco	-9605
newX	-9606
nomf	-9607
nrOf	-9608
poff	-9609
prox	-9610
twoa	-9611
calls	-9612
iveca	-9613
parta	-9614
pmkid	-9615
seeds	-9616
ually	-9617
TermID	-9618
bsscfg	-9619
devIda	-9620
dstlen	-9621
extSig	-9622
gflags	-9623
kimage	-9624
oDesej	-9625
pfxIda	-9626
sbuffa	-9627
storea	-9628
tmpNon	-9629
tslist	-9630
cDevice	-9631
chksuma	-9632
inHigha	-9633
mindist	-9634
navdata	-9635
numItem	-9636
numflag	-9637
outInta	-9638
sequenc	-9639
tempstr	-9640
tmpface	-9641
vxTable	-9642
Template	-9643
hostName	-9644
inbuffer	-9645
newValue	-9646
numrowsa	-9647
pageinda	-9648
pfxTable	-9649
sectiona	-9650
severity	-9651
startang	-9652
typecode	-9653
buyRecord	-9654
formatted	-9655
lAttrTbla	-9656
GrammarExt	-9657
ObjectType	-9658
fileGarage	-9659
fluxoDesej	-9660
itemTypeId	-9661
nrOfOccurr	-9662
returnNode	-9663
sharedFile	-9664
GrammarBase	-9665
simpleEntry	-9666
uriEntryIda	-9667
tmpNonTermID	-9668
expectedIndex	-9669
cDeviceContext	-9670
sequencenumber	-9671
nrOfOccurrences	-9672
LW	-9673
Te	-9674
Tj	-9675
Avd	-9676
Cel	-9677
Ifr	-9678
Sla	-9679
dcp	-9680
dix	-9681
jid	-9682
pot	-9683
sgi	-9684
sil	-9685
wqv	-9686
xpa	-9687
Hook	-9688
LENG	-9689
ards	-9690
eReg	-9691
endb	-9692
gctx	-9693
gpaa	-9694
mini	-9695
pAnd	-9696
qiqx	-9697
qiqy	-9698
qiqz	-9699
scat	-9700
srcb	-9701
Avdtp	-9702
afunc	-9703
aiocb	-9704
gency	-9705
inend	-9706
legal	-9707
posix	-9708
srcfd	-9709
timed	-9710
Pointa	-9711
broken	-9712
issuer	-9713
lights	-9714
msgbuf	-9715
nowPos	-9716
ntable	-9717
ortune	-9718
pReset	-9719
psNLSF	-9720
queued	-9721
rbnode	-9722
runner	-9723
rxdata	-9724
Objects	-9725
created	-9726
dataPtr	-9727
ncolors	-9728
negated	-9729
pageNum	-9730
vLength	-9731
varbind	-9732
wifname	-9733
Avdtphdr	-9734
LinkType	-9735
adapters	-9736
delivery	-9737
inStream	-9738
mergency	-9739
opponent	-9740
peersCat	-9741
splitStr	-9742
statbufa	-9743
Iteration	-9744
newbuffer	-9745
numbytesa	-9746
precedent	-9747
sentinela	-9748
tailbytes	-9749
detachtype	-9750
eRegStatus	-9751
ContextSetup	-9752
Cp	-9753
Fo	-9754
IG	-9755
Ti	-9756
kh	-9757
Crc	-9758
_10	-9759
_11	-9760
ccl	-9761
cot	-9762
cyc	-9763
eba	-9764
fpw	-9765
gut	-9766
mfa	-9767
odp	-9768
ofi	-9769
rtc	-9770
bbox	-9771
cpuf	-9772
ersa	-9773
pEnd	-9774
pgrp	-9775
repa	-9776
zzle	-9777
affin	-9778
atory	-9779
cloud	-9780
datab	-9781
fixup	-9782
heros	-9783
npurg	-9784
pChar	-9785
shmem	-9786
speca	-9787
trait	-9788
ulBit	-9789
Bottom	-9790
Reposi	-9791
clonea	-9792
disjun	-9793
loaded	-9794
pFirst	-9795
smalla	-9796
thermo	-9797
Proceso	-9798
console	-9799
cursors	-9800
flipped	-9801
general	-9802
invGain	-9803
newtext	-9804
objlist	-9805
outdata	-9806
protein	-9807
sndfile	-9808
threadp	-9809
toCheck	-9810
victima	-9811
virtual	-9812
Timeouta	-9813
coarsedb	-9814
curValue	-9815
elementsa	-9816
listenera	-9817
nextentry	-9818
programnb	-9819
PackageHdr	-9820
Repository	-9821
npurgatory	-9822
textLengtha	-9823
secondHeader	-9824
ExTokenNumber	-9825
DevicePosition	-9826
ServiceBinding	-9827
LO	-9828
hk	-9829
_20	-9830
apl	-9831
awk	-9832
she	-9833
snP	-9834
uis	-9835
uth	-9836
Deci	-9837
aNew	-9838
anim	-9839
anno	-9840
dmin	-9841
doma	-9842
incY	-9843
mbio	-9844
newy	-9845
puba	-9846
punt	-9847
shft	-9848
spfn	-9849
suff	-9850
uler	-9851
Atapi	-9852
Basic	-9853
memsz	-9854
oflag	-9855
pGate	-9856
pShop	-9857
sType	-9858
srcpa	-9859
ttime	-9860
vered	-9861
Health	-9862
Signal	-9863
UsbDev	-9864
afacea	-9865
hashed	-9866
outpos	-9867
served	-9868
substr	-9869
tosend	-9870
Reserve	-9871
bininda	-9872
compata	-9873
insizea	-9874
readdir	-9875
addrlenp	-9876
bufplace	-9877
newentry	-9878
Extension	-9879
bytesread	-9880
emergency	-9881
newlength	-9882
subframeP	-9883
registered	-9884
outDataSize	-9885
userdefined	-9886
BufferLength	-9887
DriverHealth	-9888
SectionStream	-9889
EP	-9890
HA	-9891
HP	-9892
Oa	-9893
Qa	-9894
bP	-9895
yo	-9896
yx	-9897
Dif	-9898
Pxe	-9899
aud	-9900
drx	-9901
eme	-9902
etc	-9903
iof	-9904
isw	-9905
lcu	-9906
nts	-9907
pdc	-9908
peq	-9909
sdb	-9910
usN	-9911
vtx	-9912
xMp	-9913
RVal	-9914
argz	-9915
chdr	-9916
dlog	-9917
four	-9918
hmac	-9919
html	-9920
isds	-9921
lims	-9922
llao	-9923
mpty	-9924
ntor	-9925
occu	-9926
oldt	-9927
optp	-9928
outs	-9929
pita	-9930
slop	-9931
sopt	-9932
tasp	-9933
tbss	-9934
youn	-9935
your	-9936
e	-9937
t	-9938
a	-9939
r	-9940
s	-9941
n	-9942
i	-9943
p	-9944
l	-9945
o	-9946
d	-9947
c	-9948
m	-9949
_	-9950
f	-9951
u	-9952
b	-9953
g	-9954
v	-9955
h	-9956
y	-9957
k	-9958
x	-9959
w	-9960
z	-9961
0	-9962
q	-9963
1	-9964
2	-9965
L	-9966
I	-9967
j	-9968
P	-9969
S	-9970
T	-9971
D	-9972
A	-9973
C	-9974
N	-9975
B	-9976
E	-9977
F	-9978
R	-9979
M	-9980
O	-9981
V	-9982
H	-9983
G	-9984
3	-9985
Y	-9986
4	-9987
6	-9988
W	-9989
U	-9990
8	-9991
X	-9992
Q	-9993
K	-9994
