<pad>	0
<s>	0
</s>	0
<unk>	0
<IDENTITY>	0
st	-0
in	-1
IN	-2
ST	-3
STR	-4
ING	-5
STRING	-6
er	-7
re	-8
lo	-9
et	-10
at	-11
en	-12
::	-13
or	-14
al	-15
ar	-16
it	-17
rin	-18
ch	-19
loc	-20
on	-21
ad	-22
rint	-23
std	-24
print	-25
le	-26
ac	-27
me	-28
ut	-29
se	-30
str	-31
printf	-32
err	-33
de	-34
tr	-35
fre	-36
op	-37
ex	-38
bu	-39
get	-40
alloc	-41
as	-42
char	-43
an	-44
mp	-45
un	-46
free	-47
ct	-48
co	-49
cp	-50
__	-51
buf	-52
te	-53
ro	-54
ack	-55
fi	-56
set	-57
put	-58
ent	-59
con	-60
ate	-61
ss	-62
ue	-63
ic	-64
read	-65
to	-66
sy	-67
ist	-68
ap	-69
ion	-70
ator	-71
pe	-72
ite	-73
ring	-74
ag	-75
ai	-76
ing	-77
add	-78
ce	-79
sh	-80
mem	-81
ve	-82
no	-83
ne	-84
si	-85
test	-86
St	-87
int	-88
wr	-89
ab	-90
error	-91
cmp	-92
ti	-93
write	-94
cpu	-95
ord	-96
stderr	-97
is	-98
lock	-99
pack	-100
vent	-101
string	-102
list	-103
packet	-104
len	-105
>>	-106
fprintf	-107
up	-108
word	-109
ol	-110
end	-111
ser	-112
allocator	-113
and	-114
pro	-115
ck	-116
el	-117
ri	-118
fer	-119
th	-120
ame	-121
id	-122
val	-123
its	-124
11	-125
exit	-126
mo	-127
fl	-128
nu	-129
age	-130
ip	-131
che	-132
malloc	-133
ur	-134
cx	-135
addr	-136
ype	-137
buffer	-138
able	-139
Re	-140
ase	-141
puts	-142
log	-143
ail	-144
sym	-145
clo	-146
sys	-147
_1	-148
ation	-149
mm	-150
ver	-151
cess	-152
ind	-153
cxx	-154
ze	-155
_6	-156
packetbuf	-157
close	-158
est	-159
ma	-160
init	-161
dat	-162
fs	-163
tra	-164
mer	-165
nt	-166
ace	-167
strlen	-168
cpy	-169
conf	-170
>,	-171
asic	-172
ext	-173
traits	-174
open	-175
process	-176
::__	-177
ul	-178
io	-179
testing	-180
par	-181
strcmp	-182
di	-183
file	-184
basic	-185
lin	-186
sert	-187
tok	-188
reg	-189
que	-190
arg	-191
aw	-192
fo	-193
errno	-194
ow	-195
Test	-196
out	-197
il	-198
68	-199
erator	-200
In	-201
yy	-202
location	-203
name	-204
send	-205
am	-206
fwrite	-207
lu	-208
time	-209
token	-210
▁*	-211
ed	-212
ter	-213
qword	-214
all	-215
EE	-216
value	-217
thread	-218
ree	-219
freq	-220
war	-221
ig	-222
ctor	-223
ZN	-224
pt	-225
size	-226
6_	-227
::_	-228
opt	-229
sc	-230
2_	-231
event	-232
ort	-233
by	-234
ast	-235
pr	-236
type	-237
ki	-238
cur	-239
check	-240
stack	-241
zconf	-242
pevent	-243
sig	-244
he	-245
bug	-246
nal	-247
assert	-248
flag	-249
po	-250
trace	-251
data	-252
fail	-253
11::	-254
queue	-255
parse	-256
awk	-257
Hawk	-258
_2	-259
bo	-260
pi	-261
new	-262
rent	-263
inter	-264
perror	-265
Po	-266
De	-267
so	-268
find	-269
lua	-270
sysfs	-271
_3	-272
const	-273
memcpy	-274
warn	-275
eld	-276
map	-277
String	-278
li	-279
ft	-280
uip	-281
page	-282
byte	-283
ay	-284
ng	-285
air	-286
Co	-287
rr	-288
ush	-289
ht	-290
du	-291
do	-292
memset	-293
pair	-294
unk	-295
field	-296
opy	-297
ff	-298
warning	-299
rime	-300
_4	-301
for	-302
art	-303
node	-304
code	-305
mat	-306
unt	-307
call	-308
info	-309
ment	-310
ost	-311
sp	-312
line	-313
ll	-314
num	-315
ke	-316
move	-317
lect	-318
_0	-319
En	-320
IS	-321
su	-322
attr	-323
ult	-324
fd	-325
debug	-326
sg	-327
hand	-328
_60	-329
seq	-330
has	-331
comm	-332
base	-333
tree	-334
cpufreq	-335
chk	-336
sn	-337
operator	-338
FF	-339
copy	-340
stat	-341
rimeaddr	-342
cre	-343
▁const	-344
ge	-345
are	-346
internal	-347
pthread	-348
Get	-349
show	-350
current	-351
utex	-352
cle	-353
Poco	-354
cr	-355
ok	-356
cs	-357
rai	-358
flags	-359
ned	-360
vector	-361
es	-362
Sa	-363
us	-364
ive	-365
dr	-366
ir	-367
start	-368
raid	-369
table	-370
bj	-371
main	-372
one	-373
ction	-374
64	-375
lob	-376
imer	-377
md	-378
pre	-379
comp	-380
enu	-381
sock	-382
fun	-383
1_	-384
back	-385
snprintf	-386
text	-387
>::	-388
acpi	-389
rom	-390
ptr	-391
List	-392
Ic	-393
timer	-394
Py	-395
DE	-396
head	-397
col	-398
>>::	-399
per	-400
10	-401
create	-402
sw	-403
date	-404
mutex	-405
ask	-406
try	-407
dup	-408
next	-409
Lo	-410
ty	-411
ute	-412
menu	-413
sprintf	-414
ler	-415
expr	-416
em	-417
pid	-418
pa	-419
Set	-420
ice	-421
pl	-422
ode	-423
fil	-424
ER	-425
32	-426
count	-427
msg	-428
qu	-429
bc	-430
Err	-431
ream	-432
Fi	-433
strn	-434
del	-435
dword	-436
asn	-437
os	-438
act	-439
iterator	-440
ange	-441
signed	-442
ize	-443
filter	-444
Rb	-445
dis	-446
av	-447
top	-448
12	-449
ity	-450
link	-451
dd	-452
Con	-453
load	-454
fig	-455
fopen	-456
pol	-457
Ex	-458
putc	-459
DEF	-460
unsigned	-461
putchar	-462
fclose	-463
block	-464
hash	-465
gz	-466
off	-467
8_	-468
Se	-469
im	-470
ot	-471
strerror	-472
remove	-473
rand	-474
Ev	-475
cept	-476
bol	-477
gnu	-478
Error	-479
tests	-480
ESa	-481
update	-482
0_	-483
config	-484
input	-485
can	-486
ial	-487
symbol	-488
ild	-489
my	-490
item	-491
Un	-492
push	-493
cl	-494
sult	-495
nel	-496
bl	-497
igh	-498
oy	-499
die	-500
ath	-501
\"	-502
handler	-503
be	-504
from	-505
stroy	-506
ctl	-507
ssage	-508
if	-509
output	-510
sa	-511
vel	-512
ber	-513
CC	-514
dp	-515
unlock	-516
3_	-517
flate	-518
flush	-519
app	-520
func	-521
rt	-522
ell	-523
ener	-524
nor	-525
boost	-526
ete	-527
collect	-528
IG	-529
_5	-530
ory	-531
wa	-532
ctimer	-533
vm	-534
long	-535
ec	-536
dir	-537
dex	-538
bit	-539
om	-540
strdup	-541
util	-542
ative	-543
SW	-544
sl	-545
File	-546
ctype	-547
To	-548
wpa	-549
rec	-550
9_	-551
datap	-552
bor	-553
▁*,	-554
ect	-555
hdr	-556
ci	-557
SWIG	-558
clear	-559
callback	-560
met	-561
realloc	-562
state	-563
ds	-564
null	-565
Ass	-566
Info	-567
run	-568
ep	-569
ress	-570
tp	-571
Pro	-572
ert	-573
fn	-574
fr	-575
ib	-576
stdout	-577
Obj	-578
neigh	-579
sr	-580
less	-581
16	-582
memb	-583
Acp	-584
Acpi	-585
Native	-586
ister	-587
neighbor	-588
net	-589
look	-590
itch	-591
imp	-592
fa	-593
dump	-594
ml	-595
Result	-596
dep	-597
strcpy	-598
ated	-599
level	-600
mask	-601
Node	-602
mac	-603
her	-604
max	-605
tran	-606
calloc	-607
cast	-608
switch	-609
Tr	-610
key	-611
OR	-612
>>,	-613
fin	-614
ass	-615
Me	-616
env	-617
exp	-618
ache	-619
ph	-620
handle	-621
queuebuf	-622
regs	-623
wait	-624
YP	-625
EP	-626
fat	-627
chr	-628
Print	-629
mal	-630
shell	-631
destroy	-632
mpty	-633
arr	-634
TA	-635
ard	-636
chan	-637
entry	-638
ception	-639
5_	-640
insert	-641
command	-642
ek	-643
common	-644
ZNSt	-645
scri	-646
lookup	-647
dprint	-648
Ptr	-649
bro	-650
cy	-651
route	-652
bytes	-653
array	-654
oc	-655
Init	-656
last	-657
flo	-658
der	-659
icast	-660
register	-661
stats	-662
bss	-663
IP	-664
Read	-665
host	-666
adcast	-667
dule	-668
fputc	-669
FFFF	-670
hton	-671
Par	-672
index	-673
range	-674
cmd	-675
7__	-676
det	-677
sub	-678
ector	-679
Assert	-680
broadcast	-681
4_	-682
valid	-683
core	-684
bits	-685
server	-686
normal	-687
point	-688
stru	-689
Name	-690
strto	-691
port	-692
arch	-693
gin	-694
dataptr	-695
rad	-696
ns	-697
Al	-698
fatal	-699
Val	-700
Dat	-701
var	-702
icy	-703
of	-704
number	-705
dev	-706
sort	-707
script	-708
secs	-709
ub	-710
Str	-711
ev	-712
uE	-713
ker	-714
canf	-715
strc	-716
uECC	-717
<<	-718
Vector	-719
pect	-720
ure	-721
pg	-722
NS	-723
ESt	-724
cache	-725
trans	-726
ero	-727
obj	-728
socket	-729
Type	-730
Bu	-731
heap	-732
numer	-733
Int	-734
regflags	-735
delete	-736
Debug	-737
seek	-738
river	-739
expect	-740
ME	-741
ls	-742
nd	-743
atch	-744
mode	-745
empty	-746
Code	-747
Enumer	-748
conne	-749
printk	-750
Enumerated	-751
NativeEnumerated	-752
13	-753
slab	-754
Select	-755
ger	-756
Abc	-757
cho	-758
header	-759
Sh	-760
allocate	-761
clock	-762
stream	-763
TE	-764
nl	-765
encode	-766
cov	-767
rap	-768
strchr	-769
IO	-770
Message	-771
syslog	-772
Event	-773
iter	-774
fault	-775
gen	-776
ine	-777
Alloc	-778
http	-779
MA	-780
use	-781
usage	-782
ngx	-783
Ch	-784
um	-785
make	-786
ts	-787
cb	-788
decode	-789
cal	-790
res	-791
db	-792
exec	-793
thon	-794
scan	-795
strncmp	-796
append	-797
50	-798
Python	-799
Mem	-800
ZNK	-801
14	-802
policy	-803
Add	-804
mt	-805
scriptor	-806
vir	-807
go	-808
Is	-809
ith	-810
png	-811
root	-812
ESaIS	-813
Data	-814
ary	-815
sq	-816
80	-817
For	-818
gf	-819
Base	-820
lease	-821
asio	-822
SH	-823
vli	-824
GC	-825
fy	-826
strncpy	-827
>>>	-828
raw	-829
format	-830
yn	-831
driver	-832
lm	-833
ence	-834
::~	-835
20	-836
32_	-837
gth	-838
TestP	-839
fc	-840
recv	-841
elf	-842
unter	-843
prop	-844
ime	-845
memcmp	-846
>>::_	-847
reloc	-848
fix	-849
zero	-850
>>>::	-851
Wr	-852
unicast	-853
abort	-854
udp	-855
crit	-856
signal	-857
nr	-858
ID	-859
child	-860
ho	-861
path	-862
unmap	-863
detail	-864
lobal	-865
mar	-866
inflate	-867
SK	-868
ted	-869
<<<	-870
_40	-871
fflush	-872
Value	-873
min	-874
_8	-875
ioctl	-876
mul	-877
TYP	-878
local	-879
15	-880
Lock	-881
Case	-882
descriptor	-883
anno	-884
IcEE	-885
oper	-886
TYPE	-887
Buf	-888
unce	-889
ions	-890
cycle	-891
1112	-892
prog	-893
Unit	-894
rw	-895
KS	-896
deflate	-897
announce	-898
Write	-899
names	-900
wor	-901
mit	-902
sem	-903
tls	-904
pc	-905
htons	-906
rb	-907
Msg	-908
UnitTest	-909
search	-910
Free	-911
IcSt	-912
choice	-913
exception	-914
radio	-915
Var	-916
traitsIc	-917
Di	-918
Cur	-919
fg	-920
Stream	-921
ain	-922
Listener	-923
fe	-924
cli	-925
stop	-926
MOR	-927
rece	-928
ison	-929
▁char	-930
und	-931
ESaIcEE	-932
traitsIcESaIcEE	-933
_607	-934
ick	-935
cry	-936
sk	-937
TestCase	-938
abled	-939
oi	-940
announcement	-941
ant	-942
MORY	-943
MEMORY	-944
initial	-945
vice	-946
[0	-947
low	-948
Ar	-949
At	-950
mmu	-951
gets	-952
mdb	-953
mmap	-954
pow	-955
alen	-956
SS	-957
stringIcSt	-958
mod	-959
64_	-960
ash	-961
float	-962
datalen	-963
red	-964
fp	-965
Proto	-966
channel	-967
poison	-968
old	-969
fir	-970
conn	-971
istate	-972
syn	-973
tristate	-974
space	-975
shm	-976
Arr	-977
urn	-978
mple	-979
MP	-980
sto	-981
cond	-982
From	-983
random	-984
17	-985
hel	-986
atoi	-987
match	-988
row	-989
listen	-990
pp	-991
Table	-992
inher	-993
calc	-994
message	-995
Block	-996
99_	-997
nto	-998
nsecs	-999
tcp	-1000
inherit	-1001
user	-1002
connect	-1003
au	-1004
ob	-1005
Le	-1006
stem	-1007
Parse	-1008
isoc	-1009
part	-1010
kernel	-1011
fread	-1012
expected	-1013
ared	-1014
ach	-1015
quest	-1016
sche	-1017
rix	-1018
vp	-1019
Entry	-1020
_39	-1021
ix	-1022
vi	-1023
sscanf	-1024
ks	-1025
ps	-1026
indent	-1027
first	-1028
global	-1029
Efi	-1030
vert	-1031
25	-1032
memory	-1033
sent	-1034
leep	-1035
*,	-1036
sql	-1037
sum	-1038
IT	-1039
queued	-1040
bin	-1041
length	-1042
temp	-1043
iommu	-1044
ali	-1045
na	-1046
teger	-1047
events	-1048
Size	-1049
own	-1050
tot	-1051
ify	-1052
etimer	-1053
function	-1054
_16	-1055
_10	-1056
bar	-1057
pha	-1058
gbl	-1059
recov	-1060
default	-1061
_62	-1062
iv	-1063
poll	-1064
frame	-1065
store	-1066
br	-1067
Cu	-1068
cpus	-1069
hex	-1070
verbo	-1071
oid	-1072
ru	-1073
alpha	-1074
tx	-1075
bi	-1076
EA	-1077
reset	-1078
ES	-1079
hw	-1080
Cre	-1081
fgets	-1082
SD	-1083
counter	-1084
module	-1085
Arg	-1086
Protocol	-1087
ssion	-1088
short	-1089
mount	-1090
strcat	-1091
pairI	-1092
fill	-1093
timet	-1094
sor	-1095
fields	-1096
eval	-1097
errorCode	-1098
od	-1099
By	-1100
timetable	-1101
begin	-1102
ak	-1103
post	-1104
ility	-1105
luaL	-1106
avail	-1107
gEfi	-1108
_7	-1109
Path	-1110
aut	-1111
mark	-1112
raph	-1113
Pi	-1114
initialize	-1115
Xml	-1116
Log	-1117
16_	-1118
Current	-1119
Call	-1120
Array	-1121
offset	-1122
ift	-1123
ew	-1124
Create	-1125
matrix	-1126
system	-1127
9__	-1128
asecmp	-1129
receive	-1130
bind	-1131
90	-1132
imple	-1133
dl	-1134
led	-1135
ref	-1136
Id	-1137
pd	-1138
client	-1139
AC	-1140
strtoul	-1141
struct	-1142
acti	-1143
>>>,	-1144
18	-1145
resol	-1146
Ii	-1147
roper	-1148
chunk	-1149
sync	-1150
address	-1151
Ke	-1152
param	-1153
virt	-1154
10_	-1155
spin	-1156
Simple	-1157
ance	-1158
Num	-1159
verify	-1160
crc	-1161
lor	-1162
48	-1163
INS	-1164
son	-1165
coder	-1166
tab	-1167
30	-1168
with	-1169
Che	-1170
turn	-1171
Tok	-1172
28	-1173
Check	-1174
uid	-1175
ra	-1176
crypt	-1177
Find	-1178
request	-1179
sip	-1180
inet	-1181
build	-1182
_1_	-1183
ight	-1184
tk	-1185
modi	-1186
ntoh	-1187
irr	-1188
change	-1189
release	-1190
wn	-1191
swap	-1192
verbose	-1193
So	-1194
rier	-1195
sm	-1196
munmap	-1197
xml	-1198
domain	-1199
roperty	-1200
Comp	-1201
spe	-1202
mk	-1203
Out	-1204
tag	-1205
ference	-1206
hdrptr	-1207
_61	-1208
deg	-1209
alk	-1210
Buffer	-1211
ric	-1212
mfd	-1213
EEE	-1214
plu	-1215
getenv	-1216
▁int	-1217
loop	-1218
TR	-1219
Mo	-1220
rate	-1221
ill	-1222
Up	-1223
packets	-1224
pfn	-1225
And	-1226
Key	-1227
ptrace	-1228
amp	-1229
Fr	-1230
compress	-1231
40	-1232
degree	-1233
Enabled	-1234
ply	-1235
He	-1236
cc	-1237
98	-1238
play	-1239
Hand	-1240
help	-1241
save	-1242
End	-1243
class	-1244
Ab	-1245
DebugAssert	-1246
rl	-1247
appdata	-1248
SSL	-1249
pri	-1250
form	-1251
total	-1252
barrier	-1253
modify	-1254
setup	-1255
Comm	-1256
12_	-1257
args	-1258
parent	-1259
Fail	-1260
7_	-1261
>>>::_	-1262
roup	-1263
Sp	-1264
Th	-1265
Assertion	-1266
metric	-1267
LB	-1268
hwpoison	-1269
asc	-1270
wind	-1271
Inter	-1272
Ntk	-1273
Trace	-1274
60	-1275
ERR	-1276
gettime	-1277
bre	-1278
pop	-1279
cover	-1280
struction	-1281
estim	-1282
ers	-1283
Integer	-1284
Exception	-1285
ward	-1286
TestEvent	-1287
pix	-1288
action	-1289
Object	-1290
cmdline	-1291
any	-1292
ii	-1293
pool	-1294
soft	-1295
strcasecmp	-1296
getnsecs	-1297
disable	-1298
walk	-1299
arena	-1300
uple	-1301
gettext	-1302
object	-1303
options	-1304
wrap	-1305
cfg	-1306
iable	-1307
estimate	-1308
Memory	-1309
lement	-1310
sse	-1311
aff	-1312
olsr	-1313
kvp	-1314
select	-1315
DD	-1316
Format	-1317
fscanf	-1318
Count	-1319
fac	-1320
PP	-1321
ram	-1322
strstr	-1323
NSt	-1324
acc	-1325
Time	-1326
Op	-1327
af	-1328
power	-1329
Byte	-1330
Reg	-1331
mfn	-1332
rector	-1333
pos	-1334
Ut	-1335
>>::~	-1336
Frame	-1337
exist	-1338
Gen	-1339
timerlist	-1340
rel	-1341
attrib	-1342
debugfs	-1343
rtmetric	-1344
70	-1345
status	-1346
softfloat	-1347
wpabuf	-1348
getc	-1349
break	-1350
expand	-1351
Char	-1352
unlink	-1353
ches	-1354
ery	-1355
mmy	-1356
Rec	-1357
▁*>	-1358
req	-1359
Token	-1360
urce	-1361
depth	-1362
impl	-1363
nullradio	-1364
qual	-1365
fet	-1366
rectory	-1367
ull	-1368
ax	-1369
sha	-1370
SaIS	-1371
clean	-1372
cat	-1373
No	-1374
Deque	-1375
big	-1376
TestProperty	-1377
memmove	-1378
RK	-1379
wps	-1380
INSt	-1381
over	-1382
88	-1383
cont	-1384
AssertionResult	-1385
TestPart	-1386
_12	-1387
discover	-1388
relocs	-1389
TestPartResult	-1390
Lib	-1391
Imp	-1392
Next	-1393
SKP	-1394
alias	-1395
ition	-1396
gle	-1397
Red	-1398
ies	-1399
fic	-1400
YTE	-1401
lib	-1402
ailed	-1403
Len	-1404
gate	-1405
New	-1406
gpg	-1407
facility	-1408
man	-1409
sleep	-1410
aes	-1411
▁long	-1412
Copy	-1413
shared	-1414
Fun	-1415
ops	-1416
adns	-1417
osip	-1418
ipher	-1419
color	-1420
Destroy	-1421
EPK	-1422
utes	-1423
sockopt	-1424
Sche	-1425
FFFFFFFF	-1426
modules	-1427
jo	-1428
hvm	-1429
11_	-1430
Tuple	-1431
Fix	-1432
fetch	-1433
Attr	-1434
00	-1435
stdin	-1436
gue	-1437
qsort	-1438
AcpiUt	-1439
frag	-1440
six	-1441
Caller	-1442
38	-1443
plugin	-1444
sion	-1445
arget	-1446
gener	-1447
Dis	-1448
gEfiCaller	-1449
stract	-1450
dummy	-1451
syscall	-1452
validate	-1453
xFFFFFFFF	-1454
sqlite	-1455
_9	-1456
MASK	-1457
pass	-1458
Vec	-1459
Abstract	-1460
task	-1461
eq	-1462
packetqueue	-1463
expi	-1464
Sub	-1465
sample	-1466
irq	-1467
sched	-1468
Line	-1469
PK	-1470
we	-1471
cd	-1472
BaseName	-1473
SHLB	-1474
SHLBYTE	-1475
34	-1476
cipher	-1477
SimpleString	-1478
Bo	-1479
htonl	-1480
service	-1481
gpgme	-1482
cu	-1483
apic	-1484
breakpoint	-1485
virtqueue	-1486
dy	-1487
xer	-1488
ynam	-1489
verse	-1490
Ser	-1491
_8_	-1492
Net	-1493
ump	-1494
AS	-1495
shift	-1496
Strings	-1497
OC	-1498
_26	-1499
ZSt	-1500
serial	-1501
vec	-1502
curr	-1503
pf	-1504
App	-1505
ynamic	-1506
uble	-1507
rx	-1508
acl	-1509
*>	-1510
mig	-1511
26	-1512
MPI	-1513
PyArg	-1514
78	-1515
eno	-1516
exists	-1517
cel	-1518
errs	-1519
Cudd	-1520
TestInfo	-1521
gcov	-1522
SetError	-1523
ctr	-1524
Bit	-1525
24	-1526
zalloc	-1527
ont	-1528
xFFFFFFFFFFFF	-1529
▁*>,	-1530
locks	-1531
asprintf	-1532
stbi	-1533
Update	-1534
migrate	-1535
ERKS	-1536
ISt	-1537
Schema	-1538
ParseTuple	-1539
result	-1540
ON	-1541
tract	-1542
initialized	-1543
IPN	-1544
zconfin	-1545
fork	-1546
nerrs	-1547
RS	-1548
compute	-1549
limit	-1550
lseek	-1551
Fl	-1552
Look	-1553
setsockopt	-1554
errorCodeStrings	-1555
sign	-1556
term	-1557
fputs	-1558
▁*>>::	-1559
ager	-1560
down	-1561
join	-1562
ccess	-1563
anout	-1564
ilk	-1565
Release	-1566
atom	-1567
filen	-1568
_16_	-1569
lineno	-1570
void	-1571
timeout	-1572
cancel	-1573
ape	-1574
Silk	-1575
Tree	-1576
trol	-1577
unch	-1578
58	-1579
mi	-1580
Record	-1581
msr	-1582
hist	-1583
BIO	-1584
sen	-1585
stamp	-1586
adow	-1587
gover	-1588
governor	-1589
access	-1590
Hash	-1591
AR	-1592
ntl	-1593
compare	-1594
mpi	-1595
la	-1596
available	-1597
pairIK	-1598
alig	-1599
attributes	-1600
TI	-1601
order	-1602
shadow	-1603
strtok	-1604
State	-1605
yes	-1606
fseek	-1607
>::~	-1608
_14	-1609
Man	-1610
zconfnerrs	-1611
Basic	-1612
safe	-1613
ERK	-1614
onment	-1615
ProtocolSchema	-1616
Head	-1617
dic	-1618
icl	-1619
ble	-1620
_11	-1621
ipol	-1622
device	-1623
guest	-1624
defin	-1625
warned	-1626
Os	-1627
CR	-1628
Sy	-1629
ian	-1630
matches	-1631
ipolite	-1632
Envir	-1633
_610	-1634
pare	-1635
Environment	-1636
AL	-1637
fcntl	-1638
ofd	-1639
tb	-1640
Pol	-1641
fragment	-1642
getopt	-1643
ms	-1644
cpumask	-1645
ZNKSt	-1646
ofday	-1647
uty	-1648
pagesize	-1649
DebugPrint	-1650
restore	-1651
Ti	-1652
slabs	-1653
duty	-1654
CD	-1655
posix	-1656
zma	-1657
dutycycle	-1658
EEEE	-1659
rd	-1660
lower	-1661
Flag	-1662
stIS	-1663
pdx	-1664
Stat	-1665
ency	-1666
runicast	-1667
stunicast	-1668
Param	-1669
Del	-1670
isc	-1671
lat	-1672
sure	-1673
seal	-1674
ending	-1675
Match	-1676
sensor	-1677
Impl	-1678
▁**,	-1679
gettimeofday	-1680
mb	-1681
ulate	-1682
strtol	-1683
SDL	-1684
observer	-1685
Text	-1686
abc	-1687
509_	-1688
rig	-1689
EV	-1690
oped	-1691
inate	-1692
luaK	-1693
_32	-1694
Space	-1695
Thread	-1696
DC	-1697
rm	-1698
chang	-1699
target	-1700
wi	-1701
rect	-1702
spl	-1703
mq	-1704
rome	-1705
SHA	-1706
tify	-1707
deps	-1708
Pack	-1709
gi	-1710
mpt	-1711
synd	-1712
syndrome	-1713
work	-1714
_15	-1715
ning	-1716
NativeInteger	-1717
MD	-1718
auth	-1719
fanout	-1720
body	-1721
rs	-1722
Tran	-1723
Index	-1724
nown	-1725
strr	-1726
source	-1727
Sock	-1728
Pool	-1729
connection	-1730
skip	-1731
_20	-1732
Lzma	-1733
elim	-1734
BS	-1735
cfs	-1736
abel	-1737
acer	-1738
accept	-1739
hard	-1740
bb	-1741
discovery	-1742
seqan	-1743
_38	-1744
Attrib	-1745
ssl	-1746
pipe	-1747
ben	-1748
sel	-1749
CT	-1750
scsi	-1751
zconfalloc	-1752
cleanup	-1753
vsnprintf	-1754
eliminate	-1755
getpid	-1756
Reset	-1757
profile	-1758
seals	-1759
mountpoint	-1760
non	-1761
bpf	-1762
vate	-1763
IL	-1764
Graph	-1765
TiXml	-1766
group	-1767
pages	-1768
mote	-1769
spon	-1770
timestamp	-1771
entity	-1772
rp	-1773
23	-1774
BasicBlock	-1775
bench	-1776
13_	-1777
ErrorType	-1778
vfprintf	-1779
ture	-1780
HawkMsg	-1781
left	-1782
Convert	-1783
ostream	-1784
por	-1785
xmalloc	-1786
transmit	-1787
DB	-1788
59	-1789
ios	-1790
Map	-1791
▁new	-1792
atomic	-1793
extract	-1794
lessIS	-1795
getpagesize	-1796
mesh	-1797
iz	-1798
session	-1799
failed	-1800
tc	-1801
cxa	-1802
ware	-1803
mpc	-1804
uint	-1805
curname	-1806
tcpip	-1807
TO	-1808
Load	-1809
tail	-1810
entr	-1811
chksum	-1812
ld	-1813
track	-1814
dbg	-1815
ickle	-1816
tm	-1817
Device	-1818
query	-1819
Enc	-1820
sin	-1821
within	-1822
context	-1823
quit	-1824
Mode	-1825
sponse	-1826
bsearch	-1827
Hel	-1828
unix	-1829
duce	-1830
ctx	-1831
▁delete	-1832
ready	-1833
bitmap	-1834
Failure	-1835
trickle	-1836
Iter	-1837
fm	-1838
EN	-1839
qui	-1840
proc	-1841
trap	-1842
prefetch	-1843
TraceInfo	-1844
AD	-1845
27	-1846
ped	-1847
hdralloc	-1848
kill	-1849
bool	-1850
lk	-1851
Run	-1852
option	-1853
ntohl	-1854
worker	-1855
Json	-1856
ED	-1857
alse	-1858
LockTr	-1859
EVP	-1860
launch	-1861
LockTracer	-1862
▁[	-1863
graph	-1864
PC	-1865
gfmul	-1866
Const	-1867
readdir	-1868
_19	-1869
cn	-1870
place	-1871
dns	-1872
isra	-1873
Element	-1874
RT	-1875
_32_	-1876
rootmenu	-1877
nas	-1878
even	-1879
Module	-1880
dict	-1881
version	-1882
pci	-1883
tog	-1884
prefix	-1885
Clo	-1886
Card	-1887
ta	-1888
Mutex	-1889
done	-1890
HawkMsgListener	-1891
lim	-1892
BN	-1893
Det	-1894
notify	-1895
Reference	-1896
ius	-1897
Col	-1898
[]	-1899
frequ	-1900
construct	-1901
Qu	-1902
rename	-1903
enable	-1904
tern	-1905
fast	-1906
pending	-1907
benchmark	-1908
stbroadcast	-1909
received	-1910
active	-1911
nbr	-1912
tific	-1913
callbacks	-1914
lj	-1915
erase	-1916
powercycle	-1917
rwlock	-1918
Directory	-1919
cnt	-1920
_37	-1921
gest	-1922
variable	-1923
Sc	-1924
face	-1925
Range	-1926
not	-1927
clu	-1928
Guid	-1929
Task	-1930
found	-1931
radius	-1932
gBS	-1933
files	-1934
rep	-1935
mcount	-1936
window	-1937
final	-1938
inode	-1939
uper	-1940
_6075	-1941
false	-1942
futex	-1943
expired	-1944
fini	-1945
regexec	-1946
_17	-1947
toggle	-1948
Handle	-1949
desc	-1950
]>	-1951
Opt	-1952
tel	-1953
multi	-1954
SetErrorMsg	-1955
17__	-1956
Core	-1957
Level	-1958
doc	-1959
sensors	-1960
Stack	-1961
tcache	-1962
opend	-1963
right	-1964
box	-1965
sizes	-1966
spec	-1967
pto	-1968
Lookback	-1969
gfexp	-1970
TIFF	-1971
dol	-1972
Aut	-1973
tsd	-1974
schedule	-1975
_13	-1976
19	-1977
resolv	-1978
Tcl	-1979
uci	-1980
opts	-1981
rtimer	-1982
visi	-1983
Helper	-1984
Allocator	-1985
encrypt	-1986
ef	-1987
rpl	-1988
loader	-1989
Expr	-1990
vectorIS	-1991
Ih	-1992
attern	-1993
Number	-1994
AN	-1995
sec	-1996
ower	-1997
Counter	-1998
quo	-1999
used	-2000
polite	-2001
bail	-2002
sed	-2003
ong	-2004
dolph	-2005
rudolph	-2006
JS	-2007
_66	-2008
generate	-2009
ie	-2010
opendir	-2011
With	-2012
double	-2013
vb	-2014
fmt	-2015
greg	-2016
git	-2017
ails	-2018
report	-2019
draw	-2020
Details	-2021
deallocate	-2022
Pcd	-2023
ust	-2024
Instruction	-2025
Open	-2026
Sig	-2027
ensure	-2028
Function	-2029
aux	-2030
PN	-2031
XID	-2032
Point	-2033
pel	-2034
prev	-2035
wid	-2036
legate	-2037
perf	-2038
encounter	-2039
je	-2040
leds	-2041
reduce	-2042
imm	-2043
hook	-2044
affect	-2045
regex	-2046
Close	-2047
Cle	-2048
Tp	-2049
semop	-2050
uration	-2051
CRYP	-2052
tokenname	-2053
iteratorIP	-2054
bump	-2055
static	-2056
pointer	-2057
hardware	-2058
odd	-2059
unregister	-2060
CRYPTO	-2061
CTX	-2062
closedir	-2063
_29	-2064
_606	-2065
ster	-2066
success	-2067
fpu	-2068
tmp	-2069
Stru	-2070
control	-2071
AP	-2072
Ite	-2073
Delegate	-2074
def	-2075
ringPi	-2076
wiringPi	-2077
Struct	-2078
ctrl	-2079
filename	-2080
33	-2081
Internal	-2082
symbols	-2083
way	-2084
AbstractDelegate	-2085
Equal	-2086
entries	-2087
ntohs	-2088
ga	-2089
Of	-2090
Encode	-2091
_611	-2092
crement	-2093
bcfg	-2094
rc	-2095
Finder	-2096
ERV	-2097
aligned	-2098
osc	-2099
Cmd	-2100
adj	-2101
cpv	-2102
xen	-2103
display	-2104
termin	-2105
prepare	-2106
rbcfg	-2107
waiting	-2108
UD	-2109
Remove	-2110
detach	-2111
prompt	-2112
▁*>>>::	-2113
response	-2114
ntop	-2115
Per	-2116
optarg	-2117
FramePP	-2118
Pointer	-2119
Ei	-2120
Cont	-2121
It	-2122
_24	-2123
Shared	-2124
Command	-2125
checked	-2126
Do	-2127
cate	-2128
Identity	-2129
TP	-2130
enabled	-2131
uni	-2132
card	-2133
Length	-2134
eter	-2135
As	-2136
Void	-2137
remote	-2138
OP	-2139
siz	-2140
Fin	-2141
sing	-2142
boot	-2143
Im	-2144
bam	-2145
EPKc	-2146
HYP	-2147
ISOR	-2148
HYPERV	-2149
HYPERVISOR	-2150
defined	-2151
Que	-2152
NC	-2153
REA	-2154
gment	-2155
mach	-2156
tlsv	-2157
qpel	-2158
ly	-2159
Send	-2160
TestResult	-2161
rtnl	-2162
ices	-2163
SB	-2164
AF	-2165
Zero	-2166
GTest	-2167
tification	-2168
Pos	-2169
diff	-2170
optT	-2171
56	-2172
constant	-2173
affected	-2174
throw	-2175
Attribute	-2176
idx	-2177
record	-2178
OB	-2179
Dump	-2180
bzero	-2181
hashname	-2182
LC	-2183
Pre	-2184
cnf	-2185
eof	-2186
cap	-2187
aud	-2188
assign	-2189
lockdep	-2190
inst	-2191
Auto	-2192
Mat	-2193
iw	-2194
ument	-2195
Assimp	-2196
emit	-2197
adv	-2198
PyErr	-2199
timed	-2200
sd	-2201
high	-2202
lop	-2203
▁*>::	-2204
assertion	-2205
til	-2206
bad	-2207
Status	-2208
ocab	-2209
agent	-2210
tv	-2211
ctime	-2212
section	-2213
activ	-2214
Item	-2215
hasht	-2216
ksft	-2217
BB	-2218
lot	-2219
forward	-2220
sol	-2221
Enco	-2222
label	-2223
Delete	-2224
pageflags	-2225
UL	-2226
Inst	-2227
clone	-2228
chars	-2229
HT	-2230
grow	-2231
sky	-2232
rot	-2233
niter	-2234
AB	-2235
LockGraph	-2236
ENS	-2237
Page	-2238
Notification	-2239
MatchFinder	-2240
inj	-2241
reverse	-2242
pk	-2243
>>>>::	-2244
anon	-2245
des	-2246
Policy	-2247
Queue	-2248
checksum	-2249
SharedPtr	-2250
Socket	-2251
Ad	-2252
▁*>>::_	-2253
perio	-2254
EED	-2255
osl	-2256
tolower	-2257
PtrAnd	-2258
inity	-2259
29	-2260
256_	-2261
endian	-2262
gr	-2263
upper	-2264
pairIKS	-2265
quoted	-2266
finish	-2267
wake	-2268
namespace	-2269
ait	-2270
bclk	-2271
enqueue	-2272
ution	-2273
▁*>>,	-2274
TET	-2275
OCTET	-2276
ReferenceCounter	-2277
lstring	-2278
mc	-2279
compl	-2280
Ref	-2281
program	-2282
Process	-2283
keep	-2284
avg	-2285
ses	-2286
Pri	-2287
mous	-2288
ymous	-2289
ReleasePolicy	-2290
AT	-2291
errup	-2292
parser	-2293
quare	-2294
Em	-2295
sim	-2296
kbuffer	-2297
lass	-2298
Fact	-2299
EC	-2300
Ac	-2301
machine	-2302
ene	-2303
vmx	-2304
probe	-2305
Build	-2306
pagemap	-2307
jmp	-2308
Header	-2309
Chan	-2310
Long	-2311
pin	-2312
backward	-2313
inc	-2314
tpm	-2315
Allocate	-2316
anonymous	-2317
drv	-2318
limits	-2319
▁short	-2320
IR	-2321
avio	-2322
chain	-2323
pattern	-2324
arp	-2325
split	-2326
onent	-2327
▁namespace	-2328
Own	-2329
rimestats	-2330
ings	-2331
serve	-2332
crypto	-2333
Dynamic	-2334
deque	-2335
operation	-2336
width	-2337
vl	-2338
Wait	-2339
putstr	-2340
▁for	-2341
restart	-2342
running	-2343
RKT	-2344
SDM	-2345
da	-2346
Gbl	-2347
scoped	-2348
ding	-2349
params	-2350
simple	-2351
vcpu	-2352
HawkXml	-2353
Mac	-2354
idle	-2355
watch	-2356
els	-2357
Repor	-2358
Insert	-2359
xfree	-2360
ake	-2361
Bytes	-2362
Conne	-2363
proto	-2364
HawkObj	-2365
Variable	-2366
802	-2367
seed	-2368
Fixture	-2369
Right	-2370
mmary	-2371
convert	-2372
att	-2373
affinity	-2374
Output	-2375
changed	-2376
CA	-2377
ename	-2378
Channel	-2379
Final	-2380
AutoPtr	-2381
mysql	-2382
Printf	-2383
stringstream	-2384
22	-2385
gp	-2386
EEC	-2387
conds	-2388
yaf	-2389
yaffs	-2390
lient	-2391
Config	-2392
ua	-2393
ical	-2394
CO	-2395
cgi	-2396
▁**>	-2397
Handler	-2398
mon	-2399
ircc	-2400
highest	-2401
job	-2402
hod	-2403
pression	-2404
_30	-2405
Ro	-2406
54	-2407
JSON	-2408
rink	-2409
eap	-2410
ET	-2411
full	-2412
Append	-2413
json	-2414
krap	-2415
ivsky	-2416
krapivsky	-2417
car	-2418
Shift	-2419
Gener	-2420
Te	-2421
return	-2422
57	-2423
CE	-2424
EPS	-2425
edge	-2426
quire	-2427
history	-2428
nlmsg	-2429
kpageflags	-2430
increment	-2431
86	-2432
6_2	-2433
mdoc	-2434
Empty	-2435
Reporter	-2436
Flags	-2437
gc	-2438
strl	-2439
auto	-2440
xode	-2441
bufmem	-2442
Decoder	-2443
Max	-2444
cJSON	-2445
zconffree	-2446
zconfensure	-2447
gov	-2448
scanf	-2449
tell	-2450
periodic	-2451
ded	-2452
bbcp	-2453
Report	-2454
alar	-2455
ants	-2456
ized	-2457
package	-2458
pred	-2459
sets	-2460
bcf	-2461
real	-2462
terminate	-2463
Dyn	-2464
tw	-2465
PtrAndOwn	-2466
ConvertPtrAndOwn	-2467
orc	-2468
AcpiGbl	-2469
Context	-2470
Fil	-2471
delta	-2472
AcpiOs	-2473
vocab	-2474
now	-2475
Wid	-2476
aint	-2477
nack	-2478
rootEntry	-2479
CurrentTest	-2480
finv	-2481
gfinv	-2482
ctionary	-2483
dups	-2484
element	-2485
mand	-2486
Global	-2487
delay	-2488
ink	-2489
Group	-2490
hostap	-2491
Encoder	-2492
shal	-2493
threads	-2494
strip	-2495
dynamic	-2496
Vol	-2497
eg	-2498
sup	-2499
seqno	-2500
strbuf	-2501
askvalue	-2502
known	-2503
rotate	-2504
Manager	-2505
▁*>>>::_	-2506
flow	-2507
funcs	-2508
HawkApp	-2509
dec	-2510
disp	-2511
shrink	-2512
hostapd	-2513
enci	-2514
Dec	-2515
REAL	-2516
FL	-2517
bserver	-2518
rrep	-2519
ority	-2520
seconds	-2521
INT	-2522
CB	-2523
Bind	-2524
sb	-2525
Timer	-2526
Off	-2527
fvec	-2528
_43	-2529
CS	-2530
tect	-2531
Dict	-2532
optind	-2533
FO	-2534
_18	-2535
hdrreduce	-2536
ret	-2537
encies	-2538
Exit	-2539
ases	-2540
Iterator	-2541
Input	-2542
ner	-2543
PR	-2544
RightJ	-2545
wl	-2546
equal	-2547
irrAllocator	-2548
Start	-2549
RightJam	-2550
hold	-2551
ody	-2552
mult	-2553
Driver	-2554
Body	-2555
ping	-2556
If	-2557
force	-2558
Io	-2559
Pr	-2560
vring	-2561
alive	-2562
rinfo	-2563
tl	-2564
Exp	-2565
integer	-2566
nodes	-2567
DevicePath	-2568
lex	-2569
addrinfo	-2570
ProtocolGuid	-2571
21	-2572
abase	-2573
TS	-2574
Macro	-2575
Decode	-2576
logRecord	-2577
constants	-2578
directory	-2579
mos	-2580
Fir	-2581
Push	-2582
ys	-2583
Class	-2584
EL	-2585
bas	-2586
ide	-2587
summary	-2588
Malloc	-2589
strings	-2590
bignum	-2591
mid	-2592
strrchr	-2593
Trans	-2594
LZ	-2595
contain	-2596
lString	-2597
bots	-2598
topo	-2599
sive	-2600
kvm	-2601
Component	-2602
aper	-2603
older	-2604
Fixed	-2605
srand	-2606
Su	-2607
numa	-2608
eloop	-2609
shmctl	-2610
TestDetails	-2611
My	-2612
amd	-2613
psock	-2614
tty	-2615
some	-2616
ular	-2617
gregate	-2618
Register	-2619
ringbuf	-2620
ope	-2621
FilePath	-2622
On	-2623
dsk	-2624
single	-2625
hmac	-2626
decrypt	-2627
ank	-2628
iver	-2629
reply	-2630
frequencies	-2631
feof	-2632
vide	-2633
floor	-2634
ync	-2635
41	-2636
CH	-2637
vmas	-2638
constprop	-2639
audit	-2640
governors	-2641
Filter	-2642
usleep	-2643
unpoison	-2644
fw	-2645
dist	-2646
ftp	-2647
ferred	-2648
leon	-2649
lay	-2650
mmar	-2651
aliases	-2652
HawkObjBase	-2653
rsdp	-2654
values	-2655
helper	-2656
visible	-2657
aggregate	-2658
deve	-2659
chame	-2660
related	-2661
chameleon	-2662
ea	-2663
conv	-2664
prctl	-2665
lopment	-2666
ILb	-2667
kh	-2668
Database	-2669
development	-2670
BU	-2671
ids	-2672
trapped	-2673
mpiPi	-2674
sqrt	-2675
Dig	-2676
emm	-2677
uefi	-2678
>>>>::_	-2679
blk	-2680
AcpiD	-2681
cursor	-2682
Flo	-2683
First	-2684
Image	-2685
did	-2686
rdc	-2687
08	-2688
pan	-2689
regfree	-2690
conns	-2691
cos	-2692
progress	-2693
larg	-2694
ASN	-2695
DA	-2696
Pe	-2697
Or	-2698
_64	-2699
binary	-2700
Bin	-2701
world	-2702
sendto	-2703
bgz	-2704
reference	-2705
counters	-2706
ale	-2707
sending	-2708
round	-2709
keys	-2710
bgzf	-2711
image	-2712
bg	-2713
mandoc	-2714
waitpid	-2715
writ	-2716
_44	-2717
ObjF	-2718
gu	-2719
lem	-2720
rammar	-2721
marshal	-2722
reader	-2723
_603	-2724
Default	-2725
rid	-2726
Coll	-2727
Shell	-2728
keepalive	-2729
Ext	-2730
Mesh	-2731
scr	-2732
san	-2733
configuration	-2734
Constant	-2735
uc	-2736
toupper	-2737
Compare	-2738
retransmit	-2739
Func	-2740
Query	-2741
96	-2742
Put	-2743
trig	-2744
flood	-2745
getpc	-2746
copyto	-2747
rewind	-2748
LzmaEnc	-2749
large	-2750
unlocked	-2751
activity	-2752
exchange	-2753
netflood	-2754
atexit	-2755
fies	-2756
Offset	-2757
merge	-2758
EX	-2759
Clear	-2760
recent	-2761
Address	-2762
bn	-2763
points	-2764
interrup	-2765
04	-2766
ole	-2767
ature	-2768
PS	-2769
Cache	-2770
OPER	-2771
compower	-2772
Sk	-2773
fold	-2774
ident	-2775
nullmac	-2776
tom	-2777
FT	-2778
iup	-2779
BDD	-2780
>::_	-2781
resize	-2782
inv	-2783
dh	-2784
miter	-2785
buflen	-2786
ced	-2787
Util	-2788
fresh	-2789
tun	-2790
iffer	-2791
SL	-2792
ntax	-2793
Null	-2794
vectorIN	-2795
strrcmp	-2796
ave	-2797
pga	-2798
swig	-2799
gateway	-2800
gfn	-2801
fstat	-2802
complete	-2803
attrs	-2804
protect	-2805
clas	-2806
ading	-2807
wakeup	-2808
Dir	-2809
hop	-2810
telnet	-2811
DS	-2812
pager	-2813
Grammar	-2814
straint	-2815
bot	-2816
Word	-2817
Field	-2818
instruction	-2819
53	-2820
chn	-2821
Factory	-2822
hexdump	-2823
anin	-2824
argv	-2825
apply	-2826
Generic	-2827
lowpass	-2828
PD	-2829
rpc	-2830
shmget	-2831
peek	-2832
Signal	-2833
nullrdc	-2834
ose	-2835
Rand	-2836
MAX	-2837
timers	-2838
HawkAppObj	-2839
RKS	-2840
lastport	-2841
uff	-2842
nest	-2843
CDL	-2844
someone	-2845
phys	-2846
digit	-2847
sniffer	-2848
inflateEnd	-2849
None	-2850
ERKNS	-2851
getCurrent	-2852
vis	-2853
scii	-2854
inflateInit	-2855
52	-2856
preced	-2857
NoneStruct	-2858
Skip	-2859
Float	-2860
precedence	-2861
Addr	-2862
direct	-2863
jif	-2864
jiffies	-2865
ux	-2866
TH	-2867
Widget	-2868
Wor	-2869
xpg	-2870
streaming	-2871
264_	-2872
Shape	-2873
ipc	-2874
ntoa	-2875
_604	-2876
_620	-2877
EF	-2878
Uni	-2879
ual	-2880
trigger	-2881
trac	-2882
inject	-2883
80215	-2884
dequeue	-2885
adjust	-2886
evt	-2887
INFO	-2888
gettop	-2889
voff	-2890
tables	-2891
bs	-2892
units	-2893
pairIKi	-2894
Iv	-2895
>>>>	-2896
ctet	-2897
HawkZ	-2898
resh	-2899
frames	-2900
execute	-2901
reserve	-2902
Temp	-2903
ayload	-2904
receiver	-2905
GL	-2906
ACE	-2907
cudd	-2908
An	-2909
IST	-2910
Network	-2911
chunks	-2912
zmq	-2913
wrapper	-2914
deflateEnd	-2915
BF	-2916
Parameter	-2917
settop	-2918
<__	-2919
74	-2920
94	-2921
All	-2922
reas	-2923
802154_	-2924
ton	-2925
efi	-2926
odv	-2927
uaodv	-2928
Wind	-2929
dlg	-2930
Logger	-2931
gethost	-2932
genl	-2933
Encoding	-2934
regcomp	-2935
resolution	-2936
region	-2937
Link	-2938
irc	-2939
pad	-2940
ardown	-2941
cpf	-2942
Mult	-2943
cursive	-2944
Server	-2945
plugins	-2946
energest	-2947
step	-2948
_23	-2949
Unity	-2950
content	-2951
22_	-2952
eros	-2953
fdarray	-2954
esc	-2955
treeINSt	-2956
STREA	-2957
Action	-2958
teardown	-2959
sport	-2960
GetDict	-2961
_6073	-2962
hashtab	-2963
refresh	-2964
kg	-2965
discard	-2966
slot	-2967
true	-2968
unknown	-2969
secp	-2970
asize	-2971
emptyset	-2972
Lex	-2973
multihop	-2974
BIT	-2975
Ij	-2976
actor	-2977
Ascii	-2978
Local	-2979
readline	-2980
ether	-2981
wd	-2982
latency	-2983
bus	-2984
RTMP	-2985
tracking	-2986
Cr	-2987
pushvalue	-2988
vx	-2989
src	-2990
ipv	-2991
PyModule	-2992
Accept	-2993
UE	-2994
wh	-2995
xy	-2996
128	-2997
nan	-2998
redis	-2999
inits	-3000
Sym	-3001
sume	-3002
ERS	-3003
nore	-3004
55	-3005
MR	-3006
chdir	-3007
>>>>>::	-3008
Sw	-3009
_22	-3010
two	-3011
Packet	-3012
EY	-3013
vt	-3014
maddr	-3015
wt	-3016
Prog	-3017
interval	-3018
Valid	-3019
istr	-3020
errors	-3021
DF	-3022
font	-3023
changable	-3024
STREAM	-3025
shim	-3026
ports	-3027
Port	-3028
Bits	-3029
Sim	-3030
byname	-3031
fds	-3032
inmemb	-3033
attach	-3034
disk	-3035
Source	-3036
deinit	-3037
utdown	-3038
SetConstant	-3039
pushstring	-3040
evtchn	-3041
Met	-3042
alg	-3043
Fill	-3044
rapl	-3045
ferror	-3046
swigconstant	-3047
ToString	-3048
Double	-3049
share	-3050
GetNext	-3051
olean	-3052
sole	-3053
rq	-3054
ERROR	-3055
Extra	-3056
Scoped	-3057
mosquit	-3058
adver	-3059
Pci	-3060
trim	-3061
txt	-3062
symbolic	-3063
Mar	-3064
44	-3065
EG	-3066
fpga	-3067
vbuf	-3068
fprint	-3069
samp	-3070
hs	-3071
CF	-3072
reshold	-3073
nla	-3074
ln	-3075
square	-3076
ict	-3077
mmx	-3078
sv	-3079
self	-3080
area	-3081
finalize	-3082
mot	-3083
trun	-3084
ipaddr	-3085
256	-3086
batch	-3087
lector	-3088
initscan	-3089
cram	-3090
NPC	-3091
Fn	-3092
Sup	-3093
rule	-3094
dest	-3095
private	-3096
UR	-3097
gre	-3098
Pkg	-3099
inflateReset	-3100
testd	-3101
case	-3102
icate	-3103
ignore	-3104
errorCodeDecoder	-3105
CZ	-3106
adler	-3107
CZString	-3108
\\	-3109
tbl	-3110
uri	-3111
otag	-3112
fstring	-3113
GTestLog	-3114
anch	-3115
scene	-3116
Client	-3117
checkpoint	-3118
tise	-3119
Tvb	-3120
xfr	-3121
front	-3122
wf	-3123
istype	-3124
Color	-3125
▁*\"	-3126
ipar	-3127
totlen	-3128
Ret	-3129
PT	-3130
ZNSa	-3131
interrupt	-3132
fier	-3133
._	-3134
_28	-3135
replace	-3136
sanity	-3137
cm	-3138
21_	-3139
RKNS	-3140
glob	-3141
peat	-3142
autoconfig	-3143
errbuf	-3144
advertise	-3145
let	-3146
the	-3147
mkdir	-3148
hd	-3149
Fast	-3150
sibl	-3151
acquire	-3152
cq	-3153
com	-3154
fam	-3155
syntax	-3156
zip	-3157
drop	-3158
prio	-3159
_27	-3160
gzclose	-3161
Gate	-3162
advertisement	-3163
Leading	-3164
ren	-3165
MF	-3166
ov	-3167
itor	-3168
MAC	-3169
sigemptyset	-3170
fileno	-3171
may	-3172
neighbors	-3173
TRACE	-3174
ObjFanin	-3175
Expression	-3176
BC	-3177
One	-3178
strtolong	-3179
fore	-3180
Observer	-3181
Be	-3182
wlu	-3183
Heap	-3184
readn	-3185
Display	-3186
segment	-3187
_55	-3188
url	-3189
Indic	-3190
hostaddr	-3191
watchpoints	-3192
basename	-3193
errorCodeEncoder	-3194
rbtree	-3195
urg	-3196
lessIi	-3197
reason	-3198
cert	-3199
bound	-3200
conti	-3201
addrs	-3202
shiftRightJam	-3203
ee	-3204
bswap	-3205
Control	-3206
asm	-3207
inipar	-3208
iniparser	-3209
pushfstring	-3210
elfloader	-3211
align	-3212
getattr	-3213
avfilter	-3214
addressof	-3215
rsa	-3216
need	-3217
pv	-3218
testdev	-3219
peer	-3220
tracing	-3221
video	-3222
transition	-3223
times	-3224
ization	-3225
fifo	-3226
dirty	-3227
contains	-3228
dictionary	-3229
nested	-3230
transl	-3231
phase	-3232
netdev	-3233
accum	-3234
pixels	-3235
Are	-3236
EESt	-3237
Zeros	-3238
ARG	-3239
yyr	-3240
Descriptor	-3241
LzmaDec	-3242
strncat	-3243
lf	-3244
rio	-3245
hy	-3246
iword	-3247
dg	-3248
splice	-3249
Spe	-3250
_4_	-3251
LeadingZeros	-3252
Exec	-3253
Perio	-3254
nodeIS	-3255
cf	-3256
itions	-3257
rat	-3258
FD	-3259
gl	-3260
payload	-3261
17_	-3262
Request	-3263
shortShift	-3264
modSub	-3265
Kmap	-3266
unit	-3267
shutdown	-3268
overhead	-3269
warnings	-3270
frequency	-3271
cons	-3272
rucb	-3273
dual	-3274
casecmp	-3275
df	-3276
vmcs	-3277
Keynode	-3278
decoder	-3279
ftell	-3280
680	-3281
present	-3282
NA	-3283
allow	-3284
famil	-3285
ations	-3286
define	-3287
Work	-3288
37	-3289
INIT	-3290
gPcd	-3291
rreq	-3292
alarm	-3293
epoll	-3294
generic	-3295
ile	-3296
tpl	-3297
cpSpace	-3298
ud	-3299
zz	-3300
Make	-3301
ause	-3302
remain	-3303
weight	-3304
bewf	-3305
libewf	-3306
fgetc	-3307
SP	-3308
bio	-3309
_6074	-3310
abs	-3311
rary	-3312
atcher	-3313
family	-3314
stimer	-3315
anti	-3316
AUD	-3317
warf	-3318
getchar	-3319
dwarf	-3320
Ns	-3321
gmp	-3322
mtx	-3323
sity	-3324
contiki	-3325
cdr	-3326
win	-3327
asci	-3328
Setup	-3329
fixup	-3330
cluster	-3331
overflow	-3332
39	-3333
zone	-3334
esm	-3335
Resp	-3336
User	-3337
_3959	-3338
intel	-3339
gettsd	-3340
Bl	-3341
ioinit	-3342
peg	-3343
Contain	-3344
held	-3345
fstack	-3346
FA	-3347
AddCode	-3348
AddCodeLine	-3349
emu	-3350
Last	-3351
Mask	-3352
iteratorIPK	-3353
zfree	-3354
pkt	-3355
Move	-3356
interface	-3357
pur	-3358
luaM	-3359
200	-3360
uncompress	-3361
vices	-3362
forwarding	-3363
OA	-3364
vq	-3365
anks	-3366
Common	-3367
zarray	-3368
truncate	-3369
sigaction	-3370
enc	-3371
Random	-3372
compact	-3373
baseIN	-3374
xstat	-3375
Window	-3376
SetString	-3377
EPSt	-3378
Uefi	-3379
Back	-3380
amer	-3381
userdata	-3382
dom	-3383
home	-3384
luaD	-3385
mosquitto	-3386
allocatorEv	-3387
ofp	-3388
qemu	-3389
sampler	-3390
LIST	-3391
addattr	-3392
ched	-3393
solute	-3394
PM	-3395
enter	-3396
aml	-3397
GLOB	-3398
deref	-3399
Root	-3400
HawkZmq	-3401
functions	-3402
choose	-3403
Formatter	-3404
_215	-3405
GLOBAL	-3406
copyfrom	-3407
>>>::__	-3408
vprintf	-3409
remaining	-3410
seg	-3411
mass	-3412
Private	-3413
returnError	-3414
_42	-3415
strtoull	-3416
LY	-3417
_614	-3418
AtBuild	-3419
FixedAtBuild	-3420
ata	-3421
modMult	-3422
HawkDatabase	-3423
pton	-3424
structor	-3425
RN	-3426
TEST	-3427
forget	-3428
FC	-3429
elem	-3430
maybe	-3431
accumulate	-3432
vents	-3433
Dk	-3434
acter	-3435
cEE	-3436
DEBU	-3437
sysconf	-3438
LevelEnabled	-3439
Cap	-3440
AUDIT	-3441
remap	-3442
small	-3443
ign	-3444
room	-3445
tick	-3446
DEBUG	-3447
15_	-3448
jpeg	-3449
locked	-3450
Initial	-3451
timedout	-3452
DynArr	-3453
Parser	-3454
Period	-3455
vtable	-3456
IiSt	-3457
eb	-3458
signals	-3459
sett	-3460
dataptrs	-3461
YNC	-3462
Ip	-3463
SI	-3464
TSYNC	-3465
ascii	-3466
Der	-3467
Boot	-3468
FileData	-3469
HawkXmlElement	-3470
Any	-3471
Blen	-3472
filters	-3473
listening	-3474
motSim	-3475
getline	-3476
ffs	-3477
Utest	-3478
board	-3479
echo	-3480
xfrm	-3481
Segment	-3482
ranges	-3483
Sync	-3484
izedTestCase	-3485
Pl	-3486
jump	-3487
blocks	-3488
localtime	-3489
categ	-3490
method	-3491
linkaddr	-3492
transitions	-3493
iError	-3494
Connect	-3495
words	-3496
System	-3497
HawkGate	-3498
recvfrom	-3499
DestroyString	-3500
fft	-3501
Interface	-3502
76	-3503
arning	-3504
Deferred	-3505
Short	-3506
UtestShell	-3507
Poly	-3508
Pop	-3509
ZL	-3510
pw	-3511
_2_	-3512
outf	-3513
Library	-3514
refbufmem	-3515
sect	-3516
verted	-3517
treeIiSt	-3518
bility	-3519
extra	-3520
kick	-3521
hyper	-3522
uninitialized	-3523
CLZ	-3524
dot	-3525
tur	-3526
82	-3527
sockt	-3528
contikimac	-3529
TestResults	-3530
TiXmlString	-3531
ARGTYPE	-3532
290	-3533
Hii	-3534
svm	-3535
escape	-3536
console	-3537
_25	-3538
36	-3539
formats	-3540
acket	-3541
Holder	-3542
mz	-3543
ule	-3544
ubio	-3545
fixed	-3546
SHT	-3547
site	-3548
xFFFFFFFFFFFFF	-3549
Connection	-3550
pm	-3551
optB	-3552
star	-3553
layer	-3554
visibility	-3555
Seed	-3556
AcpiNs	-3557
mapping	-3558
Nor	-3559
MC	-3560
selector	-3561
pause	-3562
wc	-3563
aubio	-3564
inverted	-3565
vma	-3566
baseIP	-3567
unyaffs	-3568
omp	-3569
bufptr	-3570
stb	-3571
tin	-3572
vol	-3573
xmac	-3574
rlimit	-3575
Vert	-3576
LV	-3577
but	-3578
MO	-3579
constraint	-3580
Argument	-3581
GenMacro	-3582
GenFileData	-3583
GenMacroData	-3584
31	-3585
Form	-3586
BE	-3587
ume	-3588
Death	-3589
InfoBase	-3590
Box	-3591
instance	-3592
lessIiESaIS	-3593
pushnumber	-3594
IA	-3595
160	-3596
threshold	-3597
deflateInit	-3598
ratio	-3599
tunnel	-3600
translate	-3601
Cell	-3602
semctl	-3603
perform	-3604
HMAC	-3605
calculate	-3606
imum	-3607
scribe	-3608
SE	-3609
concat	-3610
gzopen	-3611
izer	-3612
registered	-3613
Ivy	-3614
triv	-3615
trivial	-3616
OL	-3617
_52	-3618
boolean	-3619
>>>>>::_	-3620
priority	-3621
35	-3622
HawkXmlAttribute	-3623
only	-3624
Unsigned	-3625
typeES	-3626
WaitInfo	-3627
Search	-3628
purge	-3629
kit	-3630
ivec	-3631
verbosity	-3632
PKEY	-3633
_298	-3634
resolve	-3635
_6<	-3636
aging	-3637
iio	-3638
patch	-3639
cpBody	-3640
pointers	-3641
Clean	-3642
Reply	-3643
misc	-3644
Child	-3645
dso	-3646
shortopts	-3647
Mde	-3648
Params	-3649
iteral	-3650
repeat	-3651
headers	-3652
network	-3653
SDMComponent	-3654
gnt	-3655
dio	-3656
Sort	-3657
bottom	-3658
discardCard	-3659
brk	-3660
Mul	-3661
etect	-3662
hlock	-3663
DeathTest	-3664
lseq	-3665
tpacket	-3666
roll	-3667
Method	-3668
RedVol	-3669
curity	-3670
ioapic	-3671
uv	-3672
adb	-3673
sequ	-3674
▁0	-3675
commit	-3676
hole	-3677
prep	-3678
wrmsr	-3679
Cal	-3680
_46	-3681
iss	-3682
best	-3683
clude	-3684
ported	-3685
Warning	-3686
avp	-3687
zlib	-3688
longjmp	-3689
absolute	-3690
UnitTestImpl	-3691
PU	-3692
py	-3693
chop	-3694
traceevent	-3695
IiEE	-3696
stor	-3697
progname	-3698
endEv	-3699
gy	-3700
Hex	-3701
Eb	-3702
Ent	-3703
ade	-3704
ited	-3705
strlcpy	-3706
raise	-3707
_50	-3708
)::	-3709
div	-3710
mtd	-3711
game	-3712
IX	-3713
Loader	-3714
feature	-3715
TRInstruction	-3716
_400	-3717
_526	-3718
NAME	-3719
luaX	-3720
beginEv	-3721
CopyStr	-3722
CuCmd	-3723
TextEncoding	-3724
fentry	-3725
framer	-3726
devices	-3727
dead	-3728
neg	-3729
ubl	-3730
IiSa	-3731
Return	-3732
79	-3733
wfa	-3734
_6212	-3735
WorkSpace	-3736
Prime	-3737
jobs	-3738
FB	-3739
Act	-3740
Watcher	-3741
DirectoryWatcher	-3742
trip	-3743
unpack	-3744
stub	-3745
nevents	-3746
)\"	-3747
ise	-3748
roff	-3749
>>>>,	-3750
Save	-3751
HEA	-3752
cell	-3753
sds	-3754
licate	-3755
transport	-3756
gethostbyname	-3757
EM	-3758
bz	-3759
snd	-3760
vex	-3761
comb	-3762
arrays	-3763
Blender	-3764
bigendian	-3765
AY	-3766
PDU	-3767
unique	-3768
hashtable	-3769
DirectoryEvent	-3770
aton	-3771
CuCommon	-3772
np	-3773
12__	-3774
Left	-3775
registr	-3776
sftp	-3777
Matrix	-3778
export	-3779
ObjIs	-3780
sizet	-3781
unaligned	-3782
gpio	-3783
prof	-3784
reen	-3785
vars	-3786
cred	-3787
compat	-3788
wiringPiMode	-3789
Zip	-3790
cor	-3791
ProtoGrammar	-3792
Ter	-3793
strtoll	-3794
dma	-3795
84	-3796
codec	-3797
tolua	-3798
sizeEv	-3799
NUL	-3800
born	-3801
LOC	-3802
meta	-3803
SimpleType	-3804
pru	-3805
banks	-3806
cEERS	-3807
cesse	-3808
ension	-3809
ino	-3810
icmp	-3811
stubborn	-3812
ADD	-3813
_49	-3814
_233	-3815
cific	-3816
branch	-3817
locale	-3818
chunksize	-3819
initialization	-3820
EB	-3821
PKc	-3822
super	-3823
Not	-3824
rcv	-3825
plic	-3826
ublic	-3827
strncasecmp	-3828
cycles	-3829
finite	-3830
asso	-3831
Deref	-3832
Md	-3833
Aig	-3834
cds	-3835
sam	-3836
Program	-3837
hts	-3838
classes	-3839
OS	-3840
llist	-3841
destruction	-3842
va	-3843
mis	-3844
41__	-3845
mapho	-3846
second	-3847
Usb	-3848
\"/	-3849
nil	-3850
Unicode	-3851
datapath	-3852
_36	-3853
87	-3854
ins	-3855
Encog	-3856
MyWorkSpace	-3857
Mess	-3858
detect	-3859
sf	-3860
argument	-3861
TRInstructionX	-3862
EPNS	-3863
turbo	-3864
wchar	-3865
errmsg	-3866
destruct	-3867
18_	-3868
Content	-3869
freelist	-3870
sequence	-3871
ui	-3872
Has	-3873
URI	-3874
stom	-3875
pal	-3876
bcmp	-3877
plan	-3878
setjmp	-3879
ircular	-3880
rout	-3881
Lookup	-3882
nb	-3883
Session	-3884
Defin	-3885
Packed	-3886
maphore	-3887
hm	-3888
algo	-3889
baseIPN	-3890
75	-3891
exi	-3892
tos	-3893
sz	-3894
rawget	-3895
PtrSize	-3896
TPM	-3897
AMF	-3898
slen	-3899
hu	-3900
epis	-3901
panic	-3902
episode	-3903
failure	-3904
gb	-3905
UINT	-3906
itti	-3907
Square	-3908
started	-3909
slabinfo	-3910
sniffers	-3911
setfilter	-3912
listenports	-3913
*)	-3914
65	-3915
adata	-3916
aliasinfo	-3917
errx	-3918
baseIT	-3919
safefree	-3920
_34	-3921
mpeg	-3922
allocateEm	-3923
yrm	-3924
scope	-3925
yrmcds	-3926
Price	-3927
gfexi	-3928
lent	-3929
irqrestore	-3930
UDK	-3931
Target	-3932
Priority	-3933
11__	-3934
cket	-3935
optP	-3936
libnet	-3937
runtime	-3938
paren	-3939
lst	-3940
unref	-3941
shmat	-3942
FLAC	-3943
crash	-3944
screen	-3945
agels	-3946
unused	-3947
Messagels	-3948
eps	-3949
orig	-3950
category	-3951
Label	-3952
modSquare	-3953
parameter	-3954
LIN	-3955
password	-3956
MS	-3957
tempo	-3958
Lim	-3959
_880	-3960
preload	-3961
commands	-3962
AND	-3963
LEP	-3964
luaO	-3965
lines	-3966
symtab	-3967
cached	-3968
spfree	-3969
statfs	-3970
orcSHT	-3971
tracecmd	-3972
PL	-3973
advance	-3974
FE	-3975
restorefs	-3976
neo	-3977
ally	-3978
mash	-3979
kfree	-3980
vertex	-3981
breakpoints	-3982
LO	-3983
MME	-3984
ERKNSt	-3985
itespace	-3986
xp	-3987
ftruncate	-3988
Pei	-3989
loaded	-3990
PyObject	-3991
Disk	-3992
CON	-3993
setaffinity	-3994
HEAD	-3995
congest	-3996
rev	-3997
arenas	-3998
mbuf	-3999
Normal	-4000
Serial	-4001
_3957	-4002
extend	-4003
Instanti	-4004
hypercall	-4005
Instantiator	-4006
rnd	-4007
CopyMem	-4008
dbgPrint	-4009
mmem	-4010
prob	-4011
stdscr	-4012
ELb	-4013
intern	-4014
Services	-4015
EET	-4016
inf	-4017
tpv	-4018
cxmac	-4019
rcu	-4020
insn	-4021
Sto	-4022
ross	-4023
dnow	-4024
ther	-4025
StatusExit	-4026
AcpiUtStatusExit	-4027
hemer	-4028
liers	-4029
apter	-4030
locaddr	-4031
UTR	-4032
Results	-4033
dt	-4034
ephemer	-4035
transform	-4036
datapacket	-4037
0_12	-4038
oint	-4039
player	-4040
NullPtr	-4041
strhash	-4042
NullPtrError	-4043
Rep	-4044
fied	-4045
congested	-4046
vectorIPN	-4047
vmcb	-4048
distance	-4049
19_	-4050
_229	-4051
height	-4052
Callback	-4053
72	-4054
73	-4055
_21	-4056
tcset	-4057
triple	-4058
ephemeral	-4059
leg	-4060
proxy	-4061
dip	-4062
acity	-4063
BA	-4064
pindex	-4065
iteratorIT	-4066
TestReporter	-4067
Pass	-4068
Produ	-4069
valptr	-4070
RangeEnc	-4071
FS	-4072
msgctl	-4073
bject	-4074
tap	-4075
octet	-4076
dia	-4077
Date	-4078
huge	-4079
crunch	-4080
typeinfo	-4081
Ne	-4082
Tab	-4083
norm	-4084
redzone	-4085
sappdata	-4086
getaddrinfo	-4087
IDE	-4088
enum	-4089
totals	-4090
netfile	-4091
IdentityIS	-4092
ehdr	-4093
algos	-4094
Define	-4095
deallocateEPS	-4096
PA	-4097
Rio	-4098
ewf	-4099
Reverse	-4100
encoder	-4101
injector	-4102
fdt	-4103
after	-4104
getcwd	-4105
ability	-4106
gzwrite	-4107
describe	-4108
Initialize	-4109
getCurrentTime	-4110
RR	-4111
fb	-4112
OBJ	-4113
hc	-4114
FAD	-4115
too	-4116
PPMd	-4117
custom	-4118
Tokenizer	-4119
AssertHelper	-4120
95	-4121
this	-4122
Reader	-4123
Recursive	-4124
verage	-4125
formation	-4126
ha	-4127
Min	-4128
sid	-4129
usb	-4130
endl	-4131
outliers	-4132
AcpiOsPrintf	-4133
freeaddrinfo	-4134
Cut	-4135
yle	-4136
mf	-4137
mn	-4138
pose	-4139
tids	-4140
AsVal	-4141
closure	-4142
well	-4143
62	-4144
silent	-4145
optC	-4146
optW	-4147
zconfdebug	-4148
bdrv	-4149
atype	-4150
online	-4151
eters	-4152
unmarshal	-4153
_138	-4154
atol	-4155
xmlrpc	-4156
sibling	-4157
GetToken	-4158
settings	-4159
expression	-4160
nw	-4161
descriptors	-4162
Ver	-4163
writen	-4164
Vers	-4165
ilog	-4166
RedOs	-4167
pas	-4168
FADT	-4169
Gtpv	-4170
simp	-4171
AA	-4172
stbir	-4173
Acceptor	-4174
TRAP	-4175
dc	-4176
apr	-4177
evthread	-4178
bt	-4179
QCC	-4180
bst	-4181
sis	-4182
cpMessage	-4183
Inv	-4184
Scan	-4185
Clock	-4186
types	-4187
dalloc	-4188
Dna	-4189
libc	-4190
math	-4191
Area	-4192
icro	-4193
account	-4194
HawkFile	-4195
IC	-4196
Pair	-4197
model	-4198
arer	-4199
genu	-4200
plit	-4201
genuine	-4202
pn	-4203
Flu	-4204
Profile	-4205
poly	-4206
Black	-4207
_17__	-4208
Digit	-4209
Disasm	-4210
Install	-4211
circular	-4212
listener	-4213
metadata	-4214
EPKcS	-4215
Over	-4216
Version	-4217
note	-4218
fwcache	-4219
timestamps	-4220
910	-4221
pixel	-4222
Printer	-4223
xe	-4224
PtrEntry	-4225
FP	-4226
aas	-4227
uade	-4228
yale	-4229
Split	-4230
Ej	-4231
mov	-4232
clar	-4233
ixml	-4234
Multi	-4235
eprintf	-4236
RB	-4237
qh	-4238
sta	-4239
extent	-4240
TestFactory	-4241
mv	-4242
irqsave	-4243
BZ	-4244
DH	-4245
bdd	-4246
Collect	-4247
71	-4248
MB	-4249
Mon	-4250
awn	-4251
fns	-4252
erride	-4253
ration	-4254
ToG	-4255
iant	-4256
Flush	-4257
eness	-4258
erasesize	-4259
clr	-4260
ting	-4261
view	-4262
orian	-4263
scale	-4264
scription	-4265
HawkFileAcceptor	-4266
gmpz	-4267
gResp	-4268
gRespStr	-4269
vc	-4270
mth	-4271
EEEv	-4272
Mark	-4273
role	-4274
ftime	-4275
httpd	-4276
pairIKiP	-4277
dst	-4278
2000	-4279
unted	-4280
gnttab	-4281
linear	-4282
dyn	-4283
fsm	-4284
xTE	-4285
mtherr	-4286
button	-4287
midl	-4288
resolver	-4289
hk	-4290
Tail	-4291
pick	-4292
reactor	-4293
zcon	-4294
iltin	-4295
Option	-4296
zconfre	-4297
FileTask	-4298
UN	-4299
bios	-4300
emon	-4301
gregorian	-4302
grid	-4303
light	-4304
zhash	-4305
MeshFile	-4306
statement	-4307
tcsetattr	-4308
MeshFileLoader	-4309
Fv	-4310
Non	-4311
mdt	-4312
Chunk	-4313
Service	-4314
verb	-4315
macro	-4316
longname	-4317
colu	-4318
atial	-4319
invalid	-4320
drhd	-4321
heard	-4322
paging	-4323
FrameRead	-4324
utf	-4325
vail	-4326
dlsym	-4327
timespec	-4328
deEv	-4329
Globals	-4330
setfield	-4331
ABC	-4332
mob	-4333
here	-4334
popen	-4335
recur	-4336
ompi	-4337
freep	-4338
_607410	-4339
transfer	-4340
cbc	-4341
gTemp	-4342
shmdt	-4343
builtin	-4344
mime	-4345
duplicate	-4346
_128_	-4347
aio	-4348
liv	-4349
poke	-4350
master	-4351
liveness	-4352
509	-4353
MIN	-4354
iau	-4355
oke	-4356
HawkLogger	-4357
mnt	-4358
clip	-4359
activate	-4360
xt	-4361
asy	-4362
dif	-4363
Dictionary	-4364
lab	-4365
Units	-4366
optional	-4367
2<	-4368
tags	-4369
cv	-4370
cer	-4371
fit	-4372
xmem	-4373
AcpiDs	-4374
memchr	-4375
Matches	-4376
traitsIcESaIcEEE	-4377
Wh	-4378
6803	-4379
ffix	-4380
Vertex	-4381
bitmask	-4382
perm	-4383
ALU	-4384
thr	-4385
Scope	-4386
rawset	-4387
Binding	-4388
deflateParams	-4389
AbstractObserver	-4390
ML	-4391
Spatial	-4392
ProgramFail	-4393
_612	-4394
histo	-4395
Digest	-4396
Container	-4397
announcements	-4398
_2299	-4399
Security	-4400
conversion	-4401
recvnetfile	-4402
lsmash	-4403
Package	-4404
Transform	-4405
position	-4406
Rout	-4407
adjtime	-4408
234	-4409
Bdd	-4410
_54	-4411
_404	-4412
combine	-4413
mango	-4414
Property	-4415
overloaded	-4416
download	-4417
tcc	-4418
bcast	-4419
US	-4420
_199	-4421
newdata	-4422
zconfrestart	-4423
NB	-4424
Com	-4425
RSA	-4426
ield	-4427
logfp	-4428
msgsnd	-4429
EEv	-4430
Diag	-4431
plug	-4432
Binary	-4433
pclose	-4434
writer	-4435
une	-4436
Octet	-4437
cross	-4438
uninit	-4439
Instance	-4440
ScopedLock	-4441
_413	-4442
addch	-4443
ifnum	-4444
dss	-4445
Cost	-4446
aster	-4447
rxbuf	-4448
detailed	-4449
Supported	-4450
Production	-4451
yydestruct	-4452
mag	-4453
gain	-4454
daemon	-4455
LS	-4456
AAS	-4457
PEM	-4458
Tcp	-4459
Variant	-4460
81	-4461
Cause	-4462
Store	-4463
xTEDS	-4464
ESaISt	-4465
FramePPLB	-4466
nom	-4467
0000	-4468
apei	-4469
links	-4470
Failed	-4471
alance	-4472
gzread	-4473
alWrite	-4474
authent	-4475
Hc	-4476
86_	-4477
RND	-4478
adjtimex	-4479
luaG	-4480
factor	-4481
bclient	-4482
api	-4483
vtd	-4484
quick	-4485
AssertFail	-4486
RedOsAssertFail	-4487
_00	-4488
iee	-4489
ieee	-4490
ness	-4491
FCore	-4492
AcpiEx	-4493
adr	-4494
lan	-4495
_228	-4496
Bound	-4497
member	-4498
HawkGateway	-4499
js	-4500
32_0	-4501
utils	-4502
Execute	-4503
mma	-4504
late	-4505
Transl	-4506
TreeNode	-4507
deflateReset	-4508
pio	-4509
Menu	-4510
ridge	-4511
SpatialIndex	-4512
Lb	-4513
Stop	-4514
span	-4515
stic	-4516
public	-4517
xdg	-4518
speed	-4519
autost	-4520
wrlock	-4521
MemoryLe	-4522
GetString	-4523
webclient	-4524
Br	-4525
exe	-4526
kcmp	-4527
luaC	-4528
_3958	-4529
decompress	-4530
AppendResult	-4531
23_	-4532
dpi	-4533
shash	-4534
yield	-4535
Lay	-4536
dao	-4537
Each	-4538
ivrs	-4539
nostic	-4540
_513	-4541
ptime	-4542
PKv	-4543
nomial	-4544
hv	-4545
Def	-4546
pkg	-4547
dpif	-4548
endtoken	-4549
nextfile	-4550
recursive	-4551
registrar	-4552
zconfdump	-4553
zconfpush	-4554
zconfparse	-4555
checknumber	-4556
tsl	-4557
uch	-4558
execve	-4559
SA	-4560
mail	-4561
wrmsrl	-4562
unloader	-4563
returnErrorPtr	-4564
DI	-4565
typ	-4566
luaB	-4567
priv	-4568
unsafe	-4569
contact	-4570
freeList	-4571
Construct	-4572
buff	-4573
autostart	-4574
pole	-4575
Arbit	-4576
marker	-4577
wiringPiI	-4578
77	-4579
Sem	-4580
14__	-4581
Cleanup	-4582
MessagelsIA	-4583
NCU	-4584
uld	-4585
RSES	-4586
_5_0	-4587
91023	-4588
NCURSES	-4589
_5_0_199	-4590
Diagnostic	-4591
_5_0_19991023	-4592
NN	-4593
Tb	-4594
_2158	-4595
average	-4596
138	-4597
259	-4598
Recv	-4599
exter	-4600
unload	-4601
Bt	-4602
IK	-4603
oki	-4604
kexec	-4605
ungetc	-4606
activation	-4607
ship	-4608
editor	-4609
vlapic	-4610
ubi	-4611
16::	-4612
BD	-4613
cost	-4614
async	-4615
RunImpl	-4616
Top	-4617
_609	-4618
pruss	-4619
atable	-4620
pairIKNSt	-4621
nhm	-4622
rth	-4623
Avail	-4624
jrb	-4625
arent	-4626
aasworld	-4627
RecursiveDeref	-4628
dag	-4629
special	-4630
gai	-4631
rif	-4632
_201	-4633
delim	-4634
simul	-4635
expiration	-4636
Ed	-4637
itt	-4638
intx	-4639
StrLen	-4640
NetServer	-4641
backtrace	-4642
checklstring	-4643
side	-4644
filled	-4645
copystr	-4646
pushlstring	-4647
xsd	-4648
Cdma	-4649
Eval	-4650
coll	-4651
mapbits	-4652
cpSpatialIndex	-4653
pree	-4654
AcpiTb	-4655
Replace	-4656
trylock	-4657
Smm	-4658
_41	-4659
alt	-4660
rmh	-4661
rank	-4662
native	-4663
iteratorIS	-4664
rta	-4665
sat	-4666
chrif	-4667
speex	-4668
strftime	-4669
xht	-4670
FreePool	-4671
LE	-4672
Enter	-4673
addset	-4674
Maximum	-4675
Pipe	-4676
itive	-4677
external	-4678
Sm	-4679
huff	-4680
*>::_	-4681
orith	-4682
TestRun	-4683
RedBlack	-4684
CheckEqual	-4685
66	-4686
blob	-4687
parms	-4688
saved	-4689
msi	-4690
Oper	-4691
condition	-4692
syncsearch	-4693
webserver	-4694
TINFO	-4695
rection	-4696
Crit	-4697
ging	-4698
prime	-4699
Critical	-4700
bufferevent	-4701
Env	-4702
ear	-4703
gsm	-4704
eapol	-4705
Octets	-4706
procmask	-4707
51	-4708
Tri	-4709
metatable	-4710
LOCK	-4711
cptr	-4712
sink	-4713
bearer	-4714
identity	-4715
91	-4716
_57	-4717
Tvba	-4718
maccalc	-4719
HawkOctets	-4720
MM	-4721
hp	-4722
Dup	-4723
_80	-4724
pty	-4725
LM	-4726
13__	-4727
_145	-4728
ogle	-4729
radix	-4730
xor	-4731
arptime	-4732
override	-4733
Dev	-4734
gsl	-4735
sdp	-4736
Cmp	-4737
serv	-4738
rodata	-4739
preempt	-4740
mu	-4741
ION	-4742
ORE	-4743
vvmcs	-4744
hdrsize	-4745
IiSaIiEE	-4746
rk	-4747
Tag	-4748
_16_0	-4749
except	-4750
intremap	-4751
edit	-4752
FastMutex	-4753
Ps	-4754
Rule	-4755
lladdr	-4756
ressed	-4757
Psyntax	-4758
symfile	-4759
Position	-4760
xf	-4761
Keep	-4762
linked	-4763
outflags	-4764
Res	-4765
paths	-4766
hdrlen	-4767
sigaddset	-4768
assignment	-4769
rv	-4770
StreamTo	-4771
GTestStreamTo	-4772
IPK	-4773
_256	-4774
html	-4775
smbc	-4776
MdePkg	-4777
adapter	-4778
queuelen	-4779
_47	-4780
cfree	-4781
FileName	-4782
reparent	-4783
Onl	-4784
npc	-4785
Only	-4786
vlog	-4787
dopen	-4788
gamma	-4789
linux	-4790
probing	-4791
quiet	-4792
protocol	-4793
XML	-4794
_53	-4795
ERNS	-4796
rdlock	-4797
Interrup	-4798
unlisten	-4799
IhEE	-4800
ould	-4801
_6020	-4802
emulate	-4803
TestRunner	-4804
getfield	-4805
relocate	-4806
92	-4807
BSS	-4808
recurse	-4809
Cry	-4810
TEX	-4811
Ph	-4812
Big	-4813
loy	-4814
Part	-4815
sigprocmask	-4816
Plu	-4817
Round	-4818
mploy	-4819
keyword	-4820
FillFlags	-4821
inflateSync	-4822
printw	-4823
xzalloc	-4824
StreamBuf	-4825
hci	-4826
maps	-4827
csr	-4828
_000	-4829
_134	-4830
typename	-4831
shortShiftLeft	-4832
mur	-4833
spn	-4834
cpower	-4835
pairIKj	-4836
disconnect	-4837
cpowercycle	-4838
gstr	-4839
via	-4840
_622	-4841
ject	-4842
intercept	-4843
NU	-4844
mce	-4845
each	-4846
pushnil	-4847
children	-4848
TiXmlNode	-4849
attribute	-4850
Polynomial	-4851
Dxe	-4852
Getopt	-4853
BAS	-4854
Show	-4855
qsend	-4856
bwt	-4857
hrt	-4858
luaH	-4859
Layer	-4860
rshift	-4861
consist	-4862
prussdrv	-4863
Csr	-4864
_414	-4865
Master	-4866
Arbiter	-4867
traverse	-4868
MOD	-4869
PKCS	-4870
lexer	-4871
counted	-4872
storage	-4873
ZE	-4874
lon	-4875
tagE	-4876
synch	-4877
Manage	-4878
charset	-4879
evbuffer	-4880
Dep	-4881
guard	-4882
gw	-4883
Pattern	-4884
cgiForm	-4885
rollback	-4886
MU	-4887
RG	-4888
Pix	-4889
_63	-4890
Nodes	-4891
nodeISt	-4892
Response	-4893
UnityPrint	-4894
63	-4895
SC	-4896
RedI	-4897
derive	-4898
Success	-4899
balance	-4900
features	-4901
<_	-4902
jb	-4903
les	-4904
0_39	-4905
kputs	-4906
tnode	-4907
Factor	-4908
setenv	-4909
chedule	-4910
compressed	-4911
Iup	-4912
Dist	-4913
_617	-4914
cloud	-4915
exclude	-4916
initbatch	-4917
cg	-4918
ala	-4919
ran	-4920
magic	-4921
sources	-4922
zmalloc	-4923
tcgetattr	-4924
tolstring	-4925
MemoryLeak	-4926
igned	-4927
getNext	-4928
ination	-4929
tasklet	-4930
character	-4931
Fo	-4932
tmr	-4933
ulse	-4934
MemoryRead	-4935
Eii	-4936
ication	-4937
Mer	-4938
ious	-4939
cpuid	-4940
Assign	-4941
cstate	-4942
pixGet	-4943
pretty	-4944
elements	-4945
FI	-4946
hn	-4947
Lua	-4948
Calc	-4949
evict	-4950
ComponentName	-4951
PI	-4952
amb	-4953
iff	-4954
barf	-4955
GO	-4956
oa	-4957
UTP	-4958
onv	-4959
stmt	-4960
Posix	-4961
onvif	-4962
Crypto	-4963
ToGpio	-4964
dealloc	-4965
CsrCrypto	-4966
Std	-4967
cstr	-4968
ents	-4969
lseqi	-4970
NameIs	-4971
GetCurrent	-4972
take	-4973
syserr	-4974
UtilGetopt	-4975
_48	-4976
oll	-4977
Spec	-4978
meas	-4979
pcre	-4980
_3723	-4981
vhost	-4982
Regular	-4983
strlcat	-4984
virtual	-4985
proactive	-4986
ifier	-4987
Employ	-4988
RedCore	-4989
linkage	-4990
DR	-4991
Sys	-4992
20__	-4993
apsed	-4994
resume	-4995
Streaming	-4996
SetDictionary	-4997
DY	-4998
Raw	-4999
Down	-5000
atan	-5001
cret	-5002
erst	-5003
energy	-5004
resampler	-5005
.0	-5006
Fat	-5007
den	-5008
mpro	-5009
NtkIs	-5010
02	-5011
anet	-5012
defrt	-5013
cpArray	-5014
mkyaffs	-5015
Semaphore	-5016
dsn	-5017
▁*)	-5018
MUTEX	-5019
EEEENS	-5020
gztell	-5021
putnbr	-5022
xfgets	-5023
upstream	-5024
outbuffer	-5025
semble	-5026
ReturnValue	-5027
StringEqual	-5028
_166	-5029
UnsignedInteger	-5030
dbe	-5031
tlb	-5032
tmem	-5033
EPKSt	-5034
Acquire	-5035
fragments	-5036
packetbufptr	-5037
TestPropertyKey	-5038
nv	-5039
cpBB	-5040
STORE	-5041
termp	-5042
Literal	-5043
settime	-5044
Information	-5045
DriverBinding	-5046
CI	-5047
Cat	-5048
bdf	-5049
fname	-5050
Options	-5051
consume	-5052
_3827	-5053
leave	-5054
recovi	-5055
recovj	-5056
gzerror	-5057
Translator	-5058
Swap	-5059
okie	-5060
EEEEE	-5061
_8800	-5062
ffect	-5063
_621240	-5064
percpu	-5065
printable	-5066
_270	-5067
plat	-5068
xsdt	-5069
Access	-5070
baseEv	-5071
windowstart	-5072
CCH	-5073
bee	-5074
olve	-5075
AcpiDbg	-5076
42	-5077
Uri	-5078
sal	-5079
_380	-5080
eline	-5081
import	-5082
logger	-5083
install	-5084
blocking	-5085
txn	-5086
Symbol	-5087
cpupool	-5088
whitespace	-5089
dig	-5090
tsc	-5091
PMPI	-5092
alle	-5093
until	-5094
EEEESt	-5095
traitsIh	-5096
TestShell	-5097
Cir	-5098
Conn	-5099
Delay	-5100
_4480	-5101
edList	-5102
capacity	-5103
Win	-5104
Order	-5105
vmult	-5106
compar	-5107
invert	-5108
noexcept	-5109
preferred	-5110
blake	-5111
Prefix	-5112
elapsed	-5113
TestCaseNameIs	-5114
isat	-5115
consistency	-5116
wb	-5117
GER	-5118
gST	-5119
abuf	-5120
_2652	-5121
Recording	-5122
Indication	-5123
97	-5124
rtp	-5125
wget	-5126
creat	-5127
netif	-5128
solve	-5129
mntent	-5130
pwrite	-5131
Constraint	-5132
Pv	-5133
jwt	-5134
Nest	-5135
_104	-5136
lump	-5137
globals	-5138
ingPoint	-5139
parameters	-5140
mg	-5141
Doc	-5142
aid	-5143
bfs	-5144
GOMP	-5145
ities	-5146
htable	-5147
sockets	-5148
xstrdup	-5149
UT	-5150
ifs	-5151
Vdbe	-5152
ible	-5153
seqnos	-5154
netmask	-5155
ipconfig	-5156
ish	-5157
baseES	-5158
expire	-5159
resses	-5160
baseaddr	-5161
atof	-5162
bitopt	-5163
zcfree	-5164
SIZE	-5165
lify	-5166
ling	-5167
coding	-5168
PO	-5169
Proc	-5170
idxml	-5171
mlock	-5172
rapidxml	-5173
Band	-5174
Safe	-5175
erial	-5176
tuple	-5177
cschedule	-5178
PcdMaximum	-5179
Constructor	-5180
FloatingPoint	-5181
gui	-5182
plus	-5183
ccp	-5184
noop	-5185
Comple	-5186
semget	-5187
09	-5188
PKS	-5189
Cdev	-5190
cout	-5191
spawn	-5192
strxf	-5193
processe	-5194
SignalTranslator	-5195
Dete	-5196
Leaf	-5197
Section	-5198
ZeroMem	-5199
duration	-5200
ServicesTable	-5201
Pc	-5202
IhSt	-5203
stick	-5204
longpath	-5205
getrlimit	-5206
traitsIhESa	-5207
Tests	-5208
_2335	-5209
OnTest	-5210
google	-5211
VarHolder	-5212
appendstr	-5213
transmitting	-5214
Zdd	-5215
ece	-5216
rem	-5217
dhcp	-5218
_2628	-5219
opcode	-5220
Datatype	-5221
iioutils	-5222
Job	-5223
▁**	-5224
guid	-5225
sbox	-5226
ycle	-5227
EPT	-5228
Sequ	-5229
luaV	-5230
DevPath	-5231
gzoffset	-5232
AcpiError	-5233
checkReturnValue	-5234
SU	-5235
mbed	-5236
depng	-5237
envir	-5238
AcpiPs	-5239
lodepng	-5240
MutexLock	-5241
allocated	-5242
AG	-5243
VLM	-5244
luaF	-5245
addresses	-5246
lt	-5247
bbnode	-5248
compile	-5249
chg	-5250
vga	-5251
complet	-5252
istream	-5253
container	-5254
cpArbiter	-5255
Use	-5256
Atom	-5257
_621	-5258
deli	-5259
cpvdot	-5260
ulation	-5261
vectorINSt	-5262
ppr	-5263
Vars	-5264
sniff	-5265
Nested	-5266
Structure	-5267
bcastconn	-5268
AV	-5269
Att	-5270
Same	-5271
ambda	-5272
itimer	-5273
getNode	-5274
allocateEmPKv	-5275
EENSt	-5276
IRExpr	-5277
before	-5278
ENB	-5279
Hop	-5280
incre	-5281
inner	-5282
mbedtls	-5283
Compress	-5284
61	-5285
Mod	-5286
retry	-5287
Cursor	-5288
dprintf	-5289
Employee	-5290
traitsIS	-5291
TM	-5292
Cor	-5293
lcp	-5294
assu	-5295
nanos	-5296
assuan	-5297
mountpoints	-5298
298	-5299
Extension	-5300
Rel	-5301
descr	-5302
paralle	-5303
setrlimit	-5304
COR	-5305
gli	-5306
ceil	-5307
Managed	-5308
PrivateKey	-5309
day	-5310
tar	-5311
xit	-5312
Expect	-5313
etable	-5314
setbuf	-5315
strtod	-5316
Pending	-5317
vmwrite	-5318
ExpToken	-5319
Collection	-5320
▁*>>	-5321
Instr	-5322
RedVolume	-5323
RangeException	-5324
ae	-5325
lh	-5326
Plat	-5327
_402	-5328
EEESt	-5329
Strip	-5330
hists	-5331
month	-5332
owner	-5333
siblings	-5334
rgb	-5335
junk	-5336
angle	-5337
clamp	-5338
Normalize	-5339
secondary	-5340
serialize	-5341
TestFactoryImpl	-5342
46	-5343
ens	-5344
Turn	-5345
associ	-5346
coming	-5347
secret	-5348
OutStream	-5349
acy	-5350
vme	-5351
chid	-5352
clai	-5353
etime	-5354
0_3956	-5355
msgget	-5356
parate	-5357
Character	-5358
RunImplEv	-5359
NewPointer	-5360
NewPointerObj	-5361
100	-5362
Miter	-5363
PyString	-5364
maj	-5365
arse	-5366
customized	-5367
JP	-5368
gm	-5369
Bar	-5370
gfx	-5371
Begin	-5372
cpfmin	-5373
93	-5374
Rece	-5375
modAdd	-5376
Pthread	-5377
ZNSaISt	-5378
tificate	-5379
nanosleep	-5380
ang	-5381
getp	-5382
uffle	-5383
xenbus	-5384
parallel	-5385
pushinteger	-5386
iop	-5387
Post	-5388
chidb	-5389
BodyEv	-5390
CurTok	-5391
decomp	-5392
treeIN	-5393
sizetoll	-5394
fftw	-5395
eight	-5396
Enable	-5397
Tables	-5398
appcall	-5399
checktype	-5400
Bus	-5401
DBG	-5402
libr	-5403
_3755	-5404
wmove	-5405
TestFixture	-5406
pyx	-5407
RAND	-5408
_211	-5409
cpvmult	-5410
connected	-5411
MI	-5412
hl	-5413
789	-5414
Frai	-5415
lish	-5416
shdr	-5417
Fraig	-5418
ahead	-5419
rmdir	-5420
ToText	-5421
palloc	-5422
Available	-5423
Micro	-5424
states	-5425
difference	-5426
Mm	-5427
BFS	-5428
FAT	-5429
QDump	-5430
ittle	-5431
depend	-5432
lambda	-5433
scalar	-5434
QDumper	-5435
Draw	-5436
audio	-5437
Optind	-5438
csched	-5439
digest	-5440
simulate	-5441
.1	-5442
DL	-5443
crnl	-5444
devs	-5445
scat	-5446
engin	-5447
adddep	-5448
should	-5449
powertrace	-5450
MemoryOutStream	-5451
hi	-5452
Loc	-5453
RAB	-5454
ULE	-5455
_35	-5456
nam	-5457
rlc	-5458
itoa	-5459
netifs	-5460
gid	-5461
got	-5462
Grow	-5463
groups	-5464
gzgetc	-5465
stable	-5466
Document	-5467
Sequence	-5468
processor	-5469
xj	-5470
_1730	-5471
PathArgument	-5472
BW	-5473
strtab	-5474
DynArray	-5475
argerror	-5476
iteratorISt	-5477
adt	-5478
iovar	-5479
press	-5480
submit	-5481
evicted	-5482
Platform	-5483
certificate	-5484
AE	-5485
Ap	-5486
EENS	-5487
Modi	-5488
eded	-5489
want	-5490
pfring	-5491
stringIhSt	-5492
TX	-5493
_222	-5494
UnicodeString	-5495
eol	-5496
_418	-5497
mapped	-5498
polevl	-5499
deliver	-5500
indexed	-5501
recvnetfilept	-5502
ni	-5503
Dest	-5504
Tick	-5505
prim	-5506
sage	-5507
ToStr	-5508
execvp	-5509
delayed	-5510
srv	-5511
enar	-5512
susp	-5513
MODULE	-5514
mtr	-5515
ATTR	-5516
msgrcv	-5517
Timeout	-5518
codeABC	-5519
setsize	-5520
execveat	-5521
_33	-5522
ERKT	-5523
Term	-5524
quote	-5525
Change	-5526
indexer	-5527
Detector	-5528
Eventable	-5529
True	-5530
easy	-5531
medi	-5532
zeroes	-5533
NestedDiagnostic	-5534
bk	-5535
THIS	-5536
Activ	-5537
Niter	-5538
FIL	-5539
_31	-5540
_60740	-5541
reasons	-5542
eth	-5543
Cond	-5544
_162	-5545
Ident	-5546
bucket	-5547
isZero	-5548
memalign	-5549
readlineb	-5550
kv	-5551
_65	-5552
Scri	-5553
_100	-5554
ESaISB	-5555
LOG	-5556
Req	-5557
ten	-5558
vss	-5559
_412	-5560
stand	-5561
touch	-5562
Expand	-5563
aly	-5564
Leave	-5565
khmer	-5566
score	-5567
20_	-5568
snum	-5569
optopt	-5570
simplify	-5571
TestFilter	-5572
digitalWrite	-5573
ics	-5574
xint	-5575
14_	-5576
Div	-5577
_45	-5578
_2459	-5579
exfat	-5580
AsChar	-5581
freeze	-5582
tokens	-5583
changes	-5584
returnErrorInt	-5585
Sl	-5586
Ogre	-5587
rows	-5588
EEENS	-5589
Files	-5590
finib	-5591
orted	-5592
comment	-5593
oneline	-5594
estimates	-5595
normalize	-5596
lg	-5597
RGB	-5598
same	-5599
mmcfg	-5600
relax	-5601
nwGtpv	-5602
dlerror	-5603
clockstring	-5604
Row	-5605
Ste	-5606
mns	-5607
ple	-5608
ppEv	-5609
stre	-5610
ailing	-5611
addReply	-5612
prt	-5613
finibatch	-5614
internalL	-5615
HO	-5616
_180	-5617
matd	-5618
ented	-5619
Listen	-5620
buffers	-5621
routing	-5622
Rc	-5623
ential	-5624
receiv	-5625
GenClass	-5626
Transport	-5627
▁*>>>::__	-5628
GenClassData	-5629
fter	-5630
itle	-5631
COgre	-5632
>>>::~	-5633
Plugin	-5634
Contains	-5635
DateTime	-5636
incoming	-5637
FromString	-5638
ThreadLocal	-5639
OT	-5640
VEX	-5641
0_16	-5642
waddch	-5643
stringEqual	-5644
AllocateZero	-5645
sep	-5646
pirq	-5647
Exist	-5648
_5261	-5649
LibVEX	-5650
username	-5651
pixDestroy	-5652
testBodyEv	-5653
jun	-5654
_5262	-5655
tunala	-5656
EEEdeEv	-5657
ToBytes	-5658
subject	-5659
Criticality	-5660
rdr	-5661
uler	-5662
plain	-5663
trust	-5664
Tx	-5665
FLAG	-5666
UTRAN	-5667
BFSInfo	-5668
iteratorIPN	-5669
allocatorISt	-5670
01	-5671
CL	-5672
clb	-5673
med	-5674
ofs	-5675
Unix	-5676
ender	-5677
synthe	-5678
connector	-5679
iteratorIPPN	-5680
hap	-5681
nid	-5682
_405	-5683
docu	-5684
origin	-5685
urface	-5686
document	-5687
receiving	-5688
heapadjust	-5689
ResultPrinter	-5690
RE	-5691
Vis	-5692
gcr	-5693
Sign	-5694
bias	-5695
Track	-5696
tasks	-5697
GenVar	-5698
Script	-5699
traces	-5700
ListAdd	-5701
GenVarData	-5702
HawkPackage	-5703
ry	-5704
Bridge	-5705
cpvadd	-5706
sector	-5707
environ	-5708
lookahead	-5709
errhandler	-5710
300	-5711
Bool	-5712
PASS	-5713
kftp	-5714
prot	-5715
ision	-5716
pread	-5717
Folder	-5718
Resize	-5719
deadlock	-5720
dispatch	-5721
Tmp	-5722
cyg	-5723
BinInfo	-5724
AcpiUtGet	-5725
69	-5726
bf	-5727
POL	-5728
vecs	-5729
After	-5730
analy	-5731
setfd	-5732
style	-5733
cctrue	-5734
cgiOut	-5735
uiplib	-5736
utable	-5737
gTempBuf	-5738
pushresult	-5739
PRI	-5740
_416	-5741
blas	-5742
tess	-5743
enario	-5744
getuid	-5745
incomplete	-5746
Seq	-5747
INTE	-5748
_415	-5749
cmos	-5750
mtrr	-5751
uuid	-5752
coord	-5753
bprint	-5754
cpfmax	-5755
library	-5756
PointerTo	-5757
globalUtil	-5758
initworker	-5759
XY	-5760
aS	-5761
gt	-5762
ROC	-5763
NodeIs	-5764
scenario	-5765
Depth	-5766
THREA	-5767
putendl	-5768
Unal	-5769
cbfs	-5770
getE	-5771
rtattr	-5772
Capture	-5773
fillset	-5774
assemble	-5775
URIStream	-5776
zlibVersion	-5777
globalUtilOptind	-5778
Prev	-5779
Pages	-5780
ticks	-5781
Receive	-5782
drawCard	-5783
▁[2	-5784
AutoPtrINS	-5785
isuserdata	-5786
localalias	-5787
JPEG	-5788
_16_1	-5789
lstat	-5790
strict	-5791
suffix	-5792
GenSpace	-5793
sizetoint	-5794
MacroDefine	-5795
GenSpaceData	-5796
fxp	-5797
_608	-5798
fake	-5799
kind	-5800
Probs	-5801
ofpbuf	-5802
vmexit	-5803
Unaligned	-5804
Rad	-5805
Sop	-5806
cdb	-5807
ENSt	-5808
chld	-5809
lyph	-5810
bRKNS	-5811
RootTable	-5812
invalidate	-5813
ENT	-5814
Pin	-5815
ada	-5816
rng	-5817
ruc	-5818
Unload	-5819
sockaddr	-5820
classhash	-5821
Ci	-5822
hna	-5823
tool	-5824
fevent	-5825
DVertex	-5826
Indicator	-5827
Rx	-5828
SLP	-5829
union	-5830
Extract	-5831
EntryPoint	-5832
.2	-5833
most	-5834
rules	-5835
_14548	-5836
lessIj	-5837
parents	-5838
Material	-5839
advanceStream	-5840
31_	-5841
Sec	-5842
bwa	-5843
rwl	-5844
Done	-5845
uate	-5846
grant	-5847
gtest	-5848
cookie	-5849
HashSet	-5850
Game	-5851
nsec	-5852
FLAGS	-5853
Limits	-5854
checks	-5855
HashTable	-5856
Emm	-5857
Full	-5858
engine	-5859
zconfprint	-5860
BO	-5861
0_0	-5862
Face	-5863
Font	-5864
runq	-5865
Cycle	-5866
Vocab	-5867
Width	-5868
fsync	-5869
shake	-5870
column	-5871
HawkOctetsStream	-5872
BT	-5873
El	-5874
lap	-5875
pte	-5876
sof	-5877
Limit	-5878
fdopen	-5879
yyrline	-5880
ipchksum	-5881
unicastconn	-5882
Bn	-5883
dn	-5884
gh	-5885
BASM	-5886
ucimap	-5887
Invalid	-5888
strsource	-5889
▁<	-5890
eNB	-5891
pub	-5892
intr	-5893
Model	-5894
swers	-5895
sendcmd	-5896
errprintf	-5897
SelectStream	-5898
Sd	-5899
dfs	-5900
Host	-5901
towc	-5902
sparse	-5903
sparent	-5904
Finalize	-5905
logWrite	-5906
cpHashSet	-5907
xx	-5908
MPU	-5909
itu	-5910
6050	-5911
Mach	-5912
_216	-5913
Btree	-5914
linfo	-5915
Transparent	-5916
0_4	-5917
Low	-5918
tim	-5919
Machine	-5920
mmemlist	-5921
nodeEPSt	-5922
ObjFanout	-5923
subbuffer	-5924
svg	-5925
0_10	-5926
ended	-5927
suite	-5928
MSB	-5929
_3_	-5930
pdn	-5931
wild	-5932
LINEA	-5933
codes	-5934
vision	-5935
Microseconds	-5936
GR	-5937
SQ	-5938
mr	-5939
400	-5940
ats	-5941
XIDE	-5942
loss	-5943
orter	-5944
stdio	-5945
Operand	-5946
NoMemory	-5947
timediff	-5948
ReleasePolicyIS	-5949
_90	-5950
MAXNU	-5951
curbuf	-5952
getname	-5953
Unstable	-5954
Validate	-5955
AcpiUtTrace	-5956
ServicesTableLib	-5957
hpet	-5958
mapp	-5959
unds	-5960
webs	-5961
agate	-5962
blank	-5963
produ	-5964
▁*>>>	-5965
Static	-5966
platform	-5967
URIStreamFactory	-5968
UP	-5969
Hist	-5970
Pred	-5971
RREG	-5972
Swig	-5973
once	-5974
literal	-5975
myDigit	-5976
nanswers	-5977
LINEARREG	-5978
SharedPtrINS	-5979
zs	-5980
BST	-5981
RNS	-5982
::~_	-5983
knet	-5984
alert	-5985
digits	-5986
bytesTo	-5987
listenfd	-5988
vtmp	-5989
RcTree	-5990
sorted	-5991
spectr	-5992
bytesToNative	-5993
nativeToBytes	-5994
uth	-5995
luaS	-5996
_2284	-5997
eract	-5998
foreach	-5999
filesize	-6000
ixmlNode	-6001
tesseract	-6002
cpuaffinity	-6003
AllocatePool	-6004
_56	-6005
_668	-6006
PUCCH	-6007
Marker	-6008
INTEGER	-6009
iterate	-6010
nonce	-6011
locroute	-6012
RootTableList	-6013
_68	-6014
12]>	-6015
chol	-6016
mage	-6017
>>::~_	-6018
▁[12]>	-6019
allowed	-6020
TIFFError	-6021
who	-6022
areg	-6023
execl	-6024
kimage	-6025
orithm	-6026
capture	-6027
xfwrite	-6028
GetCount	-6029
setfdlimit	-6030
DevPathToText	-6031
rew	-6032
other	-6033
getCost	-6034
tsdsize	-6035
finiworker	-6036
LexGetToken	-6037
CP	-6038
ama	-6039
ior	-6040
tan	-6041
NetUser	-6042
CheckFailed	-6043
8_0	-6044
Ind	-6045
Prop	-6046
Sing	-6047
luaT	-6048
Props	-6049
lopen	-6050
Sample	-6051
sendmsg	-6052
filtered	-6053
handshake	-6054
ome	-6055
actual	-6056
Support	-6057
getsock	-6058
shuffle	-6059
xv	-6060
rrc	-6061
xchg	-6062
yyrhs	-6063
FailureMessage	-6064
XmlTestReporter	-6065
___	-6066
ndx	-6067
Desc	-6068
_417	-6069
_615	-6070
outb	-6071
Cached	-6072
invarg	-6073
PkgFile	-6074
plicant	-6075
ReadByte	-6076
STREAMRead	-6077
supplicant	-6078
zconferror	-6079
allocatorIN	-6080
Buff	-6081
optA	-6082
shdrs	-6083
mtarch	-6084
tsdseg	-6085
strtabs	-6086
symtabs	-6087
encoding	-6088
aN	-6089
Rect	-6090
prhs	-6091
PyInt	-6092
arrier	-6093
icator	-6094
yyprhs	-6095
huffman	-6096
kb	-6097
kf	-6098
dmi	-6099
HTTP	-6100
Scal	-6101
basm	-6102
ines	-6103
▁[2]>	-6104
Ss	-6105
Tk	-6106
UI	-6107
0_38	-6108
_2662	-6109
hello	-6110
train	-6111
Active	-6112
Unlock	-6113
sender	-6114
Iii	-6115
CORD	-6116
EEED	-6117
Seek	-6118
byteinc	-6119
eto	-6120
unl	-6121
_128	-6122
_613	-6123
mpiP	-6124
ating	-6125
tonum	-6126
vectorIP	-6127
49	-6128
UDP	-6129
WAD	-6130
128_	-6131
EEEC	-6132
hods	-6133
IsSub	-6134
ipaddrconv	-6135
cir	-6136
mme	-6137
ategy	-6138
getstr	-6139
proble	-6140
gzdopen	-6141
suspend	-6142
StringES	-6143
prefixcmp	-6144
xFFFFFFFFFFFFD	-6145
bbb	-6146
assoc	-6147
Finish	-6148
THREAD	-6149
dialog	-6150
dlopen	-6151
toi	-6152
_618	-6153
Render	-6154
disjun	-6155
isatty	-6156
kputsn	-6157
MdeModule	-6158
CsrCryptoBn	-6159
HawkObjManager	-6160
lq	-6161
PNS	-6162
Rot	-6163
_58	-6164
sIn	-6165
major	-6166
LinkList	-6167
_420	-6168
unge	-6169
reject	-6170
RedInode	-6171
baseINSt	-6172
destructor	-6173
Esc	-6174
gOut	-6175
Suite	-6176
btree	-6177
implD	-6178
ioreq	-6179
movem	-6180
Direct	-6181
Notify	-6182
mpiPif	-6183
GetPrice	-6184
memalloc	-6185
Statement	-6186
constructEPS	-6187
gon	-6188
anic	-6189
ipcp	-6190
Termin	-6191
terminal	-6192
Gd	-6193
Alg	-6194
DYN	-6195
pwm	-6196
cedu	-6197
apama	-6198
disks	-6199
supply	-6200
getsockname	-6201
Bm	-6202
clk	-6203
apse	-6204
decl	-6205
ente	-6206
Merge	-6207
declar	-6208
Runtime	-6209
actions	-6210
Activate	-6211
buffered	-6212
channels	-6213
propagate	-6214
tt	-6215
MSG	-6216
UTF	-6217
stun	-6218
Declar	-6219
ground	-6220
packed	-6221
mission	-6222
deadline	-6223
segments	-6224
bw	-6225
608	-6226
Shm	-6227
_605	-6228
rase	-6229
ssse	-6230
gzrewind	-6231
DP	-6232
iso	-6233
shndx	-6234
mbtowc	-6235
xcalloc	-6236
HawkGateThread	-6237
PointerToOffset	-6238
.3	-6239
Oc	-6240
csv	-6241
eat	-6242
UTRA	-6243
pprz	-6244
Occur	-6245
inited	-6246
primary	-6247
Du	-6248
aa	-6249
9_2_	-6250
Fork	-6251
fici	-6252
ssid	-6253
Fatal	-6254
cedure	-6255
msgque	-6256
Generator	-6257
HawkTimer	-6258
Installer	-6259
HawkTimerManager	-6260
NO	-6261
hau	-6262
Chain	-6263
EERKS	-6264
filer	-6265
haust	-6266
skill	-6267
Atomic	-6268
xalloc	-6269
Importer	-6270
Outbound	-6271
traitsISa	-6272
HawkThread	-6273
UnstablePeriod	-6274
gxv	-6275
lee	-6276
getElf	-6277
vstring	-6278
messages	-6279
separate	-6280
swapTask	-6281
Gr	-6282
Iw	-6283
PSo	-6284
STA	-6285
mgr	-6286
fence	-6287
pushc	-6288
membarrier	-6289
supplyCount	-6290
pushcclosure	-6291
3]	-6292
WW	-6293
RNC	-6294
ppi	-6295
wfd	-6296
EEPT	-6297
Peim	-6298
SLPP	-6299
curl	-6300
sint	-6301
SLPProperty	-6302
Db	-6303
TG	-6304
_67	-6305
tss	-6306
tial	-6307
56789	-6308
EEESaIS	-6309
derived	-6310
genlmsg	-6311
scheduler	-6312
HTS	-6313
izz	-6314
tde	-6315
Wlan	-6316
clif	-6317
chmod	-6318
Verify	-6319
bignbr	-6320
strjoin	-6321
processes	-6322
selection	-6323
Controller	-6324
EPN	-6325
PHT	-6326
cnv	-6327
sas	-6328
swd	-6329
four	-6330
_2627	-6331
little	-6332
ungeon	-6333
BindInfo	-6334
disjunct	-6335
typeERKS	-6336
FixedFormat	-6337
InstructionData	-6338
flash	-6339
realm	-6340
untag	-6341
Idx	-6342
cand	-6343
retr	-6344
OpCode	-6345
8_4	-6346
fib	-6347
pap	-6348
Hard	-6349
Joint	-6350
_13894	-6351
_13898	-6352
divide	-6353
evhttp	-6354
Expected	-6355
GetMatches	-6356
OutboundPage	-6357
TT	-6358
ia	-6359
soc	-6360
zdd	-6361
Lump	-6362
Usage	-6363
Forward	-6364
HawkZip	-6365
collapse	-6366
redirect	-6367
workgroup	-6368
Inc	-6369
CONF	-6370
aliz	-6371
Latch	-6372
Mysql	-6373
attemp	-6374
FileInfo	-6375
bytecount	-6376
DSA	-6377
EPv	-6378
cut	-6379
tnl	-6380
FIFO	-6381
Pixel	-6382
sfree	-6383
addstr	-6384
▁*>::~	-6385
ZipInfo	-6386
pecific	-6387
DynEntry	-6388
queueINS	-6389
HawkMysql	-6390
authentication	-6391
5__	-6392
gif	-6393
hit	-6394
pir	-6395
Inet	-6396
_250	-6397
diag	-6398
ties	-6399
EPKci	-6400
Recur	-6401
black	-6402
kputc	-6403
BSTree	-6404
67	-6405
Ana	-6406
pmk	-6407
adder	-6408
xleft	-6409
Strash	-6410
Collada	-6411
mine	-6412
plot	-6413
Names	-6414
death	-6415
subst	-6416
tapdev	-6417
linenum	-6418
getstring	-6419
KEY	-6420
WWW	-6421
cid	-6422
fltk	-6423
must	-6424
802_1	-6425
bigint	-6426
routes	-6427
mismatch	-6428
Calculate	-6429
tq	-6430
mea	-6431
Real	-6432
nmea	-6433
resp	-6434
strim	-6435
byaddr	-6436
sdscat	-6437
Comment	-6438
Encrypt	-6439
reserved	-6440
LastError	-6441
TIFFErrorExt	-6442
Fd	-6443
Quo	-6444
fol	-6445
uac	-6446
_300	-6447
band	-6448
leaf	-6449
Abort	-6450
cessed	-6451
really	-6452
Boolean	-6453
spalloc	-6454
Distance	-6455
Strategy	-6456
setitimer	-6457
HawkZipReader	-6458
HA	-6459
rg	-6460
IOS	-6461
NaN	-6462
cpt	-6463
lru	-6464
pat	-6465
fire	-6466
szad	-6467
iotlb	-6468
treeIj	-6469
munlock	-6470
CStringEqual	-6471
CStringEquals	-6472
47	-6473
pq	-6474
acha	-6475
redi	-6476
unset	-6477
chacha	-6478
30_	-6479
Loop	-6480
msrs	-6481
complex	-6482
vh	-6483
xr	-6484
delt	-6485
vpmu	-6486
acked	-6487
MovePos	-6488
isEmpty	-6489
showmsg	-6490
uniform	-6491
Location	-6492
treeIjSt	-6493
Increment	-6494
StackFrame	-6495
lessIjESaIS	-6496
1234	-6497
wire	-6498
_604290	-6499
dungeon	-6500
FromLong	-6501
pagesizes	-6502
06	-6503
dts	-6504
dtls	-6505
newln	-6506
contin	-6507
Contact	-6508
written	-6509
clearerr	-6510
handlers	-6511
rf	-6512
PMur	-6513
msgs	-6514
Sleep	-6515
istor	-6516
dictId	-6517
entropy	-6518
scratch	-6519
PMurHash	-6520
increase	-6521
123456789	-6522
locprefix	-6523
transaction	-6524
DriverUnload	-6525
checkinteger	-6526
TraceInfoESaIS	-6527
SR	-6528
Vi	-6529
tf	-6530
DEX	-6531
aos	-6532
lrs	-6533
Curl	-6534
____	-6535
glue	-6536
Async	-6537
QName	-6538
CollCount	-6539
FR	-6540
0_6	-6541
Dummy	-6542
GVars	-6543
mktime	-6544
tracefs	-6545
Bindable	-6546
NtkCreate	-6547
identifier	-6548
getspecific	-6549
EMA	-6550
Tbl	-6551
scn	-6552
Auth	-6553
goto	-6554
_6061	-6555
IiSaIi	-6556
cliente	-6557
dirname	-6558
finalst	-6559
EEEEbRKNS	-6560
growstack	-6561
Blk	-6562
_602	-6563
hmap	-6564
fdelt	-6565
proper	-6566
maxclass	-6567
tonumber	-6568
completion	-6569
AppendMessage	-6570
rn	-6571
nex	-6572
nxt	-6573
ste	-6574
MShm	-6575
affi	-6576
pkcs	-6577
Named	-6578
_4059	-6579
sigrt	-6580
xenheap	-6581
Transfer	-6582
selected	-6583
Formatted	-6584
UTPSocket	-6585
SY	-6586
lb	-6587
Bmf	-6588
csp	-6589
otal	-6590
sbrk	-6591
Proper	-6592
getint	-6593
verter	-6594
ObjName	-6595
general	-6596
netaddr	-6597
support	-6598
isstring	-6599
gaRedVolume	-6600
Sq	-6601
2_3	-6602
8::	-6603
Mag	-6604
SIN	-6605
pmp	-6606
mmio	-6607
freed	-6608
ablish	-6609
getnbr	-6610
ioapics	-6611
gainCard	-6612
synthesize	-6613
createtable	-6614
Pres	-6615
_650	-6616
coef	-6617
PutSeed	-6618
dropped	-6619
fnmatch	-6620
yyalloc	-6621
0123456789	-6622
DevicePathNode	-6623
traitsIhESaIhEE	-6624
24_	-6625
ISc	-6626
High	-6627
_10480	-6628
logging	-6629
Operator	-6630
critical	-6631
pairIKiN	-6632
partition	-6633
dm	-6634
FIX	-6635
Main	-6636
Wrap	-6637
_227	-6638
strndup	-6639
PMProcess	-6640
generator	-6641
cas	-6642
pic	-6643
WriteReg	-6644
fication	-6645
TestPrintf	-6646
AllocateZeroPool	-6647
43	-6648
unz	-6649
_914	-6650
cpup	-6651
Neigh	-6652
izzle	-6653
lored	-6654
hweight	-6655
swizzle	-6656
takedata	-6657
Factorial	-6658
Interrupt	-6659
safemalloc	-6660
CheckLimits	-6661
instructions	-6662
rss	-6663
_238	-6664
_6108	-6665
rdata	-6666
smbus	-6667
▁0)\"	-6668
equals	-6669
_614290	-6670
pushboolean	-6671
Configuration	-6672
9]	-6673
Ib	-6674
gs	-6675
BUF	-6676
hal	-6677
inat	-6678
quat	-6679
_1564	-6680
cause	-6681
evsel	-6682
exclu	-6683
quant	-6684
repair	-6685
vsprintf	-6686
verblevel	-6687
ivr	-6688
lev	-6689
COMP	-6690
WADR	-6691
bank	-6692
Compar	-6693
FreeMem	-6694
outfile	-6695
postfix	-6696
matching	-6697
specific	-6698
ImageHandle	-6699
Dbg	-6700
ssh	-6701
uer	-6702
_6112	-6703
Blocks	-6704
gettag	-6705
quired	-6706
timeval	-6707
EncodeBit	-6708
iterations	-6709
nat	-6710
sqr	-6711
0_11	-6712
ieve	-6713
Single	-6714
mappings	-6715
EventType	-6716
streambuf	-6717
Gv	-6718
NAS	-6719
ane	-6720
dog	-6721
_020	-6722
noti	-6723
ybot	-6724
colors	-6725
checkSame	-6726
ModuleCore	-6727
StringFrom	-6728
StringPair	-6729
TCP	-6730
dirs	-6731
year	-6732
Front	-6733
heads	-6734
charge	-6735
LogFile	-6736
WriteSet	-6737
defaults	-6738
finished	-6739
senddata	-6740
semaphore	-6741
PtrAndSize	-6742
AcpiUtRemove	-6743
4]	-6744
TGZ	-6745
pit	-6746
611_	-6747
lfds	-6748
IScsi	-6749
stISB	-6750
ListDir	-6751
nestedhvm	-6752
sigsetjmp	-6753
Ul	-6754
_76	-6755
esl	-6756
xmm	-6757
illi	-6758
nvmx	-6759
Syntax	-6760
getblk	-6761
xmmword	-6762
Complement	-6763
AModuleCore	-6764
FormattedNumber	-6765
968	-6766
wes	-6767
Mapp	-6768
acon	-6769
lstr	-6770
Errno	-6771
tings	-6772
pairIKii	-6773
nonblocking	-6774
VariableAlloc	-6775
*>,	-6776
bfd	-6777
Cast	-6778
Used	-6779
Lists	-6780
_6105	-6781
irect	-6782
stored	-6783
MapNode	-6784
dispose	-6785
lobject	-6786
NumberOf	-6787
mythread	-6788
Car	-6789
methods	-6790
TiXmlAttribute	-6791
Cl	-6792
lz	-6793
BDF	-6794
aup	-6795
rab	-6796
Step	-6797
incr	-6798
guess	-6799
ocket	-6800
orcDYN	-6801
nullsub	-6802
reallocate	-6803
SegmentQuery	-6804
yp	-6805
Kit	-6806
rol	-6807
Args	-6808
IhSa	-6809
mpss	-6810
arith	-6811
cmpxchg	-6812
mpsslog	-6813
indirect	-6814
Go	-6815
UV	-6816
Exc	-6817
TAB	-6818
bkc	-6819
gar	-6820
Mmio	-6821
_290	-6822
ByName	-6823
▁*>>>>	-6824
setting	-6825
bufchain	-6826
nilobject	-6827
serialPut	-6828
signature	-6829
symfilelist	-6830
TestDetailsE	-6831
sap	-6832
IPPN	-6833
Tvbf	-6834
_401	-6835
imal	-6836
Upper	-6837
Writer	-6838
vectorI	-6839
Threshold	-6840
discharge	-6841
Eh	-6842
PTR	-6843
bet	-6844
quir	-6845
Plant	-6846
PyExc	-6847
freeall	-6848
markobject	-6849
reallymarkobject	-6850
0_2	-6851
Ali	-6852
Bro	-6853
Ufs	-6854
Play	-6855
sess	-6856
sinI	-6857
conring	-6858
cpShape	-6859
checkany	-6860
getsockopt	-6861
backwardILb	-6862
miss	-6863
oice	-6864
Seeds	-6865
_5260	-6866
predi	-6867
utime	-6868
SetVar	-6869
strspn	-6870
substr	-6871
Registr	-6872
samples	-6873
Resource	-6874
Settings	-6875
Timestamp	-6876
PlantSeeds	-6877
Cube	-6878
Coord	-6879
_2654	-6880
sockfd	-6881
columns	-6882
VarCheck	-6883
backERKS	-6884
protobuf	-6885
mutexattr	-6886
TestFunction	-6887
LR	-6888
ca	-6889
fx	-6890
eqn	-6891
Chars	-6892
slice	-6893
Disable	-6894
obstack	-6895
Generate	-6896
pairIKjPN	-6897
0]	-6898
7]	-6899
equ	-6900
nmi	-6901
rtt	-6902
spi	-6903
23__	-6904
Pico	-6905
>>>>>	-6906
aSERKS	-6907
Console	-6908
attempt	-6909
exhaust	-6910
DebugMsg	-6911
interior	-6912
toregion	-6913
Partition	-6914
Procedure	-6915
RedCoreVol	-6916
AcpiUtCreate	-6917
TestCaseESaIS	-6918
AssertionSuccess	-6919
tid	-6920
fenv	-6921
prec	-6922
Picoc	-6923
_5259	-6924
sound	-6925
evalst	-6926
OffsetTo	-6927
quicksort	-6928
allocation	-6929
8__	-6930
Die	-6931
EEP	-6932
NME	-6933
RES	-6934
Seg	-6935
ire	-6936
Meas	-6937
etch	-6938
Colum	-6939
adding	-6940
DirEntry	-6941
accessed	-6942
xrealloc	-6943
45	-6944
PER	-6945
VER	-6946
Mock	-6947
Trig	-6948
cent	-6949
mangle	-6950
widget	-6951
Summary	-6952
Resistor	-6953
SetBuffer	-6954
GenericVector	-6955
Ack	-6956
Udp	-6957
omb	-6958
brow	-6959
Volume	-6960
period	-6961
▁**>::_	-6962
Multiple	-6963
extension	-6964
clocksource	-6965
checkSameManager	-6966
CM	-6967
LL	-6968
ba	-6969
wct	-6970
getr	-6971
cxxne	-6972
author	-6973
gmtime	-6974
ToAscii	-6975
runerror	-6976
unescape	-6977
308	-6978
VAL	-6979
gray	-6980
lite	-6981
refs	-6982
MAXPOL	-6983
Repeat	-6984
wctomb	-6985
_609138	-6986
nedalloc	-6987
Bandwidth	-6988
verbError	-6989
BuildValue	-6990
symfilecnt	-6991
defaultline	-6992
iteratorIPS	-6993
cgiFormEntry	-6994
gImageHandle	-6995
AsCharPtrAndSize	-6996
ged	-6997
mdl	-6998
xtra	-6999
IMesh	-7000
iface	-7001
etition	-7002
inverse	-7003
The	-7004
_59	-7005
snb	-7006
IKNS	-7007
Math	-7008
argc	-7009
icem	-7010
strp	-7011
Trigger	-7012
blocked	-7013
clients	-7014
delivery	-7015
drawrect	-7016
sigfillset	-7017
currentThread	-7018
Clu	-7019
MER	-7020
Utf	-7021
vxo	-7022
_6021	-7023
tmesh	-7024
dlinfo	-7025
readnb	-7026
IsPrime	-7027
GetEntry	-7028
regerror	-7029
Dh	-7030
dz	-7031
bmp	-7032
Import	-7033
Unique	-7034
ulator	-7035
zcalloc	-7036
sentence	-7037
Attributes	-7038
Whitespace	-7039
xFFFFFFFFFFFFE	-7040
jk	-7041
Stmt	-7042
cNSt	-7043
more	-7044
PRICE	-7045
Reduce	-7046
cblock	-7047
iupStr	-7048
levels	-7049
strnew	-7050
Impulse	-7051
getppid	-7052
wantoptions	-7053
ReleaseMutex	-7054
.4	-7055
1]	-7056
avl	-7057
ppm	-7058
11]>	-7059
sane	-7060
vals	-7061
Power	-7062
SkipDB	-7063
▁[11]>	-7064
population	-7065
wm	-7066
xm	-7067
bra	-7068
BYTE	-7069
ioport	-7070
StringTo	-7071
HawkVector	-7072
touserdata	-7073
PPMdContext	-7074
EnvironmentESaIS	-7075
IF	-7076
PQ	-7077
fu	-7078
Dim	-7079
nch	-7080
_218	-7081
hint	-7082
HTSAC	-7083
mounts	-7084
resync	-7085
results	-7086
pinToGpio	-7087
IsSubstring	-7088
description	-7089
MdeModulePkg	-7090
99	-7091
328	-7092
prod	-7093
lists	-7094
where	-7095
whose	-7096
CollAt	-7097
GetFirst	-7098
TiXmlBase	-7099
byteReverse	-7100
getnameinfo	-7101
OffsetToPointer	-7102
Eq	-7103
_<	-7104
hf	-7105
Coef	-7106
FILE	-7107
cube	-7108
talk	-7109
xref	-7110
cpPoly	-7111
vstream	-7112
alarmcount	-7113
DEV	-7114
END	-7115
arm	-7116
Rate	-7117
Brush	-7118
Fetch	-7119
vconn	-7120
buflib	-7121
murmur	-7122
PtrPush	-7123
problem	-7124
rewrite	-7125
addProto	-7126
Arguments	-7127
addProtoRule	-7128
Est	-7129
awg	-7130
abol	-7131
subc	-7132
_3826	-7133
liste	-7134
counts	-7135
legacy	-7136
nodeid	-7137
measure	-7138
polygon	-7139
windowend	-7140
8]	-7141
Cfg	-7142
Nee	-7143
ugh	-7144
HASH	-7145
_200	-7146
gbox	-7147
Coins	-7148
Wtime	-7149
Needed	-7150
cpvsub	-7151
GetValue	-7152
TraceFlag	-7153
ListGetNext	-7154
Ec	-7155
ater	-7156
ldex	-7157
nets	-7158
Taint	-7159
Throw	-7160
ained	-7161
bread	-7162
cxxmi	-7163
msecs	-7164
LVFast	-7165
ToName	-7166
binrpc	-7167
bufcat	-7168
Colored	-7169
dblevel	-7170
LVFastRef	-7171
ConnBridge	-7172
background	-7173
Destination	-7174
DoubleToStr	-7175
ColoredPrintf	-7176
gTempDoubleToStr	-7177
hz	-7178
Edge	-7179
_430	-7180
cosf	-7181
jval	-7182
luaZ	-7183
Fanin	-7184
_32_0	-7185
alRead	-7186
getbuf	-7187
myfree	-7188
getType	-7189
Progress	-7190
standing	-7191
utvector	-7192
writable	-7193
Converter	-7194
whoseTurn	-7195
printString	-7196
updatewindow	-7197
PAR	-7198
_5_	-7199
few	-7200
OneX	-7201
boxa	-7202
quad	-7203
EmPKc	-7204
warnx	-7205
invoke	-7206
ptrINS	-7207
Realloc	-7208
inition	-7209
leading	-7210
DkStream	-7211
Subscription	-7212
UtilGetoptReset	-7213
85	-7214
iS	-7215
occ	-7216
512_	-7217
mdct	-7218
_6110	-7219
endor	-7220
monitor	-7221
product	-7222
ATTRchar	-7223
wrefresh	-7224
direction	-7225
tcpclient	-7226
checkstack	-7227
inflateGet	-7228
ObjFaninNum	-7229
AcpiDbgLevel	-7230
GTestMutexLock	-7231
EUl	-7232
dbl	-7233
ken	-7234
wav	-7235
NtkCo	-7236
Place	-7237
drand	-7238
IsTrue	-7239
Suffix	-7240
anyreg	-7241
usbdev	-7242
rtrealm	-7243
ToBuffer	-7244
hostname	-7245
lenEmPKc	-7246
serveraddr	-7247
2]	-7248
988	-7249
Bad	-7250
Dsd	-7251
EPc	-7252
claim	-7253
gettm	-7254
omega	-7255
onoff	-7256
rogue	-7257
orcPHT	-7258
cpfclamp	-7259
sizeERKS	-7260
GetStream	-7261
setcancel	-7262
SetCurrent	-7263
XmlUnitTest	-7264
Pfx	-7265
_72	-7266
iks	-7267
ron	-7268
slm	-7269
tam	-7270
tirq	-7271
Stats	-7272
_6113	-7273
_8808	-7274
aFile	-7275
antic	-7276
calls	-7277
media	-7278
prune	-7279
cified	-7280
ifname	-7281
locate	-7282
zError	-7283
monster	-7284
onfault	-7285
softirq	-7286
FreeList	-7287
iupClass	-7288
fromregion	-7289
ListenerESaIS	-7290
TestInfoESaIS	-7291
RI	-7292
xl	-7293
buy	-7294
fai	-7295
prf	-7296
pwd	-7297
disc	-7298
mpcf	-7299
ytop	-7300
ached	-7301
pmksa	-7302
fxstat	-7303
History	-7304
Mapping	-7305
_621248	-7306
newlstr	-7307
rwunlock	-7308
fallocate	-7309
kd	-7310
Sol	-7311
bpn	-7312
mct	-7313
web	-7314
)<__	-7315
bson	-7316
pids	-7317
rtsp	-7318
tegr	-7319
_3825	-7320
0_3824	-7321
AcpiDm	-7322
ensions	-7323
RoundKey	-7324
template	-7325
testdevs	-7326
plication	-7327
connections	-7328
114	-7329
EES	-7330
_74	-7331
foc	-7332
smp	-7333
Msat	-7334
cmds	-7335
gram	-7336
Radio	-7337
micro	-7338
CatStr	-7339
Compute	-7340
continue	-7341
security	-7342
Processor	-7343
configure	-7344
inputfile	-7345
iteratorIPKN	-7346
ReadUnaligned	-7347
DO	-7348
xu	-7349
BWT	-7350
isa	-7351
zap	-7352
Stor	-7353
pong	-7354
allen	-7355
cSaIS	-7356
_60314	-7357
avance	-7358
cprint	-7359
tempor	-7360
IsValid	-7361
browser	-7362
regions	-7363
Checksum	-7364
makefinal	-7365
Interrupts	-7366
NetChannel	-7367
Interactive	-7368
getmetatable	-7369
6]	-7370
eoi	-7371
ween	-7372
zebra	-7373
broken	-7374
ematch	-7375
quanti	-7376
partial	-7377
datetime	-7378
locdefrt	-7379
loopback	-7380
FileSystem	-7381
VarHolderImpl	-7382
compressBound	-7383
PH	-7384
mx	-7385
nn	-7386
Wide	-7387
reap	-7388
Fgets	-7389
Quant	-7390
ilong	-7391
pitch	-7392
NtkObj	-7393
closed	-7394
tohere	-7395
CirList	-7396
allenge	-7397
svector	-7398
notifier	-7399
CirListDeque	-7400
Epd	-7401
hsw	-7402
tor	-7403
good	-7404
ufat	-7405
Compl	-7406
Truth	-7407
guild	-7408
tlsind	-7409
treeIP	-7410
eventfd	-7411
mallocz	-7412
Hardware	-7413
Decompress	-7414
ExceptionsIn	-7415
5]	-7416
pot	-7417
Dhcp	-7418
have	-7419
land	-7420
IPNSt	-7421
Quote	-7422
_4060	-7423
arest	-7424
notes	-7425
Circle	-7426
modInv	-7427
tracer	-7428
IsEmpty	-7429
ReadReg	-7430
Subtree	-7431
testnum	-7432
HawkTask	-7433
ListHead	-7434
getrusage	-7435
pushlight	-7436
SDMMessage	-7437
PendingTask	-7438
gethostname	-7439
Abf	-7440
glo	-7441
ori	-7442
vid	-7443
Align	-7444
simpl	-7445
raised	-7446
MethodIf	-7447
PrintLib	-7448
defconfig	-7449
HawkFolder	-7450
disassemble	-7451
AcquireMutex	-7452
OnTestFailure	-7453
FFC	-7454
ILi	-7455
SIG	-7456
ftok	-7457
prox	-7458
Ready	-7459
nable	-7460
thing	-7461
MemRef	-7462
Member	-7463
effect	-7464
polate	-7465
▁*>::_	-7466
parator	-7467
Contents	-7468
arpcache	-7469
cpPolyShape	-7470
destination	-7471
ich	-7472
igd	-7473
INDEX	-7474
_2334	-7475
agram	-7476
decay	-7477
inser	-7478
prior	-7479
Indent	-7480
abolic	-7481
isempty	-7482
netlink	-7483
ptrINSt	-7484
TickTask	-7485
indented	-7486
Parabolic	-7487
Interfaces	-7488
AcpiDbgLayer	-7489
iteratorIPKPN	-7490
ParabolicFinder	-7491
))	-7492
512	-7493
748	-7494
ACL	-7495
Bug	-7496
bcd	-7497
DATA	-7498
Uint	-7499
opro	-7500
rices	-7501
strsub	-7502
Payload	-7503
fixture	-7504
treeIPN	-7505
Relative	-7506
StackPush	-7507
SetAttribute	-7508
ProcedureCode	-7509
xq	-7510
afe	-7511
onic	-7512
scal	-7513
Effect	-7514
reboot	-7515
▁*>>>,	-7516
isdigit	-7517
pollfds	-7518
routine	-7519
▁variable	-7520
CharString	-7521
RM	-7522
EDF	-7523
lsr	-7524
rtc	-7525
cMsg	-7526
corr	-7527
fadt	-7528
firm	-7529
_2336	-7530
fdDisk	-7531
avcodec	-7532
correct	-7533
Capacity	-7534
InputParam	-7535
asCharString	-7536
ACK	-7537
Sink	-7538
Trav	-7539
vect	-7540
yyin	-7541
Lower	-7542
Unlink	-7543
strlwc	-7544
TestList	-7545
NtkIsStrash	-7546
Ht	-7547
820	-7548
CPU	-7549
ook	-7550
xdr	-7551
6800	-7552
euid	-7553
pgrp	-7554
Board	-7555
auxEN	-7556
instr	-7557
wards	-7558
Calloc	-7559
Escape	-7560
Values	-7561
Storage	-7562
allback	-7563
unblock	-7564
blockESt	-7565
getFirst	-7566
ObjIsNode	-7567
vectorIiSaIiEE	-7568
inflateResetKeep	-7569
ACM	-7570
EXT	-7571
Arch	-7572
sema	-7573
gfpow	-7574
tpool	-7575
68000_	-7576
circle	-7577
planes	-7578
appendf	-7579
copyILb	-7580
numeric	-7581
slabcache	-7582
transpose	-7583
InternalMem	-7584
destroyDynArray	-7585
gn	-7586
AMA	-7587
TIME	-7588
ecef	-7589
baseI	-7590
felem	-7591
fvecs	-7592
loops	-7593
ulses	-7594
nameto	-7595
AddItem	-7596
cuddZdd	-7597
Dispatch	-7598
Semantic	-7599
ifstream	-7600
undefine	-7601
Broadcast	-7602
nametoindex	-7603
170	-7604
Rev	-7605
_71	-7606
gcd	-7607
sos	-7608
udo	-7609
ILib	-7610
Slot	-7611
_428	-7612
lzma	-7613
parm	-7614
virq	-7615
TIMER	-7616
Failures	-7617
supported	-7618
tableTest	-7619
StringLength	-7620
HawkException	-7621
serialPutchar	-7622
deflateResetKeep	-7623
ENG	-7624
TCH	-7625
icu	-7626
otg	-7627
scip	-7628
EEEPT	-7629
UINTN	-7630
plane	-7631
Analog	-7632
implIS	-7633
Perform	-7634
dsfield	-7635
strpbrk	-7636
Complete	-7637
Previous	-7638
toboolean	-7639
Comparison	-7640
FatalError	-7641
Jo	-7642
qp	-7643
COL	-7644
ept	-7645
_10_	-7646
_425	-7647
cmap	-7648
lStr	-7649
ories	-7650
outfd	-7651
primes	-7652
listing	-7653
ReadOnly	-7654
TIFFfree	-7655
datatype	-7656
physical	-7657
unixsock	-7658
resources	-7659
DevicePathLib	-7660
tE	-7661
acs	-7662
fio	-7663
NBit	-7664
_168	-7665
_410	-7666
jlog	-7667
msgb	-7668
Cards	-7669
Codec	-7670
trian	-7671
Region	-7672
ftrace	-7673
rtscope	-7674
localvar	-7675
multiply	-7676
challenge	-7677
rebalance	-7678
lp	-7679
188	-7680
ans	-7681
pgm	-7682
upr	-7683
_4340	-7684
ibble	-7685
traps	-7686
upval	-7687
white	-7688
EEEppEv	-7689
TraceFP	-7690
luaopen	-7691
requeue	-7692
BigInteger	-7693
Aml	-7694
Fmt	-7695
_6_	-7696
gcm	-7697
psf	-7698
sgw	-7699
msec	-7700
reat	-7701
sysv	-7702
Branch	-7703
passwd	-7704
Compile	-7705
freeexp	-7706
tcpsend	-7707
mprotect	-7708
FormatFor	-7709
SetStrLen	-7710
multicast	-7711
temporary	-7712
capability	-7713
comparison	-7714
compatible	-7715
TestInstaller	-7716
wo	-7717
ANN	-7718
eid	-7719
ibv	-7720
alog	-7721
orph	-7722
seudo	-7723
netcmd	-7724
vmread	-7725
Testing	-7726
clearEv	-7727
matched	-7728
percent	-7729
BitField	-7730
fontpush	-7731
retrieve	-7732
Forwarding	-7733
TopStackFrame	-7734
Crc	-7735
ERT	-7736
_69	-7737
sgx	-7738
wsc	-7739
IhNS	-7740
tmxr	-7741
legal	-7742
PError	-7743
rtprot	-7744
rawgeti	-7745
evaluate	-7746
StreamTokenizer	-7747
TestFactoryBase	-7748
ADX	-7749
exa	-7750
nvp	-7751
usr	-7752
yuv	-7753
sinf	-7754
issue	-7755
roxml	-7756
sters	-7757
under	-7758
Column	-7759
sizeof	-7760
vpanic	-7761
xright	-7762
Winding	-7763
FromErrno	-7764
cpvlength	-7765
MemRefExpr	-7766
ingControl	-7767
IiE	-7768
MACH	-7769
gHii	-7770
offs	-7771
catch	-7772
udata	-7773
hprintf	-7774
postorder	-7775
SLPPropertySet	-7776
ez	-7777
Ehc	-7778
Tun	-7779
bgr	-7780
dbt	-7781
pfs	-7782
Emmc	-7783
ndes	-7784
10_2_	-7785
itter	-7786
quirk	-7787
rdmsr	-7788
▁ompi	-7789
Invoke	-7790
Sorted	-7791
vringh	-7792
▁error	-7793
AllocIv	-7794
emalloc	-7795
schedACM	-7796
trailing	-7797
ReadField	-7798
ListRemove	-7799
<1	-7800
UID	-7801
ann	-7802
ird	-7803
Conf	-7804
_411	-7805
Plane	-7806
Total	-7807
ldexp	-7808
nelts	-7809
cpfabs	-7810
GetError	-7811
cpBodyIs	-7812
objtable	-7813
pfsocket	-7814
Allocation	-7815
misaligned	-7816
208	-7817
ECT	-7818
SET	-7819
eme	-7820
rfd	-7821
ather	-7822
login	-7823
>>>>>>	-7824
ToOpen	-7825
Occurred	-7826
GetBuffer	-7827
raiseFlags	-7828
syntaxerror	-7829
ExpTokenTree	-7830
baseIiSaIiEE	-7831
86,	-7832
nfa	-7833
sav	-7834
_854	-7835
kern	-7836
raop	-7837
tftp	-7838
Prices	-7839
gntmap	-7840
PtrFree	-7841
getName	-7842
printed	-7843
strcspn	-7844
AcpiNsGet	-7845
ethernode	-7846
exhausted	-7847
Parameters	-7848
Repetition	-7849
allocatorIPN	-7850
AI	-7851
SF	-7852
HTA	-7853
Mne	-7854
cow	-7855
knl	-7856
mav	-7857
Diff	-7858
prom	-7859
items	-7860
marks	-7861
Bitmap	-7862
Groups	-7863
putest	-7864
Correct	-7865
scnprintf	-7866
symbolson	-7867
Tinputfile	-7868
optinteger	-7869
DisplayType	-7870
dee	-7871
ini	-7872
oct	-7873
_378	-7874
ToInt	-7875
cdata	-7876
Switch	-7877
TravId	-7878
bufput	-7879
letter	-7880
readto	-7881
Reserve	-7882
moveILb	-7883
contents	-7884
TokenInfo	-7885
interpolate	-7886
DigestUpdate	-7887
GetAttribute	-7888
\"0123456789	-7889
setmetatable	-7890
Neg	-7891
ebr	-7892
foo	-7893
Mono	-7894
STAR	-7895
Under	-7896
SqList	-7897
locnbr	-7898
tmpage	-7899
Terminal	-7900
UefiBoot	-7901
writeByte	-7902
extractInt	-7903
physToGpio	-7904
InternalRun	-7905
DeathTestFlag	-7906
PcdMaximumAscii	-7907
AW	-7908
Nu	-7909
CIP	-7910
Ecc	-7911
REQ	-7912
avs	-7913
1024	-7914
Trim	-7915
Logic	-7916
unhex	-7917
Cycles	-7918
eflags	-7919
gToOpen	-7920
impulse	-7921
strlist	-7922
FileSize	-7923
TIFFRead	-7924
mvprintw	-7925
symbolsonly	-7926
UnitsVariant	-7927
gethostbyaddr	-7928
singlefunctions	-7929
pmt	-7930
fuzz	-7931
syms	-7932
_2277	-7933
_3834	-7934
modes	-7935
AcpiEv	-7936
scroll	-7937
>>>>>>::	-7938
interpre	-7939
mlockall	-7940
gpRedCoreVol	-7941
<0	-7942
BL	-7943
Ov	-7944
dim	-7945
repl	-7946
sible	-7947
title	-7948
NtkHas	-7949
SPrint	-7950
iostat	-7951
parity	-7952
strequ	-7953
dlclose	-7954
expires	-7955
AsciiStr	-7956
GetField	-7957
CWriteReg	-7958
StatusCode	-7959
TestCaseESt	-7960
DT	-7961
364	-7962
40_	-7963
HER	-7964
pnm	-7965
irqs	-7966
omic	-7967
ptEv	-7968
Exter	-7969
Manip	-7970
Mtftp	-7971
Detach	-7972
checkc	-7973
pairIi	-7974
setint	-7975
setkey	-7976
sprint	-7977
Cluster	-7978
mediate	-7979
prepend	-7980
Repeater	-7981
Namespace	-7982
insertsort	-7983
FactorialTest	-7984
cpBodyActivate	-7985
Ln	-7986
508	-7987
Bet	-7988
RST	-7989
ZDD	-7990
css	-7991
pdc	-7992
_419	-7993
_440	-7994
ipro	-7995
jffs	-7996
peed	-7997
_2673	-7998
decre	-7999
orithms	-8000
External	-8001
Interval	-8002
ToSource	-8003
mymalloc	-8004
timeline	-8005
memManaged	-8006
AM	-8007
SN	-8008
fde	-8009
oom	-8010
rst	-8011
CCBE	-8012
_368	-8013
expt	-8014
feed	-8015
lots	-8016
omac	-8017
slow	-8018
Mneun	-8019
_6237	-8020
allocx	-8021
nibble	-8022
tobuffer	-8023
triangle	-8024
DebugFlag	-8025
Mneunomic	-8026
BasePrintLib	-8027
Declarations	-8028
deflateBound	-8029
SimpleTypeIhNS	-8030
Aud	-8031
Pas	-8032
SQL	-8033
pam	-8034
_17_	-8035
cavs	-8036
hreg	-8037
kseq	-8038
snap	-8039
itude	-8040
Bounds	-8041
CIPHER	-8042
GetVar	-8043
Unpack	-8044
evlist	-8045
settab	-8046
QString	-8047
affiche	-8048
bootmem	-8049
InsertTail	-8050
controller	-8051
dependency	-8052
ValueHolder	-8053
OM	-8054
LSF	-8055
trl	-8056
_665	-8057
Clone	-8058
Found	-8059
_6031	-8060
UNLOCK	-8061
errflush	-8062
watchdog	-8063
ObjFaninC	-8064
establish	-8065
Properties	-8066
RefCounter	-8067
ostringstream	-8068
zn	-8069
ism	-8070
pdu	-8071
wep	-8072
Hook	-8073
Tune	-8074
View	-8075
bvec	-8076
_2653	-8077
churn	-8078
mavis	-8079
tools	-8080
bridge	-8081
filing	-8082
gzputs	-8083
linkset	-8084
getValue	-8085
tryrdlock	-8086
eventhandler	-8087
Bi	-8088
mak	-8089
Elem	-8090
Vide	-8091
Walk	-8092
acsm	-8093
encr	-8094
wave	-8095
zeof	-8096
Super	-8097
tally	-8098
Paging	-8099
otonic	-8100
ForEach	-8101
RefCount	-8102
noaction	-8103
IndexedList	-8104
bed	-8105
lpp	-8106
ous	-8107
maze	-8108
stri	-8109
wfdb	-8110
NtkCi	-8111
_6102	-8112
dicate	-8113
varlen	-8114
NextTok	-8115
Prepare	-8116
domheap	-8117
mapINSt	-8118
suppress	-8119
valptrEv	-8120
iupAttrib	-8121
predicate	-8122
initialise	-8123
intercepts	-8124
MessageManip	-8125
EventObserver	-8126
randomGenerator	-8127
REG	-8128
hid	-8129
wmi	-8130
_260	-8131
rans	-8132
vdie	-8133
cfset	-8134
lifet	-8135
Parent	-8136
tofile	-8137
example	-8138
FromFile	-8139
NodeList	-8140
Specific	-8141
lifetime	-8142
resource	-8143
getmntent	-8144
ndesObject	-8145
vectorIhSa	-8146
bm	-8147
Ang	-8148
DAA	-8149
RNG	-8150
TER	-8151
asp	-8152
CuOs	-8153
Fpga	-8154
axis	-8155
mosq	-8156
vlan	-8157
Before	-8158
layout	-8159
ssible	-8160
Devices	-8161
cpvcross	-8162
debugmem	-8163
downheap	-8164
putShort	-8165
iObserver	-8166
valueEPKSt	-8167
compression	-8168
fh	-8169
HDR	-8170
mas	-8171
nop	-8172
plp	-8173
aped	-8174
ways	-8175
Smram	-8176
_3715	-8177
bsort	-8178
descs	-8179
liber	-8180
Attach	-8181
hexstr	-8182
mosqpp	-8183
>>*>::_	-8184
NPCInfo	-8185
loadable	-8186
sigqueue	-8187
OsCommand	-8188
munlockall	-8189
allowoptions	-8190
03	-8191
Fe	-8192
ALL	-8193
CRC	-8194
CSG	-8195
RRC	-8196
ccm	-8197
cko	-8198
eep	-8199
Olsr	-8200
ROCR	-8201
Thru	-8202
_538	-8203
clnt	-8204
dnet	-8205
filt	-8206
gent	-8207
rsdt	-8208
_1439	-8209
gzeof	-8210
logic	-8211
Player	-8212
gzputc	-8213
strand	-8214
Texture	-8215
getinfo	-8216
openssl	-8217
operate	-8218
testBit	-8219
urecord	-8220
EccPoint	-8221
gGeneric	-8222
realmode	-8223
SetHeader	-8224
optlstring	-8225
cpSpaceHash	-8226
gGenericResp	-8227
HawkRefCounter	-8228
140	-8229
Dic	-8230
MUL	-8231
gap	-8232
psi	-8233
acct	-8234
nock	-8235
pixa	-8236
_6030	-8237
reach	-8238
strib	-8239
gzgets	-8240
istrcmp	-8241
PtrAlloc	-8242
StackPtr	-8243
timeouts	-8244
NtkDelete	-8245
decrement	-8246
categories	-8247
outputfunc	-8248
nx	-8249
RAT	-8250
hmm	-8251
sdf	-8252
sofi	-8253
Coder	-8254
Proxy	-8255
fsize	-8256
sweep	-8257
uname	-8258
missed	-8259
auparse	-8260
flating	-8261
itional	-8262
ReadWord	-8263
getstack	-8264
gzungetc	-8265
relative	-8266
collector	-8267
intersect	-8268
optswitch	-8269
prepbuffer	-8270
IsPrimeTest	-8271
ListenerESt	-8272
updateCoins	-8273
MemoryProfile	-8274
EnvironmentESt	-8275
AssertionFailure	-8276
deflateSetHeader	-8277
ny	-8278
_82	-8279
ppp	-8280
Help	-8281
Prec	-8282
_11_	-8283
gemm	-8284
pest	-8285
Cance	-8286
NtkPo	-8287
Style	-8288
blkio	-8289
glyph	-8290
knock	-8291
third	-8292
works	-8293
Cancel	-8294
caller	-8295
windup	-8296
Monitor	-8297
endpoint	-8298
positive	-8299
timebase	-8300
Ie	-8301
Lm	-8302
hor	-8303
icm	-8304
rsp	-8305
sth	-8306
0_13	-8307
atyp	-8308
slop	-8309
Score	-8310
dCall	-8311
gecko	-8312
needs	-8313
xmult	-8314
CONFIG	-8315
issuer	-8316
strupr	-8317
Between	-8318
Unknown	-8319
blkiomon	-8320
Capability	-8321
DebugFlags	-8322
discovered	-8323
MemReadByte	-8324
888	-8325
Apa	-8326
Rai	-8327
Swe	-8328
dhe	-8329
fwd	-8330
imP	-8331
mux	-8332
ptm	-8333
Less	-8334
This	-8335
_438	-8336
bule	-8337
faad	-8338
runs	-8339
undo	-8340
NtkPi	-8341
Slice	-8342
nfree	-8343
Subset	-8344
claims	-8345
refill	-8346
CMatrix	-8347
NewNode	-8348
_614298	-8349
deepest	-8350
globule	-8351
nthreads	-8352
LinkedList	-8353
deflatePrime	-8354
createDynArray	-8355
myDigitalWrite	-8356
mkc	-8357
Jump	-8358
Perm	-8359
lsIA	-8360
rooms	-8361
sofia	-8362
zeros	-8363
lexeme	-8364
minipc	-8365
posint	-8366
numBits	-8367
Indicate	-8368
heapsort	-8369
property	-8370
Duplicate	-8371
trywrlock	-8372
hostcompat	-8373
putShortMSB	-8374
ProfiledCall	-8375
AST	-8376
ucs	-8377
mspe	-8378
topp	-8379
_2460	-8380
sqrtf	-8381
Cipher	-8382
evutil	-8383
exptmod	-8384
yyensure	-8385
WriteByte	-8386
TestTesting	-8387
deflateTune	-8388
mosquittopp	-8389
FrameReadNtk	-8390
RepetitionPeriod	-8391
Fds	-8392
Two	-8393
ecb	-8394
ivt	-8395
lfn	-8396
Syro	-8397
memp	-8398
White	-8399
_4131	-8400
canon	-8401
inval	-8402
tputs	-8403
MACHEP	-8404
MAXNUM	-8405
kmalloc	-8406
setvbuf	-8407
udomain	-8408
HTSACopy	-8409
ObjWrite	-8410
ucvector	-8411
Identifier	-8412
information	-8413
irrAllocatorIS	-8414
Lit	-8415
_70	-8416
dofs	-8417
ette	-8418
_2696	-8419
ocall	-8420
Digits	-8421
ZNSaIN	-8422
mtdofs	-8423
freopen	-8424
mctelem	-8425
PrintStr	-8426
baseIPPN	-8427
gettable	-8428
numnodes	-8429
previous	-8430
ListAdder	-8431
SetFromErrno	-8432
AcpiDebugPrint	-8433
PFv	-8434
scc	-8435
MACD	-8436
dbgp	-8437
Choice	-8438
Recycle	-8439
Wrapper	-8440
gzdirect	-8441
keyEPKSt	-8442
populate	-8443
FreeProbs	-8444
microcode	-8445
rtdsfield	-8446
testcancel	-8447
AllocateProbs	-8448
ExpectedToken	-8449
irrAllocatorINS	-8450
108	-8451
EEb	-8452
was	-8453
PKcS	-8454
Poll	-8455
_102	-8456
hkdf	-8457
pins	-8458
Iiiii	-8459
Train	-8460
Video	-8461
needed	-8462
vspace	-8463
sdsfree	-8464
visited	-8465
solution	-8466
HawkSocket	-8467
pqdownheap	-8468
CoreSession	-8469
ExecuteTest	-8470
inflateSyncPoint	-8471
xn	-8472
CMD	-8473
UPn	-8474
deb	-8475
ipx	-8476
mix	-8477
pcp	-8478
squ	-8479
toa	-8480
_360	-8481
vise	-8482
ENSSL	-8483
Raise	-8484
Sound	-8485
annot	-8486
edges	-8487
prevt	-8488
allocs	-8489
outlen	-8490
OPENSSL	-8491
slopbuf	-8492
IiiiiimP	-8493
Splitter	-8494
Template	-8495
testnext	-8496
CheckArray	-8497
gDebugFlag	-8498
FrameReadErr	-8499
348	-8500
OPC	-8501
sch	-8502
*>::	-8503
ToBe	-8504
_249	-8505
Alias	-8506
cture	-8507
enate	-8508
renew	-8509
KmapIP	-8510
macros	-8511
AddChar	-8512
LVStream	-8513
validator	-8514
PatternFormatter	-8515
7]>	-8516
CSW	-8517
Sum	-8518
ckh	-8519
fli	-8520
16_0	-8521
LINE	-8522
just	-8523
_2151	-8524
_32_1	-8525
bcopy	-8526
wsect	-8527
▁[7]>	-8528
CSWTCH	-8529
Exists	-8530
Scheme	-8531
advise	-8532
mption	-8533
stdvga	-8534
BaseLib	-8535
BtState	-8536
Routing	-8537
alifier	-8538
getBits	-8539
wprintw	-8540
WidgetEE	-8541
globfree	-8542
setsched	-8543
tostring	-8544
Resources	-8545
sdscatlen	-8546
cMutexLock	-8547
usedblocks	-8548
wiringPiSP	-8549
HeapFreeMem	-8550
TestFailure	-8551
EventMachine	-8552
FrameReadOut	-8553
IsDevicePath	-8554
inflatePrime	-8555
sigqueueinfo	-8556
BtStateAction	-8557
inflateGetHeader	-8558
),	-8559
SV	-8560
stm	-8561
32_3	-8562
RESP	-8563
newt	-8564
Stand	-8565
binind	-8566
callid	-8567
enumer	-8568
baseISt	-8569
gethook	-8570
iproute	-8571
sigchld	-8572
systick	-8573
THREADID	-8574
attrconv	-8575
sigrtmin	-8576
Listeners	-8577
Unmarshal	-8578
OperandVal	-8579
inflateCopy	-8580
cpConstraint	-8581
iupClassRegister	-8582
RW	-8583
178	-8584
Zop	-8585
_77	-8586
jbd	-8587
mcp	-8588
mic	-8589
sht	-8590
tdp	-8591
vet	-8592
OCSP	-8593
decr	-8594
into	-8595
msgp	-8596
pull	-8597
Glyph	-8598
Visit	-8599
_16_2	-8600
_4050	-8601
icles	-8602
occur	-8603
refer	-8604
VTable	-8605
Zopfli	-8606
deskey	-8607
pubkey	-8608
tsmsgp	-8609
velvet	-8610
cpBBNew	-8611
manager	-8612
overlap	-8613
Algorithm	-8614
outstanding	-8615
RenderingControl	-8616
aks	-8617
djb	-8618
gro	-8619
pta	-8620
Xbee	-8621
_619	-8622
EndOf	-8623
IType	-8624
Sweep	-8625
_2300	-8626
brush	-8627
dfree	-8628
flock	-8629
ShiftU	-8630
muladd	-8631
Complex	-8632
Routine	-8633
Quantity	-8634
buffinit	-8635
locmaddr	-8636
subclass	-8637
RedBlackTree	-8638
vectorIiSaIi	-8639
NT	-8640
ws	-8641
0_5	-8642
CBit	-8643
Regs	-8644
Writ	-8645
_500	-8646
addf	-8647
dram	-8648
king	-8649
pdie	-8650
Route	-8651
etree	-8652
moves	-8653
rconn	-8654
ESaISC	-8655
Errors	-8656
volume	-8657
CopyPool	-8658
groupadd	-8659
rangeset	-8660
AddItemTo	-8661
typeerror	-8662
288	-8663
782	-8664
AES	-8665
COM	-8666
FLP	-8667
PIO	-8668
ato	-8669
inb	-8670
ool	-8671
Brow	-8672
iESt	-8673
dense	-8674
milen	-8675
Univer	-8676
WinZip	-8677
istics	-8678
mproto	-8679
regular	-8680
Modified	-8681
MonoPool	-8682
milenage	-8683
Universal	-8684
xfrmproto	-8685
BlockAfter	-8686
WinZipJPEG	-8687
readconfig	-8688
ErrorMessage	-8689
Si	-8690
ah	-8691
dx	-8692
DES	-8693
hdl	-8694
_460	-8695
mdns	-8696
pcdi	-8697
11::_	-8698
aring	-8699
intra	-8700
resid	-8701
Opcode	-8702
apicid	-8703
analyze	-8704
Captured	-8705
cpBBTree	-8706
debugging	-8707
fixbuffer	-8708
QueryState	-8709
Unbuffered	-8710
Performance	-8711
anetSetError	-8712
BSP	-8713
egs	-8714
REGS	-8715
pted	-8716
_2526	-8717
addEE	-8718
memfd	-8719
spare	-8720
ABCDEF	-8721
LenEnc	-8722
yyfree	-8723
Restore	-8724
strsave	-8725
udpsend	-8726
cxxneIPK	-8727
EncogUtil	-8728
cuddCache	-8729
gpiotools	-8730
PointQuery	-8731
PeiServices	-8732
authenticator	-8733
addEEProduction	-8734
AU	-8735
td	-8736
Occ	-8737
Ppi	-8738
glk	-8739
rim	-8740
see	-8741
upt	-8742
Defs	-8743
Freq	-8744
ader	-8745
haha	-8746
lide	-8747
>::~_	-8748
Angle	-8749
_3757	-8750
named	-8751
tsync	-8752
ulong	-8753
modified	-8754
readable	-8755
refcount	-8756
subscribe	-8757
docsection	-8758
gEfiDevicePath	-8759
BasicUnbuffered	-8760
4<	-8761
API	-8762
cof	-8763
ffi	-8764
geo	-8765
img	-8766
ulk	-8767
bage	-8768
hide	-8769
ints	-8770
resc	-8771
stab	-8772
Mouse	-8773
Owner	-8774
Reuse	-8775
rough	-8776
tdefl	-8777
PyList	-8778
SetMem	-8779
impure	-8780
AnyType	-8781
offsets	-8782
DebugBit	-8783
GetConst	-8784
Streamable	-8785
HawkAnyType	-8786
wiringPiNewNode	-8787
zf	-8788
118	-8789
XYZ	-8790
arc	-8791
camd	-8792
onig	-8793
_2283	-8794
_6111	-8795
etype	-8796
joule	-8797
sWith	-8798
sumer	-8799
Scalar	-8800
pseudo	-8801
vendor	-8802
Browser	-8803
RedImap	-8804
getLong	-8805
nonnull	-8806
objects	-8807
SetValue	-8808
reground	-8809
traitsEE	-8810
FindFirst	-8811
associate	-8812
checkname	-8813
daemonize	-8814
SetDefault	-8815
preprocess	-8816
currentToken	-8817
PatternAction	-8818
Ith	-8819
Rem	-8820
ful	-8821
ips	-8822
udy	-8823
CDMA	-8824
GetU	-8825
asid	-8826
bour	-8827
pcix	-8828
aputc	-8829
hvmem	-8830
unity	-8831
locity	-8832
unwind	-8833
Adapter	-8834
hvmemul	-8835
Multiply	-8836
PassThru	-8837
negative	-8838
retained	-8839
ucontact	-8840
serviceINS	-8841
CodeEnabled	-8842
FixtureReport	-8843
Ctx	-8844
INE	-8845
ToF	-8846
ifi	-8847
pcm	-8848
COEX	-8849
Emit	-8850
Quit	-8851
XSet	-8852
reak	-8853
_6041	-8854
_6119	-8855
zzasp	-8856
Events	-8857
rollee	-8858
IoWrite	-8859
aborted	-8860
chunkID	-8861
noncopy	-8862
machines	-8863
registry	-8864
printline	-8865
OutputChar	-8866
updatetime	-8867
cpArrayFree	-8868
noncopyable	-8869
Ax	-8870
Cb	-8871
GEN	-8872
bns	-8873
dll	-8874
Trxn	-8875
cfag	-8876
12864	-8877
curve	-8878
early	-8879
fpout	-8880
spool	-8881
>>>>>,	-8882
Coords	-8883
Loaded	-8884
fparam	-8885
motion	-8886
isalpha	-8887
nextreg	-8888
pcalloc	-8889
pidfile	-8890
IfNeeded	-8891
handCard	-8892
variables	-8893
Disconnect	-8894
ParserCopy	-8895
unretained	-8896
patchtohere	-8897
uncompressed	-8898
tu	-8899
▁1	-8900
ANS	-8901
But	-8902
Can	-8903
OSC	-8904
Syn	-8905
adc	-8906
oma	-8907
pps	-8908
adap	-8909
busy	-8910
usec	-8911
vers	-8912
Redis	-8913
_2695	-8914
wsize	-8915
iMalloc	-8916
operand	-8917
Trailing	-8918
rawequal	-8919
Unchecked	-8920
setlocale	-8921
timedwait	-8922
RangeCoder	-8923
packetsize	-8924
ControlAction	-8925
GetUnitTestImpl	-8926
RO	-8927
vE	-8928
3::	-8929
gdb	-8930
tol	-8931
lost	-8932
sens	-8933
_6072	-8934
treeI	-8935
tries	-8936
gzseek	-8937
Scanner	-8938
explain	-8939
records	-8940
twitter	-8941
LineInfo	-8942
ToTarget	-8943
monotonic	-8944
pairIiNSt	-8945
InsertNode	-8946
authorized	-8947
deactivate	-8948
CommandLine	-8949
ObjFanoutNum	-8950
ValueToString	-8951
Mav	-8952
gra	-8953
iov	-8954
phy	-8955
Uhci	-8956
atum	-8957
mean	-8958
obig	-8959
rerr	-8960
Creds	-8961
Mavis	-8962
scrap	-8963
Rotate	-8964
inodes	-8965
subset	-8966
toobig	-8967
MAXNUMF	-8968
ReadVar	-8969
logical	-8970
tegrity	-8971
ziplist	-8972
nonblock	-8973
FormatStr	-8974
CredsStore	-8975
GE	-8976
wk	-8977
130	-8978
5]>	-8979
COND	-8980
grab	-8981
_2705	-8982
ampon	-8983
drain	-8984
jinit	-8985
mcast	-8986
▁[5]>	-8987
Netbuf	-8988
atmark	-8989
PtrGrow	-8990
emption	-8991
frameon	-8992
mailbox	-8993
pnalloc	-8994
pairIKth	-8995
algorithm	-8996
gzclearerr	-8997
SwigPyObject	-8998
Ri	-8999
ces	-9000
dtr	-9001
fly	-9002
pbc	-9003
srs	-9004
xid	-9005
EvPT	-9006
nstr	-9007
pres	-9008
rmat	-9009
AddOp	-9010
Calls	-9011
_6042	-9012
inodo	-9013
ivity	-9014
offsp	-9015
rings	-9016
stage	-9017
typeE	-9018
which	-9019
AcpiDb	-9020
qinval	-9021
backend	-9022
TypeName	-9023
Printable	-9024
FileStream	-9025
offsprings	-9026
StringObject	-9027
traitsIhESaIh	-9028
WarningMessage	-9029
wiringPiFailure	-9030
ARO	-9031
Hob	-9032
bau	-9033
ctk	-9034
irt	-9035
wcs	-9036
yla	-9037
_429	-9038
hang	-9039
tagq	-9040
AROON	-9041
EPKNS	-9042
Erase	-9043
amble	-9044
attle	-9045
nused	-9046
>>>>::~	-9047
Gethost	-9048
Records	-9049
lastnfa	-9050
quantize	-9051
subtract	-9052
CmpHelper	-9053
TestInfoE	-9054
StartERKNS	-9055
associated	-9056
IM	-9057
mh	-9058
COB	-9059
_78	-9060
crt	-9061
cum	-9062
APIC	-9063
Keys	-9064
atar	-9065
cbuf	-9066
dpci	-9067
nsvm	-9068
GENER	-9069
Spawn	-9070
_4158	-9071
_6107	-9072
hooks	-9073
qdisc	-9074
BTCOEX	-9075
arglst	-9076
gpioTo	-9077
labels	-9078
bstreap	-9079
freeMem	-9080
ReadFile	-9081
ficients	-9082
StringINS	-9083
mVariable	-9084
rewinddir	-9085
TaintBlock	-9086
GetInstance	-9087
xFFFFFFFFFF	-9088
deallocateEP	-9089
ReportSummary	-9090
iteratorIPKcNSt	-9091
IZN	-9092
IcE	-9093
Sin	-9094
_83	-9095
itr	-9096
BUFF	-9097
Idle	-9098
UInt	-9099
Upnp	-9100
_217	-9101
ound	-9102
_6210	-9103
drate	-9104
izont	-9105
mspel	-9106
PyDict	-9107
codeEm	-9108
putblk	-9109
viewer	-9110
DumpInt	-9111
NodeSet	-9112
Parsing	-9113
databuf	-9114
pcidevs	-9115
Extended	-9116
cpputest	-9117
eference	-9118
MallocSize	-9119
PosixEnter	-9120
AllocIvEEEE	-9121
RemoveEntry	-9122
cpArrayPush	-9123
EncodeString	-9124
lessIiESaISt	-9125
myDigitalRead	-9126
AllocateCopyPool	-9127
320	-9128
458	-9129
Dot	-9130
802_	-9131
goti	-9132
pace	-9133
OJPEG	-9134
_4490	-9135
intif	-9136
itrig	-9137
OBJECT	-9138
battle	-9139
Nearest	-9140
_617290	-9141
ingTest	-9142
rawseti	-9143
arrayINS	-9144
existing	-9145
relation	-9146
Specified	-9147
CompareMem	-9148
iteratorIN	-9149
DataElement	-9150
Diagnostics	-9151
declaration	-9152
IoProtocolGuid	-9153
_7_	-9154
arn	-9155
0_19	-9156
Cart	-9157
Disp	-9158
brev	-9159
dopy	-9160
▁0\"	-9161
Stamp	-9162
_3966	-9163
metic	-9164
stuff	-9165
Writen	-9166
freebn	-9167
zeroed	-9168
symlink	-9169
CReadReg	-9170
EndERKNS	-9171
writeBit	-9172
TestStart	-9173
sensitive	-9174
RedBlackMapNode	-9175
RC	-9176
FIR	-9177
plt	-9178
inel	-9179
swer	-9180
INTER	-9181
_5135	-9182
inbuf	-9183
Modify	-9184
lessIt	-9185
madvise	-9186
mkconst	-9187
IJ	-9188
qt	-9189
Sha	-9190
TLS	-9191
Znw	-9192
pwr	-9193
IjSa	-9194
Orig	-9195
\"\\	-9196
_407	-9197
doit	-9198
dont	-9199
plmn	-9200
ulaw	-9201
email	-9202
Dialog	-9203
IjSaIj	-9204
Second	-9205
_16782	-9206
errarg	-9207
GetTime	-9208
maximum	-9209
svgfile	-9210
unpause	-9211
Children	-9212
analysis	-9213
reserver	-9214
filtering	-9215
GetElement	-9216
ReplyObject	-9217
reserveregs	-9218
getBitsNumber	-9219
158	-9220
3_0	-9221
DOJ	-9222
ILm	-9223
bcm	-9224
Znwm	-9225
bins	-9226
half	-9227
Apply	-9228
Study	-9229
guage	-9230
▁***>	-9231
bpncpt	-9232
dupstr	-9233
GENERAL	-9234
ficient	-9235
dhparams	-9236
gzbuffer	-9237
reactive	-9238
settable	-9239
libconfig	-9240
exitstatus	-9241
DM	-9242
408	-9243
Lin	-9244
evl	-9245
▁\"	-9246
BFEF	-9247
Decl	-9248
EEET	-9249
NLSF	-9250
SaIT	-9251
fish	-9252
getS	-9253
ient	-9254
libu	-9255
vpic	-9256
Audio	-9257
Bignum	-9258
Pretty	-9259
sdsnew	-9260
Consume	-9261
GetWord	-9262
desfunc	-9263
include	-9264
recvmsg	-9265
00000000	-9266
makedata	-9267
Variables	-9268
BootScript	-9269
getcontext	-9270
DIG	-9271
Dfs	-9272
ESL	-9273
Mtr	-9274
fon	-9275
isx	-9276
mba	-9277
tui	-9278
9_4_	-9279
KMer	-9280
_403	-9281
flex	-9282
fsfd	-9283
isns	-9284
mmod	-9285
tpel	-9286
_6200	-9287
creen	-9288
nexth	-9289
piece	-9290
plbuf	-9291
stISC	-9292
Public	-9293
auxILb	-9294
lgamma	-9295
cmdlist	-9296
udpconn	-9297
writeTo	-9298
▁*>>::~	-9299
FindNode	-9300
sections	-9301
endmntent	-9302
histogram	-9303
PosixLeave	-9304
ConSplitter	-9305
IndexByName	-9306
findSection	-9307
OutputStream	-9308
docfunctions	-9309
0_9	-9310
214	-9311
FAC	-9312
ier	-9313
nth	-9314
stn	-9315
Redo	-9316
Virt	-9317
_423	-9318
alaw	-9319
tmcb	-9320
vram	-9321
EvEUl	-9322
fdset	-9323
BUFFER	-9324
CILess	-9325
Entity	-9326
Height	-9327
ObjNot	-9328
Screen	-9329
deltaF	-9330
IndexOf	-9331
Marshal	-9332
crypted	-9333
cuddBdd	-9334
strnlen	-9335
tunnels	-9336
OpenFile	-9337
bitcount	-9338
original	-9339
Intersect	-9340
Profiling	-9341
immediate	-9342
nodeEEESt	-9343
tcpchksum	-9344
operations	-9345
DebugPrintf	-9346
Old	-9347
PRED	-9348
berr	-9349
blow	-9350
idct	-9351
none	-9352
chown	-9353
fiber	-9354
XIDENS	-9355
holder	-9356
imation	-9357
padding	-9358
pixcmap	-9359
Positive	-9360
SetObject	-9361
injectorINS	-9362
setspecific	-9363
listIterator	-9364
PPMdRangeCoder	-9365
UDB	-9366
blo	-9367
crb	-9368
gRT	-9369
Into	-9370
_406	-9371
efer	-9372
INVAL	-9373
_3803	-9374
_6032	-9375
dhcpc	-9376
pgconn	-9377
Surface	-9378
LenPrice	-9379
Negative	-9380
randwait	-9381
NumToName	-9382
RNDInvoke	-9383
requested	-9384
roundPack	-9385
RedVolConf	-9386
configured	-9387
sizeDynArr	-9388
GetConstBuf	-9389
getInstruction	-9390
InstantiatorINS	-9391
640	-9392
Edr	-9393
Ftw	-9394
MMX	-9395
SSu	-9396
EEvT	-9397
bset	-9398
shot	-9399
BFSSu	-9400
RType	-9401
_2400	-9402
addTo	-9403
slash	-9404
visor	-9405
MINMAX	-9406
NMEAdd	-9407
Sector	-9408
iupdrv	-9409
totext	-9410
SetItem	-9411
_607608	-9412
ccessor	-9413
mavlink	-9414
rttable	-9415
notfound	-9416
placement	-9417
CompareGuid	-9418
InputBuffer	-9419
BFSSuccessor	-9420
addProduction	-9421
TimeConstraint	-9422
xz	-9423
588	-9424
Asm	-9425
lif	-9426
tSt	-9427
asin	-9428
mula	-9429
urer	-9430
Items	-9431
_3944	-9432
blink	-9433
opsis	-9434
numval	-9435
strdel	-9436
waiter	-9437
NonOlsr	-9438
Resolve	-9439
DecodeTo	-9440
enrollee	-9441
getlocal	-9442
synopsis	-9443
component	-9444
outpacket	-9445
prediction	-9446
IncrementPC	-9447
ObjIsComplement	-9448
,0	-9449
CV	-9450
nf	-9451
OCH	-9452
_87	-9453
_89	-9454
dfa	-9455
hot	-9456
Isos	-9457
memn	-9458
STOCH	-9459
aconn	-9460
alnum	-9461
chron	-9462
iList	-9463
pcall	-9464
usert	-9465
wattr	-9466
classi	-9467
copyfd	-9468
gpGtpv	-9469
CharPtr	-9470
INVALID	-9471
Overlap	-9472
Reindex	-9473
ZNSaIPN	-9474
garbage	-9475
logfile	-9476
quality	-9477
upvalue	-9478
blkfront	-9479
dataconn	-9480
readinit	-9481
LenPriceEnc	-9482
WithPayload	-9483
wiringPiDebug	-9484
freeReplyObject	-9485
totalMallocSize	-9486
KE	-9487
Ve	-9488
▁>	-9489
148	-9490
LAR	-9491
jac	-9492
1_16	-9493
Ssid	-9494
_434	-9495
udev	-9496
upap	-9497
Lines	-9498
MINUS	-9499
_3933	-9500
MBPort	-9501
Unused	-9502
ZnwmPv	-9503
libubi	-9504
strsep	-9505
xabort	-9506
Evaluate	-9507
addEmpty	-9508
baudrate	-9509
setValue	-9510
VdbeAddOp	-9511
disjuncts	-9512
PosixReturn	-9513
WithAllocator	-9514
<5	-9515
Fc	-9516
OF	-9517
TB	-9518
124	-9519
500	-9520
ban	-9521
cri	-9522
iSt	-9523
Bulk	-9524
CHAR	-9525
PLUS	-9526
Redu	-9527
cpos	-9528
dian	-9529
flip	-9530
icit	-9531
razf	-9532
Pager	-9533
dgram	-9534
execv	-9535
milli	-9536
ymult	-9537
ObjMsg	-9538
lsolve	-9539
salloc	-9540
srjson	-9541
unplug	-9542
_607428	-9543
getjump	-9544
interim	-9545
objtree	-9546
impulses	-9547
ofstream	-9548
Undermine	-9549
TiXmlHandle	-9550
inflateMark	-9551
zlibCompile	-9552
LzmaEncProps	-9553
bzDecompress	-9554
StackPushValue	-9555
RemoveEntryList	-9556
addEmptyDynEntry	-9557
inflateUndermine	-9558
zlibCompileFlags	-9559
Hw	-9560
708	-9561
878	-9562
DCP	-9563
Mmc	-9564
ORT	-9565
sad	-9566
Dead	-9567
Phys	-9568
SSLv	-9569
cerr	-9570
esis	-9571
fabs	-9572
Dirty	-9573
SdMmc	-9574
_6220	-9575
cksum	-9576
umask	-9577
interm	-9578
Reorder	-9579
buyCard	-9580
finaliz	-9581
openair	-9582
require	-9583
subtree	-9584
tection	-9585
FreeNode	-9586
peername	-9587
ification	-9588
insertion	-9589
readinitb	-9590
EncogError	-9591
definition	-9592
processing	-9593
InputStream	-9594
StreamBufIcSt	-9595
TestFixtureTest	-9596
EQ	-9597
890	-9598
EXI	-9599
Pad	-9600
gru	-9601
bble	-9602
dupl	-9603
foro	-9604
many	-9605
ural	-9606
delet	-9607
irand	-9608
lista	-9609
party	-9610
spell	-9611
bwrite	-9612
pabort	-9613
Decrypt	-9614
hashmap	-9615
sectors	-9616
readfile	-9617
Separator	-9618
Isosurface	-9619
gotoptions	-9620
Il	-9621
648	-9622
900	-9623
RFC	-9624
ibs	-9625
jpg	-9626
_424	-9627
UsbHc	-9628
_5136	-9629
aaddr	-9630
decref	-9631
manage	-9632
yytext	-9633
InPlace	-9634
RedPath	-9635
asctime	-9636
Recvfrom	-9637
Signaling	-9638
Successor	-9639
GetNextNode	-9640
translation	-9641
defaultnetif	-9642
dischargevars	-9643
CollAtUnchecked	-9644
)<	-9645
CN	-9646
ABx	-9647
Bss	-9648
Mio	-9649
SMA	-9650
_51	-9651
bce	-9652
3647	-9653
LZMA	-9654
alrm	-9655
gzio	-9656
hood	-9657
poch	-9658
RedMR	-9659
STATE	-9660
_3691	-9661
arrow	-9662
ffurl	-9663
lapic	-9664
xmove	-9665
214748	-9666
EEEELb	-9667
MsgPre	-9668
TestED	-9669
bcemit	-9670
mergen	-9671
vmflag	-9672
Virtual	-9673
codeABx	-9674
gpRedMR	-9675
knocked	-9676
nexthop	-9677
scriber	-9678
TokenNum	-9679
ValArray	-9680
getGroup	-9681
LiteralTo	-9682
enumerate	-9683
nestedsvm	-9684
testcalls	-9685
2147483647	-9686
PrintError	-9687
sdirectory	-9688
gpRedVolume	-9689
MsgPrecondition	-9690
TestFactoryImplI	-9691
RP	-9692
9_4	-9693
Bip	-9694
CAA	-9695
EST	-9696
IRQ	-9697
Ios	-9698
MET	-9699
MID	-9700
RKi	-9701
dle	-9702
EEES	-9703
Span	-9704
_427	-9705
fmat	-9706
sift	-9707
HText	-9708
METIS	-9709
_6104	-9710
atile	-9711
calib	-9712
ipvec	-9713
_40598	-9714
cannot	-9715
mechan	-9716
median	-9717
minmax	-9718
procfs	-9719
PyTuple	-9720
EncogStr	-9721
Shutdown	-9722
mergency	-9723
eraseEPSt	-9724
xFFFFFFFFFFFFA	-9725
DriverEntryPoint	-9726
258	-9727
Srv	-9728
cdi	-9729
dtm	-9730
ere	-9731
psz	-9732
PDCP	-9733
Peek	-9734
clic	-9735
cosh	-9736
gBuf	-9737
give	-9738
rmrr	-9739
_6232	-9740
cblas	-9741
dlist	-9742
balloc	-9743
dirent	-9744
fourth	-9745
gather	-9746
makeDB	-9747
mostEv	-9748
Archive	-9749
GetSeed	-9750
cpuidle	-9751
dvector	-9752
gBufCtx	-9753
Absolute	-9754
ItemFrom	-9755
Keyboard	-9756
TableGet	-9757
entities	-9758
sampling	-9759
strstrip	-9760
RedBuffer	-9761
Algorithms	-9762
GlobalState	-9763
makeDBError	-9764
pairIKiiESt	-9765
TiXmlDocument	-9766
IsSubstringImpl	-9767
Dn	-9768
MT	-9769
402	-9770
Inf	-9771
etx	-9772
marg	-9773
msix	-9774
rdma	-9775
tile	-9776
Comma	-9777
_3964	-9778
graft	-9779
Counts	-9780
IoRead	-9781
Passed	-9782
backup	-9783
membuf	-9784
redraw	-9785
findnew	-9786
formula	-9787
openlog	-9788
AllocMem	-9789
Matching	-9790
Standard	-9791
consumer	-9792
isString	-9793
required	-9794
volatile	-9795
DumpBlock	-9796
implement	-9797
CollAppend	-9798
threadpool	-9799
BootManager	-9800
Sigemptyset	-9801
pixGetDepth	-9802
transmission	-9803
setcanceltype	-9804
VariableDefine	-9805
Fp	-9806
5>,	-9807
IfE	-9808
Ori	-9809
PPC	-9810
RSt	-9811
dfl	-9812
gsn	-9813
lsf	-9814
Slow	-9815
Tile	-9816
logs	-9817
lour	-9818
nums	-9819
rudp	-9820
Mount	-9821
Tmust	-9822
creer	-9823
immed	-9824
interp	-9825
referer	-9826
setfenv	-9827
Elements	-9828
LoadFile	-9829
isnumber	-9830
lockfile	-9831
semaforo	-9832
CoRoutine	-9833
StreamReader	-9834
SemanticCheck	-9835
FDD	-9836
PCD	-9837
pen	-9838
1_10	-9839
RSAP	-9840
_258	-9841
bull	-9842
isom	-9843
optr	-9844
qstr	-9845
RFCNB	-9846
amera	-9847
trail	-9848
bitrev	-9849
keymap	-9850
starts	-9851
AddNode	-9852
BStream	-9853
BTState	-9854
reclaim	-9855
stricmp	-9856
Buffered	-9857
disabled	-9858
Dispatcher	-9859
HawkString	-9860
connectors	-9861
addDynEntry	-9862
TIFFGetField	-9863
setLastError	-9864
BasicBlockSaIS	-9865
HawkStringUtil	-9866
PrettyUnitTest	-9867
000	-9868
488	-9869
FDM	-9870
Gsm	-9871
Ipc	-9872
Pwm	-9873
ERSo	-9874
IPNS	-9875
OFDM	-9876
STAT	-9877
_544	-9878
crete	-9879
pairs	-9880
ENGINE	-9881
FileIn	-9882
Points	-9883
_405914	-9884
_406086	-9885
_607448	-9886
ausible	-9887
geteuid	-9888
outline	-9889
SockAddr	-9890
TGZfname	-9891
ExprMatch	-9892
yyrestart	-9893
TGZnotfound	-9894
SkipDBRecord	-9895
vectorIPcSaIS	-9896
AddCharToBuffer	-9897
InteractiveHead	-9898
CurrentAllocator	-9899
encodeProduction	-9900
jp	-9901
pu	-9902
050	-9903
3]>	-9904
TDD	-9905
cpp	-9906
pts	-9907
tmh	-9908
EESE	-9909
GetP	-9910
UpDn	-9911
_670	-9912
acos	-9913
caid	-9914
lave	-9915
pdev	-9916
sbuf	-9917
e	-9918
_	-9919
t	-9920
r	-9921
s	-9922
a	-9923
i	-9924
n	-9925
o	-9926
c	-9927
l	-9928
p	-9929
d	-9930
f	-9931
m	-9932
u	-9933
S	-9934
I	-9935
T	-9936
g	-9937
N	-9938
R	-9939
G	-9940
:	-9941
h	-9942
b	-9943
k	-9944
y	-9945
v	-9946
x	-9947
w	-9948
E	-9949
1	-9950
<	-9951
>	-9952
P	-9953
2	-9954
C	-9955
6	-9956
q	-9957
0	-9958
A	-9959
F	-9960
D	-9961
8	-9962
,	-9963
4	-9964
z	-9965
3	-9966
M	-9967
L	-9968
B	-9969
▁	-9970
5	-9971
O	-9972
7	-9973
9	-9974
H	-9975
Z	-9976
*	-9977
j	-9978
K	-9979
U	-9980
V	-9981
W	-9982
Y	-9983
X	-9984
\	-9985
~	-9986
"	-9987
[	-9988
]	-9989
Q	-9990
J	-9991
.	-9992
/	-9993
)	-9994
