<pad>	0
<s>	0
</s>	0
<unk>	0
@@vars15@@	0
@@accept@@	0
@@patha@@	0
@@ut_name@@	0
@@v142@@	0
@@resource@@	0
@@fdc@@	0
@@base@@	0
@@nn@@	0
@@groupa@@	0
@@_RSI@@	0
@@nmemba@@	0
@@cmd@@	0
@@cpuset@@	0
@@v168@@	0
@@_170@@	0
@@a19@@	0
@@v125@@	0
@@v63@@	0
@@v72@@	0
@@addr_len@@	0
@@nptrf@@	0
@@v166@@	0
@@v141@@	0
@@servlen@@	0
@@fstype@@	0
@@cond@@	0
@@nmatch@@	0
@@v130@@	0
@@pglob@@	0
@@v2@@	0
@@v78@@	0
@@s1b@@	0
@@v83@@	0
@@format@@	0
@@_94@@	0
@@_130@@	0
@@v184@@	0
@@v47@@	0
@@v11@@	0
@@_RDX@@	0
@@oflaga@@	0
@@v145@@	0
@@events@@	0
@@pida@@	0
@@pattern@@	0
@@vars5@@	0
@@v67@@	0
@@_1B4@@	0
@@v104@@	0
@@v182@@	0
@@stat_buf@@	0
@@_74@@	0
@@whencea@@	0
@@cflags@@	0
@@_49@@	0
@@ovalue@@	0
@@requested_time@@	0
@@abstime@@	0
@@excepts@@	0
@@rwflag@@	0
@@v73@@	0
@@count@@	0
@@v123@@	0
@@suffixlen@@	0
@@vars58@@	0
@@epfd@@	0
@@stat_loc@@	0
@@f@@	0
@@a52@@	0
@@_R10@@	0
@@v116@@	0
@@v110@@	0
@@vars4@@	0
@@v98@@	0
@@_305@@	0
@@domainname@@	0
@@ifname@@	0
@@out@@	0
@@_7E0@@	0
@@_ECX@@	0
@@_199@@	0
@@a44@@	0
@@a102@@	0
@@value@@	0
@@v148@@	0
@@_4@@	0
@@v53@@	0
@@v20@@	0
@@sval@@	0
@@start@@	0
@@v30@@	0
@@v23@@	0
@@v76@@	0
@@pwc@@	0
@@dir@@	0
@@in@@	0
@@nptrc@@	0
@@_A8@@	0
@@patterna@@	0
@@s2b@@	0
@@v46@@	0
@@needlelen_4@@	0
@@j@@	0
@@var3C_1@@	0
@@_44@@	0
@@_70@@	0
@@stringp@@	0
@@delta@@	0
@@timer@@	0
@@_EBX@@	0
@@retval@@	0
@@codeset@@	0
@@readfds@@	0
@@argc@@	0
@@domaina@@	0
@@savedregsg@@	0
@@memptr@@	0
@@valuep@@	0
@@fds@@	0
@@v132@@	0
@@xa@@	0
@@v156@@	0
@@_3F8@@	0
@@v1181@@	0
@@vars64@@	0
@@ident@@	0
@@_315@@	0
@@dirname@@	0
@@compar@@	0
@@a66@@	0
@@v153@@	0
@@_R11@@	0
@@v174@@	0
@@e@@	0
@@v170@@	0
@@optname@@	0
@@v164@@	0
@@offa@@	0
@@vars188@@	0
@@semid@@	0
@@bufloc@@	0
@@v157@@	0
@@wd@@	0
@@s@@	0
@@v86@@	0
@@v10@@	0
@@vars16@@	0
@@vars5E8@@	0
@@pipedes@@	0
@@v99@@	0
@@serv@@	0
@@request@@	0
@@a30@@	0
@@n@@	0
@@_R14@@	0
@@ptr@@	0
@@a26@@	0
@@v124@@	0
@@v109@@	0
@@seedval_4@@	0
@@oldstate@@	0
@@in_fd@@	0
@@operation@@	0
@@category@@	0
@@oldtype@@	0
@@cpp@@	0
@@_RAX@@	0
@@flagsa@@	0
@@vars40@@	0
@@a67@@	0
@@inbuf@@	0
@@string@@	0
@@nbytes@@	0
@@tp_32@@	0
@@v138@@	0
@@msgtyp_4a@@	0
@@_182@@	0
@@v1182@@	0
@@_RDI@@	0
@@msgflg@@	0
@@v27@@	0
@@a61@@	0
@@arg@@	0
@@aslave@@	0
@@argz@@	0
@@v91@@	0
@@egid@@	0
@@_7F0@@	0
@@v34@@	0
@@stream@@	0
@@a24@@	0
@@cmsg@@	0
@@v137@@	0
@@vars90@@	0
@@_340@@	0
@@a63@@	0
@@locale@@	0
@@newa@@	0
@@a27@@	0
@@_468@@	0
@@v1191@@	0
@@v186@@	0
@@proj_id@@	0
@@maxsize@@	0
@@_40C@@	0
@@_540@@	0
@@_670@@	0
@@a18@@	0
@@ST00_32_4@@	0
@@v146@@	0
@@msqid@@	0
@@vars408@@	0
@@instring@@	0
@@lineptr@@	0
@@res@@	0
@@buflen@@	0
@@a87@@	0
@@v136@@	0
@@vars38@@	0
@@ifindex@@	0
@@v19@@	0
@@numer@@	0
@@queue_selector@@	0
@@_68@@	0
@@typea@@	0
@@vars28@@	0
@@filenamea@@	0
@@v42@@	0
@@size_4a@@	0
@@v29@@	0
@@hostlong@@	0
@@a54@@	0
@@detachstate@@	0
@@info@@	0
@@oldmask@@	0
@@timebuf@@	0
@@message@@	0
@@longopts@@	0
@@a59@@	0
@@_R8@@	0
@@srcc@@	0
@@v95@@	0
@@ecode@@	0
@@vars1@@	0
@@v70@@	0
@@a12@@	0
@@dst@@	0
@@a42@@	0
@@stringa@@	0
@@oset@@	0
@@address@@	0
@@optionp@@	0
@@a13@@	0
@@clock_id@@	0
@@mask@@	0
@@dirent@@	0
@@timerid@@	0
@@a108@@	0
@@v22@@	0
@@s1c@@	0
@@_420@@	0
@@v127@@	0
@@src@@	0
@@v88@@	0
@@a89@@	0
@@cpa@@	0
@@vars0a@@	0
@@sizeloc@@	0
@@vars1008@@	0
@@resultbuf@@	0
@@list_return@@	0
@@s2c@@	0
@@netlonga@@	0
@@_A0@@	0
@@a36@@	0
@@v90@@	0
@@streamb@@	0
@@streama@@	0
@@argv@@	0
@@v152@@	0
@@gc@@	0
@@item_8@@	0
@@guardsize@@	0
@@a29@@	0
@@_60@@	0
@@v108@@	0
@@a49@@	0
@@writefds@@	0
@@a47@@	0
@@pwordexp@@	0
@@v31@@	0
@@a88@@	0
@@_34@@	0
@@se@@	0
@@v9@@	0
@@v50@@	0
@@tp@@	0
@@xsubi@@	0
@@v173@@	0
@@off@@	0
@@_90@@	0
@@needlelena@@	0
@@fromcode@@	0
@@v192@@	0
@@a4@@	0
@@v107@@	0
@@v71@@	0
@@sem@@	0
@@len_4@@	0
@@v181@@	0
@@v259@@	0
@@v122@@	0
@@ifap@@	0
@@dirpa@@	0
@@a50@@	0
@@n_4a@@	0
@@_0@@	0
@@v100@@	0
@@filename@@	0
@@loadavg@@	0
@@a70@@	0
@@_ER10@@	0
@@a48@@	0
@@v97@@	0
@@l@@	0
@@vars0@@	0
@@a82@@	0
@@rem@@	0
@@set@@	0
@@nptr@@	0
@@modea@@	0
@@v92@@	0
@@alignment@@	0
@@minor@@	0
@@v44@@	0
@@v24@@	0
@@thread_return@@	0
@@a71@@	0
@@v15@@	0
@@state@@	0
@@v114@@	0
@@a45@@	0
@@shmaddr@@	0
@@options@@	0
@@_RCX@@	0
@@timeout@@	0
@@_E8@@	0
@@s1@@	0
@@a90@@	0
@@file@@	0
@@op@@	0
@@ca@@	0
@@haystackb@@	0
@@vars68@@	0
@@optlen@@	0
@@a73@@	0
@@cmap@@	0
@@offset_4@@	0
@@_R15@@	0
@@a2@@	0
@@tocode@@	0
@@sc@@	0
@@useconds@@	0
@@v171@@	0
@@needle@@	0
@@v179@@	0
@@xdr_results@@	0
@@_15D@@	0
@@_D680@@	0
@@nent@@	0
@@vars608@@	0
@@_C0@@	0
@@dev@@	0
@@n_7@@	0
@@v139@@	0
@@addr_4@@	0
@@v105@@	0
@@va@@	0
@@data@@	0
@@v187@@	0
@@special@@	0
@@array@@	0
@@ai@@	0
@@savedregsf@@	0
@@fd2@@	0
@@_5C@@	0
@@msgp@@	0
@@sb@@	0
@@v89@@	0
@@a41@@	0
@@_250@@	0
@@xdr_location@@	0
@@hostlonga@@	0
@@argb@@	0
@@hostlen@@	0
@@a38@@	0
@@maxlen_4@@	0
@@_58@@	0
@@hostp@@	0
@@maxlen_4a@@	0
@@v51@@	0
@@a56@@	0
@@errcodea@@	0
@@nptre@@	0
@@optval@@	0
@@facility@@	0
@@policy@@	0
@@v180@@	0
@@_5030@@	0
@@offset@@	0
@@msgid@@	0
@@pgrp_id@@	0
@@iptr@@	0
@@_20@@	0
@@v133@@	0
@@vars108@@	0
@@v60@@	0
@@salen@@	0
@@clnt@@	0
@@times@@	0
@@remaining@@	0
@@v195@@	0
@@buffer@@	0
@@v55@@	0
@@n_4@@	0
@@optional_actions@@	0
@@vars10@@	0
@@v74@@	0
@@v43@@	0
@@c@@	0
@@rwflaga@@	0
@@newthreada@@	0
@@v6@@	0
@@v169@@	0
@@a11@@	0
@@delim@@	0
@@vars17@@	0
@@_XMM4@@	0
@@text_prop@@	0
@@na@@	0
@@format_4@@	0
@@vars48@@	0
@@v77@@	0
@@speed@@	0
@@reject@@	0
@@exceptfds@@	0
@@name@@	0
@@fp@@	0
@@env@@	0
@@identa@@	0
@@group@@	0
@@a8@@	0
@@flags@@	0
@@prot@@	0
@@_XMM1@@	0
@@longind@@	0
@@length@@	0
@@a35@@	0
@@oldval@@	0
@@a1@@	0
@@errnuma@@	0
@@v39@@	0
@@argca@@	0
@@service@@	0
@@v131@@	0
@@off_4@@	0
@@v40@@	0
@@a34@@	0
@@wchar@@	0
@@v28@@	0
@@v103@@	0
@@th@@	0
@@cosx@@	0
@@_EDX@@	0
@@dest_4@@	0
@@ngroups@@	0
@@v126@@	0
@@formata@@	0
@@nb@@	0
@@new_len@@	0
@@v162@@	0
@@addr@@	0
@@a39@@	0
@@host@@	0
@@v84@@	0
@@sign@@	0
@@streamc@@	0
@@dirp@@	0
@@errbuf@@	0
@@srca@@	0
@@sinx@@	0
@@sd@@	0
@@amaster@@	0
@@savedregsd@@	0
@@fmt@@	0
@@v61@@	0
@@ll@@	0
@@start_routine@@	0
@@major@@	0
@@savedregsb@@	0
@@argcb@@	0
@@value_8@@	0
@@hostlong_4@@	0
@@jj@@	0
@@cb@@	0
@@v3@@	0
@@savedregsc@@	0
@@v128@@	0
@@arg_8@@	0
@@v1192@@	0
@@groups@@	0
@@oldlenp@@	0
@@v58@@	0
@@s_4@@	0
@@otmr@@	0
@@signo@@	0
@@special_file@@	0
@@a9@@	0
@@s1d@@	0
@@ptrb@@	0
@@msqida@@	0
@@v81@@	0
@@kk@@	0
@@value_list@@	0
@@a33@@	0
@@request_4@@	0
@@a72@@	0
@@rlimits@@	0
@@_78@@	0
@@a32@@	0
@@vars98@@	0
@@v41@@	0
@@expbuf@@	0
@@v101@@	0
@@v32@@	0
@@s1a@@	0
@@envpa@@	0
@@_28@@	0
@@oact@@	0
@@oucp@@	0
@@rwlock@@	0
@@flag@@	0
@@len@@	0
@@_RBP@@	0
@@statbuf@@	0
@@pa@@	0
@@v36@@	0
@@exponent@@	0
@@_FC0@@	0
@@ap@@	0
@@outbytesleft@@	0
@@from@@	0
@@_9C@@	0
@@a69@@	0
@@v59@@	0
@@scope@@	0
@@param@@	0
@@rectangles@@	0
@@v79@@	0
@@filea@@	0
@@proto@@	0
@@handler@@	0
@@nptrg@@	0
@@eflags@@	0
@@handle@@	0
@@vars128@@	0
@@a15@@	0
@@fid@@	0
@@_ESI@@	0
@@nenta@@	0
@@suid@@	0
@@semnum@@	0
@@v16@@	0
@@main@@	0
@@attrp@@	0
@@needlelen@@	0
@@_EC@@	0
@@shmflg@@	0
@@a60@@	0
@@v66@@	0
@@desta@@	0
@@v158@@	0
@@_FST7@@	0
@@v37@@	0
@@seed16v@@	0
@@id@@	0
@@_XMM3@@	0
@@stackaddr@@	0
@@a7@@	0
@@v68@@	0
@@_408@@	0
@@a57@@	0
@@v106@@	0
@@whence@@	0
@@a58@@	0
@@ubp_av@@	0
@@a10@@	0
@@templatea@@	0
@@euid@@	0
@@stack_end@@	0
@@a62@@	0
@@nmemb@@	0
@@v144@@	0
@@v26@@	0
@@seconds@@	0
@@v151@@	0
@@ST30_16_1@@	0
@@nstype@@	0
@@old@@	0
@@pri@@	0
@@a123@@	0
@@v140@@	0
@@decpt@@	0
@@nfds@@	0
@@maxsizea@@	0
@@v35@@	0
@@a91@@	0
@@v49@@	0
@@v167@@	0
@@mm@@	0
@@ii@@	0
@@v188@@	0
@@argd@@	0
@@v178@@	0
@@result_buf@@	0
@@how@@	0
@@save_ptr@@	0
@@v185@@	0
@@rqtp@@	0
@@k@@	0
@@protocol@@	0
@@event@@	0
@@mhdr@@	0
@@owner@@	0
@@nbytes_4@@	0
@@savedregs@@	0
@@fd@@	0
@@_38@@	0
@@a51@@	0
@@v175@@	0
@@thread2@@	0
@@a65@@	0
@@a14@@	0
@@req@@	0
@@time1@@	0
@@pathname@@	0
@@objp@@	0
@@vars5DF@@	0
@@v75@@	0
@@v134@@	0
@@v38@@	0
@@stacksize@@	0
@@sops@@	0
@@fildes@@	0
@@savedregsa@@	0
@@size_4@@	0
@@v56@@	0
@@xdrs@@	0
@@command@@	0
@@tokens@@	0
@@_R12@@	0
@@v7@@	0
@@inbytesleft@@	0
@@nptrb@@	0
@@_48@@	0
@@v189@@	0
@@to@@	0
@@mutexattr@@	0
@@x@@	0
@@v115@@	0
@@outbuf@@	0
@@a37@@	0
@@hostshort@@	0
@@child_stack@@	0
@@_ER8@@	0
@@nptrh@@	0
@@ntx@@	0
@@vars8@@	0
@@v52@@	0
@@_RBX@@	0
@@cookie@@	0
@@cond_attr@@	0
@@argvb@@	0
@@m@@	0
@@block@@	0
@@_4C@@	0
@@_1A0@@	0
@@v160@@	0
@@_1E6@@	0
@@val@@	0
@@cd@@	0
@@v5@@	0
@@v120@@	0
@@ipart@@	0
@@v143@@	0
@@a21@@	0
@@v93@@	0
@@barrier@@	0
@@s1_4@@	0
@@sizea@@	0
@@_XMM0@@	0
@@netlong@@	0
@@v57@@	0
@@channel@@	0
@@_514@@	0
@@var4@@	0
@@lista@@	0
@@v161@@	0
@@oldname@@	0
@@modes@@	0
@@v4@@	0
@@result@@	0
@@vars12@@	0
@@v8@@	0
@@basea@@	0
@@v85@@	0
@@_2A0@@	0
@@a55@@	0
@@mnt@@	0
@@errnum@@	0
@@a74@@	0
@@replace@@	0
@@dest_8@@	0
@@msgtyp_4@@	0
@@pointer@@	0
@@path@@	0
@@_50@@	0
@@start_routinea@@	0
@@shmida@@	0
@@errcode@@	0
@@v82@@	0
@@edflag@@	0
@@errbuf_size@@	0
@@haystacklen@@	0
@@termios_p@@	0
@@sf@@	0
@@v119@@	0
@@endptr@@	0
@@pai@@	0
@@v135@@	0
@@_24@@	0
@@v117@@	0
@@v14@@	0
@@_140@@	0
@@sgid@@	0
@@level@@	0
@@nfds_4@@	0
@@v25@@	0
@@a22@@	0
@@v45@@	0
@@msgsz@@	0
@@flagsb@@	0
@@a20@@	0
@@v87@@	0
@@v21@@	0
@@sigmask@@	0
@@a53@@	0
@@retaddr@@	0
@@formatb@@	0
@@ifa@@	0
@@_138@@	0
@@vars328@@	0
@@v54@@	0
@@v194@@	0
@@resolved@@	0
@@_400@@	0
@@kind@@	0
@@_120@@	0
@@statusc@@	0
@@_30@@	0
@@sa@@	0
@@v177@@	0
@@a6@@	0
@@vars1F8@@	0
@@_3C@@	0
@@file_times@@	0
@@lena@@	0
@@_BL@@	0
@@count_return@@	0
@@v190@@	0
@@wc@@	0
@@_40@@	0
@@newthread@@	0
@@v183@@	0
@@v80@@	0
@@seedval@@	0
@@a23@@	0
@@_51B0@@	0
@@salt@@	0
@@_2058@@	0
@@ucp@@	0
@@envp@@	0
@@v64@@	0
@@vars18@@	0
@@inherit@@	0
@@v129@@	0
@@pos@@	0
@@inp@@	0
@@ufd@@	0
@@bufa@@	0
@@user@@	0
@@statusa@@	0
@@domain@@	0
@@_FST6@@	0
@@_B0@@	0
@@key@@	0
@@pgrp@@	0
@@status@@	0
@@maxlena@@	0
@@pid@@	0
@@tvp@@	0
@@namea@@	0
@@v13@@	0
@@out_fd@@	0
@@v159@@	0
@@fdb@@	0
@@_E0@@	0
@@a46@@	0
@@up@@	0
@@s2@@	0
@@msgtyp@@	0
@@pathb@@	0
@@v96@@	0
@@_10@@	0
@@arga@@	0
@@_EAX@@	0
@@stat_loc_4@@	0
@@utmr@@	0
@@gid@@	0
@@pgid@@	0
@@v112@@	0
@@v150@@	0
@@_3F0@@	0
@@act@@	0
@@maxlen@@	0
@@salta@@	0
@@a25@@	0
@@ptra@@	0
@@v147@@	0
@@savedregse@@	0
@@oflag@@	0
@@v111@@	0
@@nbytesa@@	0
@@v172@@	0
@@usage@@	0
@@addrb@@	0
@@haystack@@	0
@@a40@@	0
@@vmessages@@	0
@@srcb@@	0
@@nodep@@	0
@@vars20@@	0
@@_R13@@	0
@@old_len@@	0
@@func@@	0
@@R@@	0
@@errnumb@@	0
@@s2a@@	0
@@mode@@	0
@@tz@@	0
@@list@@	0
@@points@@	0
@@namelist@@	0
@@mutex@@	0
@@a28@@	0
@@a43@@	0
@@v17@@	0
@@nptra@@	0
@@af@@	0
@@v69@@	0
@@preg@@	0
@@v1@@	0
@@v165@@	0
@@nmemb_4@@	0
@@iovec@@	0
@@vec@@	0
@@v121@@	0
@@shortopts@@	0
@@vars14@@	0
@@a5@@	0
@@v94@@	0
@@entry@@	0
@@newmask@@	0
@@buf@@	0
@@v33@@	0
@@fpa@@	0
@@v113@@	0
@@file_actions@@	0
@@valuea@@	0
@@size@@	0
@@v118@@	0
@@v176@@	0
@@i@@	0
@@addra@@	0
@@v62@@	0
@@attr@@	0
@@statusb@@	0
@@str@@	0
@@v163@@	0
@@h_errnop@@	0
@@seed@@	0
@@pmatch@@	0
@@tv@@	0
@@argva@@	0
@@fda@@	0
@@a16@@	0
@@vars100@@	0
@@semnuma@@	0
@@destb@@	0
@@vars320@@	0
@@addr_lena@@	0
@@v149@@	0
@@pwcs@@	0
@@a68@@	0
@@cp@@	0
@@vars13@@	0
@@p@@	0
@@vars208@@	0
@@type@@	0
@@v102@@	0
@@v154@@	0
@@lock@@	0
@@_3FA8@@	0
@@_4030@@	0
@@sig@@	0
@@v18@@	0
@@time0@@	0
@@v261@@	0
@@srcd@@	0
@@_XMM2@@	0
@@shmid@@	0
@@ecodea@@	0
@@ps@@	0
@@v155@@	0
@@v12@@	0
@@y@@	0
@@a3@@	0
@@a31@@	0
@@this@@	0
@@inc@@	0
@@hostname@@	0
@@v48@@	0
@@v0@@	0
@@uid@@	0
@@offseta@@	0
@@haystacka@@	0
@@v65@@	0
@@input@@	0
@@a17@@	0
@@_R9@@	0
@@nptrd@@	0
@@dest@@	0
@@evp@@	0
@@_440@@	0
▁(	-0
▁)	-1
▁;	-2
er	-3
▁*	-4
um	-5
▁N	-6
ber	-7
umber	-8
▁Number	-9
in	-10
▁_	-11
int	-12
▁,	-13
▁=	-14
▁__	-15
64	-16
▁+	-17
st	-18
si	-19
re	-20
ne	-21
OR	-22
▁{	-23
▁}	-24
sig	-25
ORD	-26
WORD	-27
ned	-28
signed	-29
▁i	-30
▁int	-31
▁c	-32
▁if	-33
un	-34
unsigned	-35
▁unsigned	-36
al	-37
ar	-38
QWORD	-39
▁re	-40
rn	-41
▁&	-42
tr	-43
ing	-44
tu	-45
turn	-46
▁return	-47
all	-48
se	-49
har	-50
▁S	-51
▁char	-52
tring	-53
fa	-54
▁String	-55
or	-56
call	-57
fast	-58
fastcall	-59
▁]	-60
▁[	-61
on	-62
▁<	-63
le	-64
DWORD	-65
▁f	-66
▁!	-67
▁st	-68
at	-69
▁>	-70
▁e	-71
▁p	-72
oc	-73
ad	-74
▁-	-75
▁signed	-76
it	-77
▁el	-78
id	-79
▁else	-80
en	-81
et	-82
__	-83
▁std	-84
▁con	-85
▁b	-86
▁d	-87
vo	-88
▁==	-89
void	-90
▁const	-91
▁s	-92
▁m	-93
rint	-94
TE	-95
BY	-96
BYTE	-97
ac	-98
te	-99
▁++	-100
▁void	-101
read	-102
lo	-103
▁g	-104
rintf	-105
ord	-106
word	-107
to	-108
▁str	-109
▁|	-110
▁>>	-111
ut	-112
ile	-113
▁w	-114
▁!=	-115
alloc	-116
me	-117
ree	-118
fs	-119
▁L	-120
de	-121
op	-122
uf	-123
rea	-124
16	-125
an	-126
qword	-127
ble	-128
err	-129
▁for	-130
▁:	-131
▁&&	-132
mp	-133
loc	-134
▁do	-135
ti	-136
reak	-137
▁break	-138
ss	-139
ase	-140
▁a	-141
readfs	-142
readfsqword	-143
ch	-144
printf	-145
ct	-146
buf	-147
ack	-148
set	-149
str	-150
cp	-151
▁<=	-152
AB	-153
EL	-154
ABEL	-155
▁LABEL	-156
ue	-157
▁wh	-158
▁while	-159
▁r	-160
ator	-161
uble	-162
ate	-163
li	-164
▁||	-165
em	-166
ent	-167
▁double	-168
add	-169
il	-170
▁free	-171
ze	-172
test	-173
ag	-174
ap	-175
co	-176
get	-177
▁case	-178
size	-179
_1	-180
ol	-181
▁test	-182
ite	-183
ve	-184
28	-185
con	-186
▁alloc	-187
he	-188
▁printf	-189
rite	-190
error	-191
128	-192
▁l	-193
▁>=	-194
mm	-195
cmp	-196
▁sy	-197
pe	-198
▁mem	-199
lock	-200
oto	-201
len	-202
▁get	-203
list	-204
▁ex	-205
ro	-206
vent	-207
▁goto	-208
▁allocator	-209
th	-210
▁+=	-211
sh	-212
ce	-213
ul	-214
ame	-215
acket	-216
and	-217
▁u	-218
▁stderr	-219
ir	-220
ati	-221
▁^	-222
est	-223
▁put	-224
fer	-225
addr	-226
string	-227
val	-228
▁testing	-229
▁T	-230
put	-231
▁<<	-232
▁P	-233
nt	-234
no	-235
▁fprintf	-236
is	-237
write	-238
loat	-239
its	-240
ex	-241
▁op	-242
ip	-243
up	-244
fi	-245
_2	-246
age	-247
▁t	-248
fl	-249
ess	-250
Re	-251
▁H	-252
ert	-253
▁size	-254
arg	-255
nd	-256
event	-257
able	-258
▁float	-259
ype	-260
▁de	-261
_6	-262
tion	-263
ation	-264
log	-265
ind	-266
mo	-267
cx	-268
lose	-269
▁exit	-270
▁strlen	-271
roc	-272
name	-273
acketbuf	-274
▁F	-275
time	-276
cxx	-277
cpu	-278
▁.	-279
▁se	-280
cpy	-281
ver	-282
init	-283
ute	-284
ur	-285
▁h	-286
thread	-287
▁A	-288
▁puts	-289
dat	-290
as	-291
buffer	-292
tra	-293
aw	-294
free	-295
rocess	-296
ace	-297
sic	-298
▁packetbuf	-299
asic	-300
ck	-301
char	-302
▁n	-303
traits	-304
ist	-305
req	-306
fo	-307
▁malloc	-308
nal	-309
▁z	-310
file	-311
11	-312
▁y	-313
▁strcmp	-314
ass	-315
ken	-316
▁read	-317
▁basic	-318
ow	-319
32	-320
rno	-321
In	-322
▁LO	-323
errno	-324
erator	-325
ug	-326
mer	-327
el	-328
xt	-329
ig	-330
▁sys	-331
▁yy	-332
68	-333
location	-334
out	-335
ult	-336
sy	-337
_4	-338
token	-339
▁qword	-340
▁--	-341
que	-342
▁sh	-343
po	-344
ock	-345
▁fwrite	-346
▁sym	-347
▁C	-348
ed	-349
value	-350
ort	-351
pi	-352
LE	-353
sc	-354
yte	-355
uct	-356
conf	-357
awk	-358
▁Hawk	-359
arse	-360
of	-361
ctor	-362
art	-363
ernal	-364
▁un	-365
▁M	-366
timer	-367
bug	-368
ter	-369
open	-370
ine	-371
ki	-372
ILE	-373
▁process	-374
OL	-375
▁bo	-376
ic	-377
▁zconf	-378
rent	-379
▁print	-380
De	-381
▁v	-382
ast	-383
data	-384
flag	-385
▁pevent	-386
▁pthread	-387
pr	-388
ost	-389
▁in	-390
ua	-391
trace	-392
ime	-393
BO	-394
fail	-395
stack	-396
▁internal	-397
type	-398
▁Test	-399
BOOL	-400
queue	-401
_3	-402
wit	-403
new	-404
▁struct	-405
print	-406
▁memset	-407
assert	-408
▁FILE	-409
arn	-410
▁perror	-411
air	-412
ay	-413
cl	-414
▁lua	-415
close	-416
utex	-417
unc	-418
ode	-419
io	-420
Test	-421
▁reg	-422
En	-423
eld	-424
▁uip	-425
▁sysfs	-426
ush	-427
▁ac	-428
rr	-429
▁cp	-430
▁pair	-431
info	-432
▁memcpy	-433
▁list	-434
unt	-435
urrent	-436
arning	-437
end	-438
witch	-439
▁log	-440
map	-441
opy	-442
ail	-443
▁x	-444
▁LODWORD	-445
oco	-446
▁operator	-447
mem	-448
ain	-449
dr	-450
_0	-451
▁ra	-452
ab	-453
▁Poco	-454
sg	-455
▁rime	-456
field	-457
code	-458
ke	-459
ser	-460
ufreq	-461
node	-462
6_	-463
sn	-464
attr	-465
heck	-466
_60	-467
▁G	-468
am	-469
▁|=	-470
▁set	-471
bo	-472
▁switch	-473
mutex	-474
▁rimeaddr	-475
if	-476
load	-477
reate	-478
ge	-479
orm	-480
▁close	-481
chk	-482
start	-483
lect	-484
ream	-485
▁B	-486
String	-487
▁k	-488
ash	-489
one	-490
os	-491
move	-492
▁loc	-493
send	-494
▁parse	-495
flags	-496
▁show	-497
comm	-498
▁unk	-499
vector	-500
ie	-501
fault	-502
hand	-503
lob	-504
table	-505
pid	-506
off	-507
▁raid	-508
seq	-509
tree	-510
sec	-511
pl	-512
bj	-513
pa	-514
▁U	-515
▁write	-516
▁check	-517
▁co	-518
text	-519
▁add	-520
▁send	-521
▁trace	-522
hel	-523
ler	-524
▁buf	-525
rom	-526
ink	-527
▁acpi	-528
enu	-529
copy	-530
head	-531
cy	-532
List	-533
_5	-534
back	-535
▁en	-536
ask	-537
byte	-538
base	-539
packet	-540
reg	-541
next	-542
▁sock	-543
ok	-544
comp	-545
top	-546
che	-547
ong	-548
page	-549
cle	-550
▁-=	-551
try	-552
▁vector	-553
▁E	-554
▁arg	-555
ice	-556
_8	-557
fil	-558
DE	-559
sult	-560
igh	-561
om	-562
fd	-563
ma	-564
date	-565
ptr	-566
ub	-567
▁D	-568
ange	-569
▁ch	-570
▁byte	-571
Co	-572
find	-573
sp	-574
ix	-575
▁boost	-576
ment	-577
▁opt	-578
▁is	-579
ot	-580
ath	-581
ull	-582
▁dword	-583
cr	-584
ump	-585
St	-586
▁->	-587
ted	-588
▁asn	-589
sym	-590
red	-591
dup	-592
func	-593
▁current	-594
vp	-595
fig	-596
ec	-597
fn	-598
▁debug	-599
dd	-600
qu	-601
line	-602
ali	-603
Err	-604
▁strn	-605
▁expr	-606
▁I	-607
nit	-608
warning	-609
putc	-610
▁sprintf	-611
md	-612
▁sn	-613
DEF	-614
handler	-615
opt	-616
▁time	-617
▁fclose	-618
ty	-619
cep	-620
▁default	-621
cpufreq	-622
Get	-623
sys	-624
bc	-625
Result	-626
To	-627
filter	-628
arr	-629
check	-630
▁HI	-631
▁bool	-632
▁queue	-633
gn	-634
▁putchar	-635
atch	-636
▁find	-637
ity	-638
decl	-639
Set	-640
▁le	-641
2_	-642
num	-643
▁fopen	-644
freq	-645
Con	-646
▁ft	-647
count	-648
gnu	-649
nel	-650
od	-651
▁snprintf	-652
im	-653
cdecl	-654
ild	-655
1_	-656
▁main	-657
▁gz	-658
output	-659
item	-660
▁ro	-661
▁ht	-662
oy	-663
ory	-664
us	-665
iterator	-666
Rb	-667
▁col	-668
bol	-669
IG	-670
stroy	-671
per	-672
▁Re	-673
_10	-674
tal	-675
Error	-676
Info	-677
pre	-678
vel	-679
block	-680
const	-681
▁error	-682
flate	-683
▁ma	-684
16_	-685
ener	-686
ml	-687
tp	-688
CC	-689
from	-690
▁ut	-691
▁Unit	-692
point	-693
mple	-694
hell	-695
▁tv	-696
▁tests	-697
stat	-698
▁sem	-699
process	-700
unlock	-701
create	-702
▁warning	-703
dex	-704
▁ctimer	-705
ative	-706
_9	-707
etail	-708
▁lob	-709
▁strerror	-710
ait	-711
bl	-712
ard	-713
▁collect	-714
▁SW	-715
▁event	-716
▁open	-717
Se	-718
▁wpa	-719
▁sig	-720
dis	-721
ata	-722
32_	-723
▁SWIG	-724
flush	-725
essage	-726
msg	-727
▁new	-728
bytes	-729
ns	-730
▁my	-731
ctype	-732
▁UnitTest	-733
Obj	-734
link	-735
scr	-736
debug	-737
PE	-738
callback	-739
port	-740
malloc	-741
▁util	-742
act	-743
ress	-744
sion	-745
parse	-746
pend	-747
▁BYTE	-748
lete	-749
neigh	-750
dir	-751
ule	-752
ction	-753
cast	-754
▁tr	-755
net	-756
datap	-757
sert	-758
▁stdout	-759
ister	-760
▁strcpy	-761
▁De	-762
bor	-763
_7	-764
key	-765
cpi	-766
pec	-767
ans	-768
neighbor	-769
look	-770
es	-771
_15	-772
Native	-773
bits	-774
ib	-775
can	-776
▁LOBYTE	-777
▁Acpi	-778
▁init	-779
sr	-780
ect	-781
▁string	-782
ep	-783
ache	-784
▁to	-785
rap	-786
▁stat	-787
push	-788
▁R	-789
ated	-790
10	-791
scan	-792
cv	-793
ds	-794
▁err	-795
▁cpufreq	-796
hdr	-797
vice	-798
▁conf	-799
ector	-800
hash	-801
ception	-802
▁line	-803
stream	-804
▁at	-805
sock	-806
CE	-807
▁die	-808
mod	-809
▁V	-810
▁o	-811
▁envp	-812
_16	-813
pro	-814
Init	-815
af	-816
bit	-817
mpty	-818
chr	-819
dep	-820
her	-821
do	-822
IN	-823
Ex	-824
vm	-825
▁&=	-826
TR	-827
▁Py	-828
pdate	-829
ek	-830
lookup	-831
▁regs	-832
▁strto	-833
▁av	-834
config	-835
ud	-836
tl	-837
Pr	-838
entry	-839
array	-840
▁dprint	-841
Ptr	-842
_12	-843
common	-844
lab	-845
▁queuebuf	-846
licy	-847
be	-848
File	-849
Name	-850
remove	-851
▁less	-852
der	-853
pt	-854
ph	-855
fprintf	-856
level	-857
▁uint	-858
lim	-859
iver	-860
ence	-861
ext	-862
road	-863
env	-864
sio	-865
for	-866
roadcast	-867
nore	-868
▁fputc	-869
Py	-870
state	-871
icast	-872
_11	-873
xor	-874
valid	-875
▁word	-876
▁page	-877
▁asio	-878
db	-879
di	-880
arch	-881
are	-882
pc	-883
Tr	-884
▁buffer	-885
ipt	-886
▁menu	-887
Node	-888
Lo	-889
_17	-890
bss	-891
▁file	-892
fatal	-893
oll	-894
_40	-895
▁pro	-896
rt	-897
menu	-898
ify	-899
▁timer	-900
Vector	-901
▁strdup	-902
ormat	-903
ECC	-904
▁TA	-905
▁calloc	-906
▁uECC	-907
▁pre	-908
ero	-909
clear	-910
range	-911
umer	-912
▁sp	-913
9_	-914
mpl	-915
YPE	-916
heap	-917
IO	-918
▁realloc	-919
rame	-920
mac	-921
number	-922
▁text	-923
lat	-924
norm	-925
▁regflags	-926
noreturn	-927
bool	-928
Al	-929
_14	-930
▁HIDWORD	-931
command	-932
ger	-933
▁q	-934
dataptr	-935
script	-936
destroy	-937
_13	-938
cc	-939
policy	-940
ER	-941
Enumer	-942
▁rand	-943
header	-944
Enumerated	-945
NativeEnumerated	-946
Po	-947
sa	-948
register	-949
_18	-950
▁Get	-951
ng	-952
mode	-953
▁sa	-954
ID	-955
▁Abc	-956
▁msg	-957
gx	-958
▁pr	-959
▁strc	-960
cov	-961
Code	-962
▁input	-963
Type	-964
▁hton	-965
Int	-966
50	-967
Case	-968
_20	-969
fin	-970
▁off	-971
normal	-972
ore	-973
▁O	-974
64_	-975
cho	-976
▁ngx	-977
▁long	-978
obj	-979
aram	-980
▁shell	-981
alize	-982
▁memcmp	-983
▁strchr	-984
▁route	-985
scriptor	-986
Str	-987
ci	-988
met	-989
asm	-990
▁j	-991
mask	-992
▁cs	-993
ure	-994
ize	-995
symbol	-996
thon	-997
server	-998
▁clock	-999
▁us	-1000
Event	-1001
host	-1002
Python	-1003
▁ab	-1004
▁ptr	-1005
▁an	-1006
OWORD	-1007
epi	-1008
ts	-1009
mar	-1010
var	-1011
▁ad	-1012
insert	-1013
annel	-1014
ertion	-1015
iv	-1016
stats	-1017
▁strncmp	-1018
alue	-1019
Listener	-1020
inter	-1021
update	-1022
▁printk	-1023
Read	-1024
▁fd	-1025
_23	-1026
andle	-1027
index	-1028
cs	-1029
path	-1030
▁syslog	-1031
lease	-1032
ht	-1033
▁Message	-1034
etch	-1035
▁memb	-1036
space	-1037
yn	-1038
▁update	-1039
▁last	-1040
Data	-1041
empty	-1042
▁detail	-1043
seek	-1044
▁png	-1045
driver	-1046
ison	-1047
EM	-1048
Base	-1049
▁cr	-1050
cache	-1051
ial	-1052
atu	-1053
sort	-1054
Buf	-1055
▁GC	-1056
sum	-1057
wap	-1058
gth	-1059
unter	-1060
TYPE	-1061
_61	-1062
vli	-1063
▁lm	-1064
lobal	-1065
std	-1066
▁Debug	-1067
▁strncpy	-1068
long	-1069
current	-1070
stem	-1071
tin	-1072
allocator	-1073
octl	-1074
▁hash	-1075
▁SH	-1076
exp	-1077
▁argc	-1078
crit	-1079
_22	-1080
pg	-1081
▁ap	-1082
ker	-1083
Select	-1084
▁per	-1085
fetch	-1086
▁fflush	-1087
Print	-1088
tions	-1089
rand	-1090
zero	-1091
cur	-1092
80	-1093
imple	-1094
ched	-1095
names	-1096
mount	-1097
by	-1098
irst	-1099
uest	-1100
unk	-1101
dev	-1102
▁elf	-1103
▁create	-1104
low	-1105
Alloc	-1106
▁ver	-1107
raw	-1108
fix	-1109
input	-1110
adio	-1111
Stream	-1112
use	-1113
rg	-1114
nsec	-1115
▁^=	-1116
Write	-1117
cb	-1118
▁vo	-1119
0_	-1120
▁argv	-1121
ement	-1122
_39	-1123
ill	-1124
cycle	-1125
go	-1126
ssert	-1127
▁run	-1128
▁base	-1129
ive	-1130
und	-1131
user	-1132
sol	-1133
choice	-1134
double	-1135
▁lock	-1136
has	-1137
max	-1138
sub	-1139
exit	-1140
float	-1141
son	-1142
▁wait	-1143
fg	-1144
lient	-1145
▁TestCase	-1146
descriptor	-1147
▁ser	-1148
AS	-1149
poison	-1150
Msg	-1151
▁ssize	-1152
_607	-1153
▁os	-1154
_62	-1155
Block	-1156
ctl	-1157
scanf	-1158
▁nr	-1159
_21	-1160
▁ip	-1161
cond	-1162
my	-1163
uild	-1164
abled	-1165
alc	-1166
▁MEM	-1167
ORY	-1168
ls	-1169
nounc	-1170
nouncement	-1171
tinue	-1172
At	-1173
unmap	-1174
Prop	-1175
snprintf	-1176
oi	-1177
mit	-1178
▁MEMORY	-1179
ra	-1180
rot	-1181
radio	-1182
ire	-1183
ft	-1184
▁comp	-1185
▁stb	-1186
mmu	-1187
null	-1188
_19	-1189
▁sockaddr	-1190
▁ioctl	-1191
alen	-1192
offset	-1193
ST	-1194
datalen	-1195
mt	-1196
latile	-1197
cess	-1198
▁continue	-1199
ion	-1200
▁abort	-1201
old	-1202
▁io	-1203
▁inflate	-1204
▁mdb	-1205
▁CO	-1206
▁null	-1207
ps	-1208
min	-1209
encode	-1210
gets	-1211
▁num	-1212
ower	-1213
istate	-1214
▁regex	-1215
ocol	-1216
tristate	-1217
▁max	-1218
ach	-1219
ibute	-1220
ssertion	-1221
ight	-1222
nect	-1223
atus	-1224
ialize	-1225
pected	-1226
From	-1227
row	-1228
▁socket	-1229
▁Simple	-1230
dump	-1231
av	-1232
stderr	-1233
stop	-1234
▁irr	-1235
▁core	-1236
inher	-1237
Mem	-1238
▁symbol	-1239
▁Assertion	-1240
ql	-1241
app	-1242
append	-1243
inherit	-1244
▁te	-1245
99_	-1246
run	-1247
tup	-1248
Le	-1249
▁deflate	-1250
del	-1251
isoc	-1252
trix	-1253
handle	-1254
▁usage	-1255
cmd	-1256
▁sc	-1257
ary	-1258
pd	-1259
vir	-1260
▁Ex	-1261
▁make	-1262
erty	-1263
length	-1264
trans	-1265
packetbuf	-1266
mul	-1267
indent	-1268
▁dump	-1269
3_	-1270
▁atoi	-1271
sprintf	-1272
odule	-1273
expected	-1274
Add	-1275
hex	-1276
compar	-1277
▁debugfs	-1278
leep	-1279
format	-1280
▁rax	-1281
ant	-1282
Entry	-1283
ared	-1284
exception	-1285
raph	-1286
part	-1287
alph	-1288
conn	-1289
Table	-1290
Property	-1291
_24	-1292
▁AssertionResult	-1293
gr	-1294
▁htons	-1295
tab	-1296
▁recv	-1297
▁rb	-1298
▁SD	-1299
Un	-1300
▁volatile	-1301
▁Lock	-1302
Assert	-1303
Is	-1304
cord	-1305
alpha	-1306
▁LOWORD	-1307
gin	-1308
search	-1309
udp	-1310
cnt	-1311
▁SimpleString	-1312
▁asc	-1313
Path	-1314
_26	-1315
ceive	-1316
nc	-1317
▁TestEvent	-1318
▁handle	-1319
rray	-1320
IT	-1321
va	-1322
rotocol	-1323
▁etimer	-1324
store	-1325
IR	-1326
▁fread	-1327
Efi	-1328
fields	-1329
ren	-1330
uid	-1331
▁tm	-1332
▁po	-1333
wn	-1334
▁File	-1335
PI	-1336
25	-1337
timet	-1338
▁Cu	-1339
wpoison	-1340
ies	-1341
Size	-1342
EA	-1343
vert	-1344
▁errorCode	-1345
br	-1346
cpus	-1347
▁tls	-1348
▁copy	-1349
timetable	-1350
reloc	-1351
▁shm	-1352
AT	-1353
ility	-1354
col	-1355
Arg	-1356
olite	-1357
decode	-1358
▁remove	-1359
puts	-1360
▁luaL	-1361
Call	-1362
▁gEfi	-1363
▁W	-1364
▁announcement	-1365
coder	-1366
wor	-1367
SL	-1368
▁out	-1369
tag	-1370
ssion	-1371
20	-1372
Free	-1373
▁si	-1374
uction	-1375
tk	-1376
▁fatal	-1377
gf	-1378
▁Ti	-1379
▁slab	-1380
ift	-1381
Part	-1382
48	-1383
Value	-1384
mess	-1385
own	-1386
AC	-1387
▁map	-1388
▁child	-1389
4_	-1390
▁root	-1391
message	-1392
ERCE	-1393
▁COERCE	-1394
▁xmm	-1395
ref	-1396
▁cmd	-1397
asecmp	-1398
sm	-1399
▁*=	-1400
lag	-1401
▁nl	-1402
cry	-1403
sent	-1404
30	-1405
delete	-1406
▁packet	-1407
ance	-1408
gen	-1409
▁tcp	-1410
sk	-1411
action	-1412
▁broadcast	-1413
ier	-1414
change	-1415
▁next	-1416
Fail	-1417
90	-1418
counter	-1419
ACE	-1420
▁fgets	-1421
nta	-1422
▁dis	-1423
ON	-1424
canf	-1425
param	-1426
ust	-1427
▁heap	-1428
▁link	-1429
with	-1430
▁TestProperty	-1431
memory	-1432
nsecs	-1433
bose	-1434
lear	-1435
▁acl	-1436
address	-1437
toh	-1438
▁mmap	-1439
tx	-1440
_1_	-1441
FILE	-1442
▁http	-1443
sse	-1444
ev	-1445
ick	-1446
core	-1447
dom	-1448
arrier	-1449
Id	-1450
PartResult	-1451
dp	-1452
▁..	-1453
▁...	-1454
wait	-1455
recov	-1456
uc	-1457
▁ntoh	-1458
mountpoint	-1459
▁strcat	-1460
▁En	-1461
ey	-1462
local	-1463
bs	-1464
60	-1465
Log	-1466
ll	-1467
Parse	-1468
ring	-1469
ors	-1470
▁munmap	-1471
ture	-1472
▁va	-1473
roup	-1474
cept	-1475
OU	-1476
allocate	-1477
▁global	-1478
mmand	-1479
▁net	-1480
rw	-1481
▁Q	-1482
help	-1483
DD	-1484
Comp	-1485
alse	-1486
crypt	-1487
▁optarg	-1488
amp	-1489
deg	-1490
▁mfd	-1491
▁output	-1492
ang	-1493
▁sub	-1494
Buffer	-1495
bserver	-1496
And	-1497
bin	-1498
memb	-1499
▁indent	-1500
▁unicast	-1501
ake	-1502
▁inet	-1503
▁delete	-1504
reset	-1505
acti	-1506
match	-1507
Var	-1508
vec	-1509
struction	-1510
ply	-1511
40	-1512
mark	-1513
erm	-1514
Enabled	-1515
impl	-1516
alk	-1517
fc	-1518
packets	-1519
ward	-1520
Out	-1521
Sh	-1522
function	-1523
appdata	-1524
degree	-1525
RR	-1526
58	-1527
▁fa	-1528
▁getenv	-1529
▁events	-1530
▁gcc	-1531
▁ev	-1532
▁DebugAssert	-1533
usec	-1534
▁cpu	-1535
ers	-1536
ff	-1537
tric	-1538
spec	-1539
six	-1540
End	-1541
▁prog	-1542
Object	-1543
struct	-1544
metric	-1545
calc	-1546
parent	-1547
98	-1548
our	-1549
matrix	-1550
Inte	-1551
FF	-1552
LO	-1553
▁seq	-1554
lement	-1555
rate	-1556
break	-1557
Array	-1558
Op	-1559
sync	-1560
▁allocate	-1561
▁false	-1562
Pi	-1563
fp	-1564
Ntk	-1565
▁li	-1566
prop	-1567
ield	-1568
post	-1569
iter	-1570
▁spin	-1571
fr	-1572
ugin	-1573
imate	-1574
▁TestPartResult	-1575
jo	-1576
Integer	-1577
modify	-1578
▁prefetch	-1579
aff	-1580
qual	-1581
oft	-1582
avail	-1583
any	-1584
first	-1585
switch	-1586
http	-1587
ING	-1588
70	-1589
▁data	-1590
war	-1591
▁host	-1592
▁al	-1593
etails	-1594
listen	-1595
▁getnsecs	-1596
▁mac	-1597
▁>>=	-1598
▁db	-1599
form	-1600
iable	-1601
ove	-1602
request	-1603
▁ptrace	-1604
Create	-1605
cover	-1606
ference	-1607
fic	-1608
▁random	-1609
▁kvp	-1610
olsr	-1611
▁soft	-1612
Message	-1613
estimate	-1614
▁rt	-1615
▁TestInfo	-1616
Fix	-1617
cat	-1618
▁dp	-1619
MP	-1620
▁olsr	-1621
▁rl	-1622
▁signal	-1623
sip	-1624
ery	-1625
poll	-1626
Frame	-1627
Find	-1628
ew	-1629
viron	-1630
disable	-1631
▁bind	-1632
▁system	-1633
ummy	-1634
▁strcasecmp	-1635
mat	-1636
▁config	-1637
slab	-1638
ctory	-1639
▁timerlist	-1640
UN	-1641
▁softfloat	-1642
88	-1643
▁wpabuf	-1644
ists	-1645
Attr	-1646
play	-1647
Byte	-1648
Current	-1649
arser	-1650
▁name	-1651
Impl	-1652
▁strstr	-1653
▁count	-1654
frame	-1655
▁gettext	-1656
▁cur	-1657
arget	-1658
TRACE	-1659
▁temp	-1660
cu	-1661
lin	-1662
12	-1663
He	-1664
▁nullradio	-1665
▁Ab	-1666
Char	-1667
Count	-1668
▁thread	-1669
chunk	-1670
_32	-1671
▁di	-1672
▁Init	-1673
▁mk	-1674
▁Basic	-1675
▁module	-1676
fac	-1677
domain	-1678
ches	-1679
limit	-1680
▁LC	-1681
Ut	-1682
ho	-1683
▁aren	-1684
ynam	-1685
▁end	-1686
UG	-1687
▁SSL	-1688
lic	-1689
▁exp	-1690
Time	-1691
iled	-1692
strdup	-1693
fence	-1694
NO	-1695
ssize	-1696
nection	-1697
ource	-1698
8_	-1699
depth	-1700
ynamic	-1701
alias	-1702
STR	-1703
▁memmove	-1704
uple	-1705
▁sql	-1706
rtmetric	-1707
vern	-1708
Deque	-1709
vironment	-1710
▁ERR	-1711
ony	-1712
socket	-1713
▁PTRACE	-1714
facility	-1715
ipher	-1716
main	-1717
release	-1718
mous	-1719
onymous	-1720
attribute	-1721
nl	-1722
indow	-1723
▁bit	-1724
▁adns	-1725
Tuple	-1726
sockopt	-1727
▁gpg	-1728
ith	-1729
▁func	-1730
acc	-1731
▁gen	-1732
fy	-1733
▁hwpoison	-1734
exec	-1735
default	-1736
▁channel	-1737
object	-1738
client	-1739
stract	-1740
signal	-1741
pass	-1742
ilter	-1743
▁AcpiUt	-1744
options	-1745
sign	-1746
esh	-1747
lass	-1748
pect	-1749
▁secs	-1750
Caller	-1751
mq	-1752
▁wps	-1753
▁gEfiCaller	-1754
validate	-1755
▁prefetchnta	-1756
realloc	-1757
▁sqlite	-1758
receive	-1759
compress	-1760
ager	-1761
memcpy	-1762
die	-1763
args	-1764
_8_	-1765
kernel	-1766
▁timetable	-1767
▁qsort	-1768
▁Environment	-1769
ema	-1770
Details	-1771
cre	-1772
▁MPI	-1773
discover	-1774
msr	-1775
▁verbose	-1776
▁type	-1777
Ap	-1778
BaseName	-1779
▁Abstract	-1780
▁MAS	-1781
▁SHL	-1782
▁SHLBYTE	-1783
day	-1784
▁modules	-1785
▁call	-1786
▁ks	-1787
▁Cudd	-1788
Strings	-1789
▁walk	-1790
_37	-1791
uto	-1792
verse	-1793
▁HIBYTE	-1794
irq	-1795
▁sscanf	-1796
▁clear	-1797
tqueue	-1798
plugin	-1799
trol	-1800
device	-1801
▁iommu	-1802
▁Is	-1803
breakpoint	-1804
og	-1805
uth	-1806
▁Node	-1807
▁arena	-1808
▁gpgme	-1809
Hel	-1810
ide	-1811
▁packetqueue	-1812
38	-1813
Man	-1814
Line	-1815
▁HIWORD	-1816
hread	-1817
▁sk	-1818
▁BasicBlock	-1819
chema	-1820
▁prop	-1821
▁addr	-1822
errs	-1823
alig	-1824
vi	-1825
mil	-1826
Sp	-1827
▁timeval	-1828
▁Tr	-1829
acer	-1830
▁strtoul	-1831
▁term	-1832
eno	-1833
xml	-1834
▁osip	-1835
▁In	-1836
▁TestDetails	-1837
oped	-1838
Inter	-1839
▁unlink	-1840
Schema	-1841
gcov	-1842
ux	-1843
▁cmdline	-1844
▁sort	-1845
▁stbi	-1846
igrate	-1847
tract	-1848
exists	-1849
▁crc	-1850
pm	-1851
mily	-1852
getc	-1853
ParseTuple	-1854
unch	-1855
gram	-1856
STRING	-1857
▁PyArg	-1858
▁zconfin	-1859
anup	-1860
31	-1861
21	-1862
▁Gen	-1863
ostream	-1864
class	-1865
▁queued	-1866
connect	-1867
▁vir	-1868
BS	-1869
expect	-1870
ops	-1871
afe	-1872
sl	-1873
cel	-1874
Report	-1875
ader	-1876
ilk	-1877
Ch	-1878
status	-1879
SetError	-1880
gt	-1881
▁setsockopt	-1882
▁lseek	-1883
ialized	-1884
cd	-1885
eof	-1886
▁fputs	-1887
▁seqan	-1888
Silk	-1889
begin	-1890
family	-1891
Helper	-1892
_41	-1893
stamp	-1894
shift	-1895
last	-1896
▁ai	-1897
govern	-1898
Reg	-1899
adow	-1900
broadcast	-1901
service	-1902
root	-1903
▁decode	-1904
▁socklen	-1905
hdrptr	-1906
▁sr	-1907
umask	-1908
Failure	-1909
Check	-1910
ont	-1911
78	-1912
agment	-1913
▁dl	-1914
▁start	-1915
34	-1916
attributes	-1917
Dis	-1918
cntl	-1919
order	-1920
Token	-1921
rotocolSchema	-1922
_29	-1923
Tracer	-1924
pack	-1925
▁LockTracer	-1926
▁rw	-1927
▁sched	-1928
unicast	-1929
▁short	-1930
▁Set	-1931
▁no	-1932
lags	-1933
PP	-1934
▁trans	-1935
Bo	-1936
nerrs	-1937
▁zconfnerrs	-1938
▁ProtocolSchema	-1939
dy	-1940
available	-1941
Bit	-1942
Sub	-1943
locks	-1944
setup	-1945
_38	-1946
State	-1947
▁icl	-1948
▁eval	-1949
gate	-1950
over	-1951
_610	-1952
sd	-1953
▁BUG	-1954
▁push	-1955
_25	-1956
lineno	-1957
US	-1958
cancel	-1959
For	-1960
▁fseek	-1961
▁htonl	-1962
▁wrap	-1963
Lock	-1964
Len	-1965
warned	-1966
als	-1967
gbl	-1968
yes	-1969
▁Vec	-1970
▁bb	-1971
Look	-1972
sched	-1973
▁stdin	-1974
eq	-1975
cont	-1976
▁virtqueue	-1977
Next	-1978
ofday	-1979
tify	-1980
uty	-1981
cmpgt	-1982
color	-1983
ax	-1984
timeofday	-1985
ian	-1986
▁Value	-1987
BLE	-1988
ency	-1989
sure	-1990
zma	-1991
▁load	-1992
mpt	-1993
▁Var	-1994
utycycle	-1995
DOU	-1996
DOUBLE	-1997
pf	-1998
ctr	-1999
▁poll	-2000
▁ostream	-2001
usage	-2002
IS	-2003
▁md	-2004
Graph	-2005
tests	-2006
00	-2007
▁block	-2008
lower	-2009
▁asprintf	-2010
pagesize	-2011
Update	-2012
Destroy	-2013
rname	-2014
cipher	-2015
▁Sh	-2016
▁total	-2017
Tree	-2018
ED	-2019
ssi	-2020
▁Trace	-2021
▁Red	-2022
New	-2023
expi	-2024
▁fcntl	-2025
loop	-2026
pool	-2027
work	-2028
imer	-2029
▁dummy	-2030
▁runicast	-2031
iod	-2032
▁gbl	-2033
Pro	-2034
▁SDL	-2035
wr	-2036
nown	-2037
▁rad	-2038
shell	-2039
owercycle	-2040
rwlock	-2041
509_	-2042
inate	-2043
pos	-2044
▁aes	-2045
▁BIO	-2046
▁dutycycle	-2047
▁server	-2048
rome	-2049
tific	-2050
ape	-2051
deps	-2052
tran	-2053
route	-2054
▁strtol	-2055
locked	-2056
▁strtok	-2057
▁mfn	-2058
cfg	-2059
save	-2060
synd	-2061
syndrome	-2062
nout	-2063
59	-2064
Pool	-2065
result	-2066
_42	-2067
omic	-2068
chang	-2069
ulate	-2070
Memory	-2071
▁sleep	-2072
uccess	-2073
▁mat	-2074
dire	-2075
▁hvm	-2076
DC	-2077
fanout	-2078
Ser	-2079
▁posix	-2080
hard	-2081
NativeInteger	-2082
tem	-2083
face	-2084
▁gf	-2085
strerror	-2086
Func	-2087
channel	-2088
▁getopt	-2089
5_	-2090
sample	-2091
▁vm	-2092
▁Mem	-2093
proc	-2094
▁ipolite	-2095
▁stunicast	-2096
Ac	-2097
verify	-2098
▁local	-2099
▁resol	-2100
spon	-2101
ME	-2102
fill	-2103
▁Read	-2104
discovery	-2105
irectory	-2106
▁Lzma	-2107
▁zconfalloc	-2108
elim	-2109
▁Print	-2110
WN	-2111
▁Add	-2112
▁SDM	-2113
Os	-2114
version	-2115
join	-2116
ench	-2117
seals	-2118
eliminate	-2119
Element	-2120
▁stats	-2121
▁strr	-2122
▁ker	-2123
▁state	-2124
iff	-2125
NOWN	-2126
quit	-2127
▁cpumask	-2128
build	-2129
Record	-2130
dx	-2131
▁Con	-2132
▁be	-2133
▁var	-2134
▁index	-2135
body	-2136
Card	-2137
PC	-2138
pthread	-2139
barrier	-2140
▁ll	-2141
ped	-2142
jmp	-2143
ErrorType	-2144
ument	-2145
Hash	-2146
sponse	-2147
▁bench	-2148
▁HawkMsg	-2149
rel	-2150
▁pfn	-2151
▁DIR	-2152
down	-2153
uint	-2154
▁EV	-2155
▁getpid	-2156
24	-2157
rb	-2158
▁cfs	-2159
▁gettimeofday	-2160
rd	-2161
Mutex	-2162
Convert	-2163
CT	-2164
▁getpagesize	-2165
yp	-2166
ware	-2167
▁DebugPrint	-2168
▁insert	-2169
Format	-2170
atic	-2171
files	-2172
short	-2173
▁fill	-2174
curname	-2175
Val	-2176
TO	-2177
query	-2178
▁vfprintf	-2179
▁ir	-2180
uce	-2181
rx	-2182
Task	-2183
▁scsi	-2184
expr	-2185
▁encode	-2186
resh	-2187
▁TraceInfo	-2188
entity	-2189
26	-2190
Enc	-2191
_30	-2192
Attribute	-2193
Device	-2194
Fixture	-2195
▁it	-2196
system	-2197
Reset	-2198
lib	-2199
ocket	-2200
Allocator	-2201
ickle	-2202
▁mpc	-2203
▁target	-2204
ms	-2205
gg	-2206
▁bbcp	-2207
mb	-2208
sw	-2209
byteswap	-2210
ld	-2211
▁GTest	-2212
Shell	-2213
hdralloc	-2214
queued	-2215
ssimp	-2216
_28	-2217
aunch	-2218
ole	-2219
timestamp	-2220
▁St	-2221
▁ntohl	-2222
▁Current	-2223
enerate	-2224
AD	-2225
▁fork	-2226
▁kernel	-2227
pare	-2228
pop	-2229
shared	-2230
▁EVP	-2231
_27	-2232
lay	-2233
_16_	-2234
Num	-2235
context	-2236
▁tcpip	-2237
tern	-2238
child	-2239
▁rootmenu	-2240
ulti	-2241
enc	-2242
▁bsearch	-2243
▁xmalloc	-2244
Results	-2245
▁Assimp	-2246
▁vsnprintf	-2247
rs	-2248
▁TI	-2249
even	-2250
Mode	-2251
wd	-2252
▁fm	-2253
Guid	-2254
CD	-2255
ii	-2256
group	-2257
▁launch	-2258
▁raw	-2259
failed	-2260
ius	-2261
plit	-2262
Const	-2263
sed	-2264
make	-2265
Index	-2266
Trans	-2267
sscanf	-2268
▁pix	-2269
tification	-2270
resol	-2271
▁gp	-2272
cxa	-2273
▁LockGraph	-2274
ave	-2275
frequ	-2276
▁HawkMsgListener	-2277
27	-2278
▁stbroadcast	-2279
▁Net	-2280
ready	-2281
emap	-2282
▁node	-2283
▁lj	-2284
▁BN	-2285
ank	-2286
▁benchmark	-2287
▁CR	-2288
expired	-2289
ggle	-2290
session	-2291
within	-2292
activ	-2293
▁command	-2294
▁exec	-2295
cn	-2296
warn	-2297
▁observer	-2298
▁pt	-2299
strlen	-2300
prefetch	-2301
apic	-2302
▁reloc	-2303
OC	-2304
erase	-2305
▁gBS	-2306
sighandler	-2307
_6075	-2308
▁turn	-2309
rep	-2310
▁wl	-2311
pel	-2312
callbacks	-2313
▁bc	-2314
isra	-2315
▁field	-2316
SetErrorMsg	-2317
▁fp	-2318
Equal	-2319
▁regexec	-2320
Exception	-2321
attern	-2322
▁pg	-2323
tries	-2324
ected	-2325
▁cache	-2326
ids	-2327
tb	-2328
Level	-2329
▁radius	-2330
nsors	-2331
Protocol	-2332
tail	-2333
▁FilePath	-2334
transmit	-2335
crement	-2336
eneric	-2337
Reporter	-2338
ef	-2339
▁Int	-2340
▁uci	-2341
iommu	-2342
▁resolv	-2343
▁dup	-2344
Lookback	-2345
oid	-2346
Map	-2347
▁abc	-2348
gfexp	-2349
sizes	-2350
▁connect	-2351
left	-2352
quo	-2353
Iter	-2354
▁profile	-2355
control	-2356
prefix	-2357
strto	-2358
▁TR	-2359
▁syscall	-2360
_47	-2361
_66	-2362
etach	-2363
usercall	-2364
ict	-2365
way	-2366
CON	-2367
▁Tcl	-2368
▁rp	-2369
Sy	-2370
▁dns	-2371
With	-2372
eval	-2373
EN	-2374
▁IO	-2375
▁serial	-2376
lone	-2377
affected	-2378
128_	-2379
ueue	-2380
▁polite	-2381
▁futex	-2382
_44	-2383
Counter	-2384
otification	-2385
olph	-2386
▁rud	-2387
▁rudolph	-2388
_606	-2389
conds	-2390
pdx	-2391
▁ne	-2392
uper	-2393
▁append	-2394
MA	-2395
fscanf	-2396
▁format	-2397
def	-2398
▁fl	-2399
events	-2400
sql	-2401
▁on	-2402
ior	-2403
▁verify	-2404
▁TIFF	-2405
Finder	-2406
timeout	-2407
uration	-2408
pages	-2409
bail	-2410
▁bpf	-2411
YP	-2412
bcfg	-2413
▁lString	-2414
connection	-2415
▁rename	-2416
▁List	-2417
source	-2418
▁table	-2419
▁dirent	-2420
18	-2421
▁expand	-2422
visi	-2423
Col	-2424
not	-2425
ios	-2426
eter	-2427
▁unix	-2428
inal	-2429
mote	-2430
14	-2431
sition	-2432
▁rbcfg	-2433
▁sigaction	-2434
▁ctime	-2435
▁semop	-2436
▁namespace	-2437
andler	-2438
tokenname	-2439
xer	-2440
▁array	-2441
migrate	-2442
hardware	-2443
Run	-2444
YPTO	-2445
dl	-2446
▁atomic	-2447
▁anonymous	-2448
auth	-2449
ntop	-2450
option	-2451
internal	-2452
As	-2453
random	-2454
ingPi	-2455
odd	-2456
sor	-2457
found	-2458
▁ring	-2459
▁SHA	-2460
▁wir	-2461
▁wiringPi	-2462
mc	-2463
RV	-2464
Dele	-2465
Space	-2466
Pre	-2467
57	-2468
loader	-2469
relocs	-2470
_32_	-2471
▁tc	-2472
ta	-2473
▁th	-2474
▁CRYPTO	-2475
Number	-2476
fpu	-2477
Item	-2478
recv	-2479
▁je	-2480
restart	-2481
Of	-2482
▁stream	-2483
▁CurrentTest	-2484
flg	-2485
uff	-2486
▁mcount	-2487
▁big	-2488
idth	-2489
▁build	-2490
ypto	-2491
▁fr	-2492
we	-2493
swap	-2494
TP	-2495
fmt	-2496
▁or	-2497
Command	-2498
ivate	-2499
unregister	-2500
▁shadow	-2501
▁mpi	-2502
▁ntohs	-2503
_46	-2504
LI	-2505
oper	-2506
Param	-2507
active	-2508
reduce	-2509
aligned	-2510
Delegate	-2511
▁destroy	-2512
non	-2513
▁pag	-2514
_611	-2515
wind	-2516
emove	-2517
▁readd	-2518
mage	-2519
Qu	-2520
sq	-2521
Comm	-2522
▁wchar	-2523
FramePP	-2524
▁readdir	-2525
Stack	-2526
▁rpl	-2527
▁mo	-2528
imm	-2529
fined	-2530
notify	-2531
ly	-2532
right	-2533
testShell	-2534
▁initialized	-2535
pending	-2536
▁zmq	-2537
▁zalloc	-2538
▁xml	-2539
hod	-2540
ensure	-2541
▁isc	-2542
▁udp	-2543
success	-2544
▁Exception	-2545
Pcd	-2546
▁ff	-2547
▁id	-2548
▁Event	-2549
enabled	-2550
▁leds	-2551
AR	-2552
par	-2553
AN	-2554
▁listen	-2555
REA	-2556
calloc	-2557
▁closedir	-2558
▁mutex	-2559
_43	-2560
▁<<=	-2561
▁matches	-2562
ISOR	-2563
YPERV	-2564
▁HYPERV	-2565
▁HYPERVISOR	-2566
Expr	-2567
App	-2568
trap	-2569
▁sha	-2570
▁iw	-2571
hook	-2572
▁tlsv	-2573
▁Dynamic	-2574
qpel	-2575
2__	-2576
▁Co	-2577
inj	-2578
prompt	-2579
Cont	-2580
til	-2581
Socket	-2582
▁mp	-2583
inc	-2584
Identity	-2585
optT	-2586
▁rtnl	-2587
▁UtestShell	-2588
ner	-2589
cleanup	-2590
▁compute	-2591
▁Memory	-2592
slabs	-2593
Handle	-2594
Struct	-2595
▁opend	-2596
encrypt	-2597
13	-2598
lot	-2599
quest	-2600
ish	-2601
▁cmp	-2602
place	-2603
▁Check	-2604
access	-2605
cnf	-2606
▁hashname	-2607
▁cpv	-2608
▁mode	-2609
INT	-2610
▁opendir	-2611
gent	-2612
▁MD	-2613
▁PyErr	-2614
lf	-2615
▁Auto	-2616
ings	-2617
Thread	-2618
▁hdr	-2619
▁match	-2620
ocab	-2621
▁restore	-2622
ning	-2623
onent	-2624
cvt	-2625
▁filter	-2626
iction	-2627
Lib	-2628
gest	-2629
Tp	-2630
▁ksft	-2631
ctrl	-2632
23	-2633
▁bam	-2634
fopen	-2635
entries	-2636
AF	-2637
Point	-2638
gment	-2639
atchFinder	-2640
pageflags	-2641
gi	-2642
▁Directory	-2643
curr	-2644
▁AutoPtr	-2645
response	-2646
guest	-2647
86	-2648
igit	-2649
▁stack	-2650
Ref	-2651
▁calc	-2652
ipe	-2653
Void	-2654
CA	-2655
ingle	-2656
ctx	-2657
niter	-2658
▁dest	-2659
▁dbg	-2660
assertion	-2661
na	-2662
RG	-2663
mis	-2664
Text	-2665
54	-2666
ension	-2667
Instruction	-2668
▁tcache	-2669
clk	-2670
Encode	-2671
istory	-2672
Manager	-2673
iz	-2674
Debug	-2675
▁osl	-2676
PtrAnd	-2677
inity	-2678
quoted	-2679
256_	-2680
▁Copy	-2681
Module	-2682
pfn	-2683
▁Al	-2684
Header	-2685
▁task	-2686
▁select	-2687
▁checked	-2688
pix	-2689
▁swap	-2690
termin	-2691
Ver	-2692
gfmul	-2693
▁begin	-2694
TET	-2695
ssl	-2696
▁del	-2697
Ad	-2698
▁alloca	-2699
Status	-2700
▁wor	-2701
errup	-2702
idx	-2703
shm	-2704
big	-2705
▁class	-2706
keep	-2707
▁agent	-2708
▁timespec	-2709
affs	-2710
ution	-2711
aux	-2712
mfence	-2713
▁HawkApp	-2714
lstring	-2715
card	-2716
▁fscanf	-2717
Printf	-2718
▁scoped	-2719
▁kbuffer	-2720
NC	-2721
▁sizeof	-2722
42	-2723
Fact	-2724
▁Release	-2725
chars	-2726
uare	-2727
▁man	-2728
regex	-2729
mov	-2730
Queue	-2731
Encoder	-2732
▁pagemap	-2733
done	-2734
▁pci	-2735
throw	-2736
mi	-2737
▁perf	-2738
syscall	-2739
used	-2740
label	-2741
box	-2742
AP	-2743
bi	-2744
hest	-2745
limits	-2746
defined	-2747
BB	-2748
▁key	-2749
Output	-2750
▁avio	-2751
Own	-2752
▁BDD	-2753
cvtsi	-2754
▁bzero	-2755
Copy	-2756
▁tpm	-2757
SH	-2758
▁rimestats	-2759
Page	-2760
▁trickle	-2761
ses	-2762
_49	-2763
OCTET	-2764
▁Free	-2765
▁mesh	-2766
▁so	-2767
Length	-2768
▁waiting	-2769
▁SHI	-2770
backward	-2771
▁pop	-2772
▁pack	-2773
▁Shared	-2774
▁we	-2775
testing	-2776
Mesh	-2777
enable	-2778
Long	-2779
sysfs	-2780
endian	-2781
▁toggle	-2782
sky	-2783
desc	-2784
oly	-2785
SON	-2786
▁pow	-2787
older	-2788
aint	-2789
▁register	-2790
▁mt	-2791
mach	-2792
putstr	-2793
operation	-2794
hton	-2795
task	-2796
▁use	-2797
mary	-2798
interval	-2799
▁fs	-2800
CONT	-2801
▁barrier	-2802
machine	-2803
extract	-2804
nbr	-2805
Component	-2806
pression	-2807
governor	-2808
▁addrinfo	-2809
params	-2810
ition	-2811
ai	-2812
gz	-2813
ized	-2814
▁TestResults	-2815
ulong	-2816
iodic	-2817
Bytes	-2818
affinity	-2819
rec	-2820
It	-2821
bd	-2822
▁HawkObj	-2823
▁sin	-2824
hwpoison	-2825
▁rlim	-2826
ighest	-2827
▁Sc	-2828
Right	-2829
▁emit	-2830
mmap	-2831
module	-2832
Per	-2833
idget	-2834
Handler	-2835
▁first	-2836
▁multi	-2837
wf	-2838
ROL	-2839
▁ios	-2840
▁bclk	-2841
▁kill	-2842
▁sensors	-2843
grow	-2844
Decoder	-2845
ark	-2846
▁ircc	-2847
expand	-2848
ell	-2849
Fan	-2850
igger	-2851
Delete	-2852
▁ge	-2853
▁rec	-2854
▁Reference	-2855
▁save	-2856
Pointer	-2857
rink	-2858
Policy	-2859
detail	-2860
▁SharedPtr	-2861
ak	-2862
changed	-2863
tls	-2864
upper	-2865
filename	-2866
tsd	-2867
Iterator	-2868
section	-2869
Cmd	-2870
ivsky	-2871
rapivsky	-2872
▁skip	-2873
▁frame	-2874
Or	-2875
▁sigset	-2876
▁rdi	-2877
▁krapivsky	-2878
tex	-2879
iority	-2880
▁crypto	-2881
track	-2882
▁bl	-2883
chksum	-2884
EE	-2885
ding	-2886
checksum	-2887
▁pl	-2888
sets	-2889
stringstream	-2890
▁relocs	-2891
apd	-2892
Inst	-2893
ases	-2894
▁GTestLog	-2895
▁all	-2896
gov	-2897
crc	-2898
▁qmemcpy	-2899
▁ReleasePolicy	-2900
▁sim	-2901
▁AcpiG	-2902
▁constr	-2903
▁AcpiGbl	-2904
▁zconffree	-2905
▁zconfensure	-2906
arp	-2907
ES	-2908
known	-2909
▁xode	-2910
▁irrAllocator	-2911
▁sq	-2912
ret	-2913
ants	-2914
pen	-2915
6_2	-2916
▁kh	-2917
pixel	-2918
watch	-2919
quire	-2920
▁Alloc	-2921
56	-2922
▁bcf	-2923
symbols	-2924
enti	-2925
hy	-2926
ale	-2927
PtrAndOwn	-2928
ConvertPtrAndOwn	-2929
ody	-2930
chain	-2931
lice	-2932
▁AcpiOs	-2933
▁orc	-2934
44	-2935
▁exception	-2936
PA	-2937
drv	-2938
nack	-2939
select	-2940
▁rootEntry	-2941
PER	-2942
▁receive	-2943
FO	-2944
finv	-2945
funcs	-2946
gfinv	-2947
ictionary	-2948
dups	-2949
Dyn	-2950
▁draw	-2951
cap	-2952
width	-2953
▁AS	-2954
▁curr	-2955
xit	-2956
▁cgi	-2957
serve	-2958
▁vocab	-2959
secs	-2960
▁bots	-2961
▁Notification	-2962
pic	-2963
Flags	-2964
flo	-2965
fragment	-2966
Body	-2967
37	-2968
▁Err	-2969
▁nas	-2970
▁safe	-2971
52	-2972
▁Format	-2973
▁seek	-2974
Group	-2975
08	-2976
▁xfree	-2977
▁mm	-2978
▁deque	-2979
Ro	-2980
tell	-2981
askvalue	-2982
toa	-2983
▁old	-2984
sfence	-2985
compare	-2986
record	-2987
Ext	-2988
unp	-2989
Factory	-2990
emp	-2991
▁iio	-2992
Vol	-2993
▁abs	-2994
▁construct	-2995
▁lookup	-2996
inte	-2997
REAL	-2998
▁hostapd	-2999
ular	-3000
▁Write	-3001
ination	-3002
cene	-3003
TestCase	-3004
▁avg	-3005
acro	-3006
TestResult	-3007
▁Sig	-3008
ded	-3009
ope	-3010
None	-3011
▁go	-3012
Dict	-3013
hdrreduce	-3014
Empty	-3015
encies	-3016
sha	-3017
▁compare	-3018
coding	-3019
▁dep	-3020
NoneStruct	-3021
▁tolower	-3022
PO	-3023
▁worker	-3024
Input	-3025
namespace	-3026
▁Str	-3027
▁fds	-3028
Shift	-3029
dec	-3030
man	-3031
osc	-3032
Core	-3033
ose	-3034
shal	-3035
▁ref	-3036
▁highest	-3037
Loc	-3038
_64	-3039
▁window	-3040
Config	-3041
▁Internal	-3042
▁pattern	-3043
alive	-3044
ferred	-3045
tive	-3046
▁client	-3047
▁nlmsg	-3048
Interlocked	-3049
arm	-3050
▁Un	-3051
river	-3052
ProtocolGuid	-3053
hold	-3054
▁logRecord	-3055
ains	-3056
Class	-3057
▁mysql	-3058
Open	-3059
Filter	-3060
seconds	-3061
▁hdrptr	-3062
Pos	-3063
constants	-3064
PAIR	-3065
▁fragment	-3066
▁dsk	-3067
35	-3068
anonymous	-3069
received	-3070
oop	-3071
▁flags	-3072
ROR	-3073
addrinfo	-3074
ob	-3075
flow	-3076
agg	-3077
Trace	-3078
inode	-3079
sive	-3080
▁user	-3081
▁bin	-3082
unpck	-3083
No	-3084
udit	-3085
eg	-3086
assign	-3087
orted	-3088
▁eloop	-3089
ee	-3090
▁psock	-3091
▁shmctl	-3092
▁MatchFinder	-3093
96	-3094
mlAttribute	-3095
regate	-3096
▁ringbuf	-3097
▁mos	-3098
▁Error	-3099
▁hex	-3100
prote	-3101
aliases	-3102
▁srand	-3103
istr	-3104
wake	-3105
yaffs	-3106
▁pipe	-3107
▁search	-3108
▁Scoped	-3109
▁min	-3110
frequencies	-3111
▁Log	-3112
▁kpageflags	-3113
governors	-3114
terminate	-3115
▁encounter	-3116
announcement	-3117
edge	-3118
▁ARG	-3119
Dec	-3120
ced	-3121
▁vmx	-3122
Build	-3123
▁neighbor	-3124
vmas	-3125
increment	-3126
prev	-3127
Close	-3128
▁scan	-3129
Do	-3130
inst	-3131
▁ext	-3132
▁IN	-3133
▁lib	-3134
▁strbuf	-3135
▁ru	-3136
attrs	-3137
▁scene	-3138
▁UnitTestImpl	-3139
04	-3140
rsdp	-3141
aggregate	-3142
att	-3143
leon	-3144
ameleon	-3145
related	-3146
ea	-3147
▁kvm	-3148
res	-3149
pipe	-3150
helper	-3151
values	-3152
▁empty	-3153
total	-3154
▁AcpiD	-3155
▁usleep	-3156
RI	-3157
real	-3158
program	-3159
schedule	-3160
▁mpiPi	-3161
temp	-3162
▁HT	-3163
Flag	-3164
full	-3165
PU	-3166
▁SL	-3167
dynamic	-3168
▁HawkAppObj	-3169
tom	-3170
▁ARGTYPE	-3171
strn	-3172
Global	-3173
Th	-3174
_2_	-3175
Exit	-3176
▁chameleon	-3177
▁regfree	-3178
integer	-3179
▁bitmap	-3180
DB	-3181
▁length	-3182
ramm	-3183
wo	-3184
arge	-3185
pred	-3186
visible	-3187
▁alias	-3188
AL	-3189
▁Parse	-3190
andoc	-3191
IL	-3192
▁strrchr	-3193
gzf	-3194
DS	-3195
report	-3196
just	-3197
▁statfs	-3198
lem	-3199
element	-3200
▁feof	-3201
▁Ch	-3202
parser	-3203
▁mandoc	-3204
By	-3205
▁lockdep	-3206
▁timed	-3207
▁periodic	-3208
51	-3209
▁mdoc	-3210
ObjFan	-3211
clu	-3212
rammar	-3213
marshal	-3214
idle	-3215
bittest	-3216
atab	-3217
keepalive	-3218
▁sf	-3219
▁boot	-3220
aper	-3221
Final	-3222
Constant	-3223
▁bgzf	-3224
Addr	-3225
Max	-3226
split	-3227
show	-3228
uffle	-3229
iffer	-3230
▁HawkObjBase	-3231
▁rap	-3232
acing	-3233
ffset	-3234
getpc	-3235
copyto	-3236
▁topo	-3237
▁waitpid	-3238
53	-3239
Function	-3240
su	-3241
unlocked	-3242
global	-3243
WA	-3244
Util	-3245
flood	-3246
keys	-3247
▁strip	-3248
ga	-3249
▁display	-3250
ause	-3251
▁Thread	-3252
counters	-3253
▁netflood	-3254
17	-3255
conv	-3256
▁date	-3257
udd	-3258
large	-3259
▁cl	-3260
world	-3261
accept	-3262
▁LzmaEnc	-3263
▁car	-3264
reply	-3265
activity	-3266
▁attributes	-3267
CB	-3268
strings	-3269
UL	-3270
▁wr	-3271
ateg	-3272
Ind	-3273
ading	-3274
▁cle	-3275
▁compower	-3276
reverse	-3277
straint	-3278
ideo	-3279
▁vmov	-3280
protect	-3281
94	-3282
Remove	-3283
▁vring	-3284
exchange	-3285
vb	-3286
▁iup	-3287
constprop	-3288
▁DD	-3289
▁FT	-3290
11_	-3291
▁retransmit	-3292
pk	-3293
fine	-3294
region	-3295
Compare	-3296
▁cfg	-3297
OUT	-3298
uni	-3299
lnet	-3300
▁SLO	-3301
36	-3302
▁prctl	-3303
aliz	-3304
finish	-3305
pga	-3306
miter	-3307
htons	-3308
▁this	-3309
▁cb	-3310
ise	-3311
atabase	-3312
▁shared	-3313
▁strrcmp	-3314
Word	-3315
ntax	-3316
▁xen	-3317
▁STR	-3318
sending	-3319
▁store	-3320
▁TE	-3321
▁reset	-3322
▁ps	-3323
▁has	-3324
▁OPER	-3325
Pl	-3326
▁depfile	-3327
errupt	-3328
Dir	-3329
DU	-3330
resolution	-3331
▁xer	-3332
fies	-3333
iptr	-3334
chn	-3335
loor	-3336
▁chk	-3337
align	-3338
graph	-3339
▁powercycle	-3340
FS	-3341
▁token	-3342
compute	-3343
▁optind	-3344
initialize	-3345
now	-3346
Gate	-3347
▁accept	-3348
FLO	-3349
STAT	-3350
json	-3351
▁destination	-3352
prog	-3353
▁clone	-3354
Cr	-3355
Grammar	-3356
▁sm	-3357
▁nsecs	-3358
cli	-3359
ton	-3360
▁SLODWORD	-3361
upp	-3362
points	-3363
cedence	-3364
▁RT	-3365
zalloc	-3366
fe	-3367
▁emm	-3368
CS	-3369
▁fabs	-3370
lowpass	-3371
did	-3372
rdc	-3373
▁nullrdc	-3374
Net	-3375
▁some	-3376
constant	-3377
Head	-3378
▁flush	-3379
▁bignum	-3380
conns	-3381
Descriptor	-3382
CF	-3383
ceiver	-3384
_50	-3385
Red	-3386
WAIT	-3387
▁WORD	-3388
▁lastport	-3389
215	-3390
▁mod	-3391
Start	-3392
Context	-3393
athTest	-3394
hop	-3395
kip	-3396
Field	-3397
unpckl	-3398
unction	-3399
▁Range	-3400
▁epoll	-3401
▁prepare	-3402
▁Wait	-3403
▁someone	-3404
siz	-3405
peat	-3406
Image	-3407
33	-3408
▁setup	-3409
▁release	-3410
gettime	-3411
_55	-3412
pair	-3413
▁comm	-3414
▁qu	-3415
▁ener	-3416
sist	-3417
equal	-3418
iffies	-3419
FLOAT	-3420
▁fstat	-3421
STATUS	-3422
Decode	-3423
▁inflateEnd	-3424
xpg	-3425
streaming	-3426
264_	-3427
decrypt	-3428
jiffies	-3429
▁message	-3430
warding	-3431
mlElement	-3432
eros	-3433
uster	-3434
ual	-3435
putchar	-3436
verbose	-3437
▁dat	-3438
▁eap	-3439
▁fvec	-3440
static	-3441
▁deallocate	-3442
inject	-3443
▁inflateInit	-3444
CDL	-3445
diff	-3446
safe	-3447
Address	-3448
Unit	-3449
▁cond	-3450
gettop	-3451
▁floor	-3452
ntoa	-3453
▁voff	-3454
strcmp	-3455
wakeup	-3456
complete	-3457
▁dict	-3458
80215	-3459
mlString	-3460
▁chunk	-3461
pointer	-3462
▁sqrt	-3463
frames	-3464
MAC	-3465
verti	-3466
ayload	-3467
nodes	-3468
▁cudd	-3469
settop	-3470
bot	-3471
802154_	-3472
units	-3473
odv	-3474
▁rel	-3475
Append	-3476
▁TEST	-3477
▁chan	-3478
pin	-3479
▁Widget	-3480
directory	-3481
▁ASN	-3482
uninit	-3483
▁Po	-3484
Action	-3485
cted	-3486
au	-3487
Pack	-3488
gre	-3489
▁regcomp	-3490
DevicePath	-3491
variable	-3492
sport	-3493
ardown	-3494
▁deflateEnd	-3495
aut	-3496
instruction	-3497
▁mnt	-3498
summary	-3499
Release	-3500
hexdump	-3501
lex	-3502
cursive	-3503
▁energest	-3504
tcp	-3505
Timer	-3506
▁graph	-3507
Database	-3508
vt	-3509
Dump	-3510
mon	-3511
▁telnet	-3512
▁fdarray	-3513
scii	-3514
▁hmac	-3515
▁SHIDWORD	-3516
Send	-3517
UMP	-3518
aster	-3519
GetDict	-3520
▁Array	-3521
plugins	-3522
atexit	-3523
secp	-3524
UMPOUT	-3525
cursor	-3526
emptyset	-3527
mfn	-3528
patch	-3529
▁multihop	-3530
anti	-3531
▁hashtab	-3532
▁code	-3533
Push	-3534
_6073	-3535
EP	-3536
▁rrep	-3537
▁generate	-3538
EY	-3539
▁gl	-3540
▁Unity	-3541
pan	-3542
ness	-3543
abort	-3544
BC	-3545
reference	-3546
Server	-3547
SI	-3548
EAM	-3549
▁RTMP	-3550
tot	-3551
▁ed	-3552
▁cos	-3553
chunks	-3554
mlNode	-3555
pushvalue	-3556
▁progress	-3557
Sc	-3558
▁convert	-3559
▁ic	-3560
tables	-3561
▁mosquit	-3562
bitmap	-3563
▁guest	-3564
▁recent	-3565
▁variable	-3566
EC	-3567
▁PyModule	-3568
Bits	-3569
▁gethost	-3570
72	-3571
SY	-3572
ping	-3573
▁ua	-3574
First	-3575
▁pollfd	-3576
▁SDMComponent	-3577
UD	-3578
swig	-3579
▁uaodv	-3580
▁Se	-3581
shuffle	-3582
imension	-3583
pio	-3584
▁Pro	-3585
Allocate	-3586
ports	-3587
reason	-3588
All	-3589
rtimer	-3590
▁buflen	-3591
▁Function	-3592
▁HawkGate	-3593
bg	-3594
▁Coll	-3595
▁rtimer	-3596
sole	-3597
Driver	-3598
arameter	-3599
mult	-3600
bump	-3601
reshold	-3602
Register	-3603
▁eb	-3604
Range	-3605
rpc	-3606
timers	-3607
changable	-3608
39	-3609
byname	-3610
15	-3611
▁access	-3612
wrap	-3613
▁adv	-3614
▁vx	-3615
scape	-3616
▁migrate	-3617
▁Reg	-3618
ainer	-3619
ical	-3620
▁fail	-3621
▁as	-3622
numa	-3623
weight	-3624
DF	-3625
Macro	-3626
inmemb	-3627
ailed	-3628
▁package	-3629
▁hostent	-3630
utdown	-3631
autoc	-3632
SetConstant	-3633
▁inter	-3634
pushstring	-3635
tchn	-3636
ifi	-3637
USER	-3638
▁pc	-3639
otag	-3640
actor	-3641
swigconstant	-3642
printk	-3643
olean	-3644
ync	-3645
arameterized	-3646
vcpu	-3647
▁remote	-3648
▁arp	-3649
powercycle	-3650
▁Parameterized	-3651
▁Stream	-3652
▁ist	-3653
▁errbuf	-3654
74	-3655
BIT	-3656
Query	-3657
▁ferror	-3658
mid	-3659
bolic	-3660
▁tmp	-3661
DA	-3662
anity	-3663
Sec	-3664
symbolic	-3665
deinit	-3666
Temp	-3667
bind	-3668
▁validate	-3669
skip	-3670
▁bad	-3671
content	-3672
mport	-3673
url	-3674
▁To	-3675
▁dir	-3676
otate	-3677
▁res	-3678
detach	-3679
Offset	-3680
asize	-3681
maddr	-3682
▁Dump	-3683
▁OA	-3684
▁apic	-3685
SIG	-3686
lector	-3687
CL	-3688
bu	-3689
mmx	-3690
Encoding	-3691
rl	-3692
Sim	-3693
Observer	-3694
zone	-3695
▁avail	-3696
vents	-3697
▁strl	-3698
▁fix	-3699
inits	-3700
Exchange	-3701
initscan	-3702
led	-3703
▁omp	-3704
71	-3705
Fixed	-3706
Arr	-3707
Met	-3708
image	-3709
▁chdir	-3710
ToString	-3711
self	-3712
▁force	-3713
55	-3714
div	-3715
NA	-3716
ear	-3717
wt	-3718
xy	-3719
sid	-3720
▁Signal	-3721
generate	-3722
▁inflateReset	-3723
▁spe	-3724
latency	-3725
warf	-3726
▁Create	-3727
If	-3728
peg	-3729
binary	-3730
Mat	-3731
Loader	-3732
trapped	-3733
dict	-3734
▁yyr	-3735
▁STREAM	-3736
_48	-3737
▁pp	-3738
▁cram	-3739
fstring	-3740
restore	-3741
▁pid	-3742
teardown	-3743
slot	-3744
totlen	-3745
adverti	-3746
▁istype	-3747
Mult	-3748
SA	-3749
One	-3750
▁amd	-3751
▁opts	-3752
autocon	-3753
▁red	-3754
▁ERROR	-3755
99	-3756
round	-3757
Bl	-3758
▁Channel	-3759
wc	-3760
▁ph	-3761
Valid	-3762
Variable	-3763
autoconfig	-3764
▁post	-3765
▁Extra	-3766
bus	-3767
eap	-3768
area	-3769
igest	-3770
errors	-3771
Port	-3772
▁nla	-3773
Cache	-3774
▁genl	-3775
Insert	-3776
82	-3777
sibl	-3778
▁par	-3779
advertise	-3780
let	-3781
Double	-3782
ations	-3783
▁adler	-3784
▁obj	-3785
posix	-3786
sume	-3787
▁Lo	-3788
Leading	-3789
Proto	-3790
Simple	-3791
▁status	-3792
hello	-3793
anch	-3794
private	-3795
advertisement	-3796
tm	-3797
▁Sy	-3798
abel	-3799
ound	-3800
▁sigemptyset	-3801
ObjFanin	-3802
Bin	-3803
Br	-3804
▁bump	-3805
InfoBase	-3806
strtolong	-3807
TestCaseInfoBase	-3808
gc	-3809
det	-3810
prio	-3811
▁rdx	-3812
▁wlu	-3813
Client	-3814
▁sendto	-3815
▁DB	-3816
_620	-3817
▁sent	-3818
uncate	-3819
▁len	-3820
share	-3821
▁glob	-3822
casecmp	-3823
shiftRight	-3824
watchpoints	-3825
▁SB	-3826
▁cli	-3827
Holder	-3828
hostaddr	-3829
EF	-3830
reen	-3831
matches	-3832
cert	-3833
addrs	-3834
unknown	-3835
▁configuration	-3836
fore	-3837
▁des	-3838
inflate	-3839
▁rr	-3840
▁fileno	-3841
ram	-3842
256	-3843
▁FF	-3844
deflate	-3845
delay	-3846
▁inip	-3847
Printer	-3848
▁iniparser	-3849
pushfstring	-3850
Ar	-3851
UE	-3852
vbuf	-3853
▁gzclose	-3854
▁elfloader	-3855
alg	-3856
sted	-3857
simple	-3858
▁scr	-3859
Private	-3860
acquire	-3861
getattr	-3862
case	-3863
▁Run	-3864
▁history	-3865
▁back	-3866
method	-3867
▁sync	-3868
Up	-3869
shadow	-3870
two	-3871
andom	-3872
square	-3873
lection	-3874
▁memory	-3875
virt	-3876
tual	-3877
MF	-3878
cq	-3879
mtx	-3880
▁ts	-3881
▁LzmaDec	-3882
rm	-3883
strcpy	-3884
91	-3885
▁ds	-3886
iword	-3887
Load	-3888
probe	-3889
▁sanity	-3890
Sq	-3891
txt	-3892
Shape	-3893
▁slabs	-3894
ny	-3895
aml	-3896
Control	-3897
Window	-3898
▁cpuid	-3899
tick	-3900
▁Tvb	-3901
reader	-3902
hite	-3903
▁detach	-3904
▁cpf	-3905
shortShift	-3906
fpga	-3907
▁rio	-3908
fprint	-3909
modSub	-3910
Leak	-3911
layer	-3912
proto	-3913
warnings	-3914
Resp	-3915
step	-3916
bound	-3917
countLeading	-3918
clude	-3919
Ev	-3920
Opt	-3921
▁fold	-3922
▁timeout	-3923
22_	-3924
blk	-3925
batch	-3926
samp	-3927
finalize	-3928
accum	-3929
worker	-3930
overhead	-3931
▁FL	-3932
frequency	-3933
▁tpl	-3934
dirty	-3935
unnel	-3936
▁Text	-3937
neighbors	-3938
seqno	-3939
segment	-3940
Ns	-3941
▁mark	-3942
▁cpSpace	-3943
▁gi	-3944
present	-3945
bewf	-3946
late	-3947
▁libewf	-3948
ATA	-3949
fds	-3950
_6074	-3951
ther	-3952
_36	-3953
istance	-3954
▁stimer	-3955
resse	-3956
pixels	-3957
▁PM	-3958
▁one	-3959
window	-3960
▁alarm	-3961
_3959	-3962
fat	-3963
tiki	-3964
▁fgetc	-3965
▁redis	-3966
sity	-3967
▁avfilter	-3968
Logger	-3969
acter	-3970
attach	-3971
200	-3972
▁gettsd	-3973
▁sel	-3974
threads	-3975
irc	-3976
Color	-3977
aybe	-3978
held	-3979
CodeLine	-3980
▁AddCodeLine	-3981
▁TestFactory	-3982
vmcs	-3983
▁true	-3984
single	-3985
▁inode	-3986
41	-3987
▁Fn	-3988
decoder	-3989
▁enqueue	-3990
CH	-3991
ific	-3992
▁luaM	-3993
Accept	-3994
▁names	-3995
SIGN	-3996
Packet	-3997
pevent	-3998
▁sec	-3999
▁MR	-4000
▁head	-4001
76	-4002
emu	-4003
▁aliases	-4004
anks	-4005
▁Path	-4006
▁zarray	-4007
▁rbp	-4008
▁Bind	-4009
▁fstack	-4010
scrib	-4011
ioinit	-4012
transition	-4013
aptr	-4014
▁NPC	-4015
xstat	-4016
unpack	-4017
padd	-4018
▁rucb	-4019
▁TRInstruction	-4020
pp	-4021
dimension	-4022
▁precedence	-4023
▁dwarf	-4024
▁Token	-4025
SetString	-4026
ln	-4027
▁tracing	-4028
Put	-4029
peek	-4030
Setup	-4031
gfn	-4032
▁luaD	-4033
ializ	-4034
Runner	-4035
bility	-4036
▁audit	-4037
Price	-4038
▁received	-4039
▁chksum	-4040
▁tra	-4041
Request	-4042
Common	-4043
▁track	-4044
bad	-4045
Mask	-4046
▁ymm	-4047
remain	-4048
Argument	-4049
▁unyaffs	-4050
hs	-4051
sampler	-4052
▁urg	-4053
solute	-4054
rect	-4055
ending	-4056
▁rotate	-4057
writ	-4058
▁act	-4059
sitions	-4060
▁rsi	-4061
▁ftell	-4062
payload	-4063
itor	-4064
▁static	-4065
dequeue	-4066
84	-4067
remote	-4068
uri	-4069
Spec	-4070
Malloc	-4071
▁Lex	-4072
▁sip	-4073
Local	-4074
resize	-4075
▁returnError	-4076
_128	-4077
▁Find	-4078
copyfrom	-4079
▁schedule	-4080
addressof	-4081
LIST	-4082
pton	-4083
power	-4084
▁zfree	-4085
Process	-4086
modMult	-4087
▁WaitInfo	-4088
4__	-4089
▁move	-4090
filters	-4091
remaining	-4092
Indic	-4093
izer	-4094
FileData	-4095
▁sd	-4096
site	-4097
running	-4098
ofp	-4099
elem	-4100
▁discard	-4101
compact	-4102
refresh	-4103
▁Dk	-4104
▁sv	-4105
▁change	-4106
▁contiki	-4107
_31	-4108
Interface	-4109
LevelEnabled	-4110
UDIT	-4111
▁ssl	-4112
cmdline	-4113
functions	-4114
asses	-4115
seed	-4116
uffix	-4117
accumulate	-4118
7_	-4119
User	-4120
DynArr	-4121
pub	-4122
▁val	-4123
▁toupper	-4124
22	-4125
▁rx	-4126
tings	-4127
▁recov	-4128
enqueue	-4129
▁sysconf	-4130
INFO	-4131
▁gPcd	-4132
deallocate	-4133
▁Out	-4134
aptrs	-4135
System	-4136
▁dataptrs	-4137
SYNC	-4138
ivial	-4139
▁filename	-4140
Construct	-4141
▁MA	-4142
fier	-4143
▁apply	-4144
▁mz	-4145
clock	-4146
sleep	-4147
eynode	-4148
frm	-4149
▁qemu	-4150
▁bufptr	-4151
hd	-4152
NAME	-4153
▁bss	-4154
03	-4155
vy	-4156
sb	-4157
oct	-4158
▁AUDIT	-4159
▁unmap	-4160
▁getchar	-4161
▁extract	-4162
tok	-4163
▁rm	-4164
erge	-4165
ting	-4166
multi	-4167
MD	-4168
▁PR	-4169
atio	-4170
ade	-4171
▁LV	-4172
▁uc	-4173
pur	-4174
seg	-4175
dual	-4176
scrip	-4177
▁mkdir	-4178
TEDS	-4179
forget	-4180
Form	-4181
Root	-4182
▁linkaddr	-4183
On	-4184
▁iError	-4185
words	-4186
▁path	-4187
▁proc	-4188
transitions	-4189
ranges	-4190
▁pv	-4191
pause	-4192
▁args	-4193
Tok	-4194
Method	-4195
▁Blen	-4196
▁cdr	-4197
▁forwarding	-4198
deref	-4199
bufmem	-4200
▁Blender	-4201
▁refbufmem	-4202
FC	-4203
ogle	-4204
verted	-4205
IP	-4206
ioctl	-4207
volatile	-4208
conversion	-4209
▁sw	-4210
▁ve	-4211
SIGNED	-4212
▁strtoull	-4213
77	-4214
nter	-4215
▁sockt	-4216
▁lo	-4217
▁contikimac	-4218
▁greg	-4219
MacroData	-4220
▁gr	-4221
▁addattr	-4222
_298	-4223
Der	-4224
formats	-4225
▁GenFileData	-4226
▁GenMacroData	-4227
atrix	-4228
▁pool	-4229
_34	-4230
phy	-4231
▁runtime	-4232
▁mosquitto	-4233
ets	-4234
vl	-4235
160	-4236
▁jo	-4237
ubio	-4238
▁SBYTE	-4239
unpoison	-4240
SHT	-4241
▁outf	-4242
shrink	-4243
UNSIGNED	-4244
Sig	-4245
ocument	-4246
_52	-4247
optB	-4248
Unsigned	-4249
kick	-4250
▁AcpiNs	-4251
Last	-4252
unted	-4253
▁shor	-4254
adjust	-4255
Box	-4256
hvm	-4257
categ	-4258
▁localtime	-4259
inverted	-4260
vma	-4261
syslog	-4262
▁matrix	-4263
▁report	-4264
angle	-4265
ks	-4266
adv	-4267
atype	-4268
▁xmac	-4269
▁video	-4270
tocol	-4271
cluster	-4272
dot	-4273
▁vb	-4274
rule	-4275
bosity	-4276
▁Close	-4277
▁running	-4278
▁Null	-4279
constraint	-4280
times	-4281
▁rapl	-4282
▁wrapper	-4283
▁erase	-4284
trlimit	-4285
▁Deferred	-4286
blocks	-4287
AtBuild	-4288
prepare	-4289
FixedAtBuild	-4290
scribe	-4291
MeshFile	-4292
pushnumber	-4293
MeshFileLoader	-4294
pkt	-4295
scription	-4296
Back	-4297
peer	-4298
licate	-4299
FA	-4300
▁delta	-4301
mesh	-4302
▁Send	-4303
ignore	-4304
▁ga	-4305
▁semctl	-4306
aes	-4307
trivial	-4308
pn	-4309
efi	-4310
kill	-4311
syntax	-4312
nr	-4313
ipv	-4314
▁ctl	-4315
Default	-4316
FD	-4317
MIT	-4318
dest	-4319
▁deflateInit	-4320
need	-4321
BE	-4322
▁seed	-4323
ume	-4324
▁sembuf	-4325
▁HawkFile	-4326
ialization	-4327
Match	-4328
▁HawkDatabase	-4329
src	-4330
▁gzopen	-4331
21_	-4332
iew	-4333
Rep	-4334
_4_	-4335
Sort	-4336
spin	-4337
topts	-4338
icode	-4339
ircular	-4340
Acceptor	-4341
threshold	-4342
▁pad	-4343
▁HMAC	-4344
▁probe	-4345
hed	-4346
ature	-4347
▁New	-4348
▁shortopts	-4349
Cdev	-4350
LIMIT	-4351
tmp	-4352
chan	-4353
headers	-4354
▁cc	-4355
Clear	-4356
▁cpBody	-4357
isi	-4358
▁dlg	-4359
pager	-4360
▁TRACE	-4361
tur	-4362
Float	-4363
73	-4364
disp	-4365
▁try	-4366
▁git	-4367
memset	-4368
▁help	-4369
fwrite	-4370
SS	-4371
Sync	-4372
Params	-4373
hist	-4374
iteral	-4375
Service	-4376
Sym	-4377
▁Ivy	-4378
▁hlock	-4379
▁vtable	-4380
bb	-4381
small	-4382
brk	-4383
lua	-4384
▁pw	-4385
urity	-4386
igital	-4387
▁dictionary	-4388
_526	-4389
▁lseq	-4390
▁Assert	-4391
destruct	-4392
pointers	-4393
ins	-4394
sect	-4395
Reply	-4396
fixed	-4397
truncate	-4398
Oct	-4399
▁pred	-4400
▁FileTask	-4401
Disasm	-4402
▁unlock	-4403
▁traceevent	-4404
tty	-4405
ratio	-4406
xen	-4407
dbg	-4408
room	-4409
Prime	-4410
final	-4411
construct	-4412
▁Sub	-4413
95	-4414
BA	-4415
▁over	-4416
ipaddr	-4417
65	-4418
▁testdev	-4419
cred	-4420
avp	-4421
ushort	-4422
▁Dat	-4423
▁strncat	-4424
▁auto	-4425
▁valid	-4426
registr	-4427
▁getline	-4428
uge	-4429
mass	-4430
▁xfrm	-4431
inding	-4432
▁Record	-4433
hole	-4434
▁CuCmd	-4435
▁selector	-4436
▁AssertHelper	-4437
Be	-4438
▁tree	-4439
ramer	-4440
fentry	-4441
81	-4442
Child	-4443
▁framer	-4444
ui	-4445
DEB	-4446
com	-4447
▁disk	-4448
EG	-4449
stic	-4450
purge	-4451
▁Load	-4452
▁Report	-4453
▁google	-4454
▁discardCard	-4455
Del	-4456
fork	-4457
delta	-4458
Cap	-4459
nullmac	-4460
▁csched	-4461
HEA	-4462
evtchn	-4463
ents	-4464
allow	-4465
fname	-4466
lig	-4467
_400	-4468
▁ivec	-4469
▁nevents	-4470
TestReporter	-4471
▁dr	-4472
_6212	-4473
▁bi	-4474
79	-4475
▁LY	-4476
▁mb	-4477
▁siz	-4478
▁Default	-4479
ether	-4480
75	-4481
Version	-4482
upported	-4483
ND	-4484
Short	-4485
utton	-4486
signals	-4487
19	-4488
▁Next	-4489
▁ipc	-4490
▁mot	-4491
bigendian	-4492
merge	-4493
▁range	-4494
▁roff	-4495
▁warn	-4496
▁mount	-4497
trickle	-4498
▁bufmem	-4499
▁CuCommon	-4500
ject	-4501
stub	-4502
forward	-4503
encounter	-4504
RT	-4505
cog	-4506
▁progname	-4507
mk	-4508
nom	-4509
DEBUG	-4510
▁Core	-4511
arrays	-4512
Segment	-4513
listening	-4514
46	-4515
dh	-4516
unit	-4517
▁Remove	-4518
▁wfa	-4519
ObjIs	-4520
▁Hash	-4521
▁trigger	-4522
bn	-4523
Move	-4524
hore	-4525
▁Exp	-4526
▁sizet	-4527
gateway	-4528
strtoul	-4529
interface	-4530
UnitTestResult	-4531
misc	-4532
orage	-4533
display	-4534
▁wiringPiMode	-4535
DO	-4536
ha	-4537
▁sftp	-4538
ProtoGrammar	-4539
Proc	-4540
▁gnt	-4541
▁phase	-4542
▁Fill	-4543
▁zz	-4544
Left	-4545
▁SLP	-4546
remap	-4547
Source	-4548
nomial	-4549
▁tolua	-4550
▁motSim	-4551
▁simple	-4552
olynomial	-4553
SSL	-4554
UR	-4555
born	-4556
▁request	-4557
▁vex	-4558
▁look	-4559
Channel	-4560
lst	-4561
Seed	-4562
banks	-4563
bswap	-4564
▁xTEDS	-4565
gid	-4566
stubborn	-4567
ri	-4568
▁adb	-4569
▁port	-4570
boolean	-4571
bottom	-4572
▁hello	-4573
▁cleanup	-4574
Link	-4575
▁ter	-4576
conne	-4577
intel	-4578
Cur	-4579
sis	-4580
readline	-4581
Return	-4582
finite	-4583
collect	-4584
contains	-4585
eas	-4586
Det	-4587
ane	-4588
dma	-4589
▁cm	-4590
FB	-4591
MO	-4592
arted	-4593
direct	-4594
▁RLIMIT	-4595
▁recvfrom	-4596
aton	-4597
protocol	-4598
802	-4599
Period	-4600
▁gethostbyname	-4601
_6031	-4602
interrupt	-4603
AY	-4604
Mod	-4605
Generic	-4606
▁hts	-4607
clone	-4608
▁longjmp	-4609
Scan	-4610
entic	-4611
datapath	-4612
imum	-4613
verr	-4614
eters	-4615
▁Encog	-4616
Md	-4617
digit	-4618
userdata	-4619
LOC	-4620
_145	-4621
classes	-4622
perform	-4623
rmc	-4624
▁power	-4625
▁domain	-4626
▁termios	-4627
▁Variable	-4628
▁compress	-4629
bz	-4630
hw	-4631
▁esm	-4632
irect	-4633
urn	-4634
Ascii	-4635
Deref	-4636
▁service	-4637
▁af	-4638
▁Process	-4639
dt	-4640
▁Cur	-4641
generic	-4642
▁strtoll	-4643
▁checkpoint	-4644
bar	-4645
▁FA	-4646
maybe	-4647
visibility	-4648
bcmp	-4649
chop	-4650
rawget	-4651
Warning	-4652
priority	-4653
▁pdx	-4654
PtrSize	-4655
py	-4656
ample	-4657
arena	-4658
ustom	-4659
▁INIT	-4660
▁slabinfo	-4661
destruction	-4662
CO	-4663
▁svm	-4664
Watch	-4665
Octets	-4666
iffers	-4667
▁aliasinfo	-4668
dso	-4669
initialization	-4670
▁ADD	-4671
isode	-4672
▁Fast	-4673
▁program	-4674
emer	-4675
setfilter	-4676
▁sniffers	-4677
listenports	-4678
▁sds	-4679
adata	-4680
▁full	-4681
Square	-4682
achine	-4683
▁HawkOctets	-4684
fifo	-4685
86_	-4686
SHA	-4687
rev	-4688
MME	-4689
ffs	-4690
rmcds	-4691
▁yrmcds	-4692
exi	-4693
▁cy	-4694
gfexi	-4695
▁prev	-4696
NOFILE	-4697
▁safefree	-4698
▁Obj	-4699
unused	-4700
▁shmget	-4701
absolute	-4702
▁timedout	-4703
irqrestore	-4704
62	-4705
▁AMF	-4706
▁from	-4707
Internal	-4708
nil	-4709
slen	-4710
acked	-4711
HT	-4712
optP	-4713
erial	-4714
hyper	-4715
▁arch	-4716
▁header	-4717
▁libnet	-4718
Connection	-4719
drop	-4720
_3957	-4721
orian	-4722
▁shrink	-4723
cwd	-4724
▁FLAC	-4725
▁conn	-4726
▁llist	-4727
category	-4728
sdt	-4729
jump	-4730
argument	-4731
PEE	-4732
Comple	-4733
injector	-4734
▁constant	-4735
Hex	-4736
Prod	-4737
Dumper	-4738
▁shmat	-4739
▁QDumper	-4740
▁kf	-4741
_880	-4742
only	-4743
▁Open	-4744
dc	-4745
Tab	-4746
Disk	-4747
icmp	-4748
modSquare	-4749
Gen	-4750
ere	-4751
▁diff	-4752
▁TSYNC	-4753
reserve	-4754
▁overflow	-4755
bittestand	-4756
▁ep	-4757
▁FAIL	-4758
▁gregorian	-4759
rcv	-4760
front	-4761
▁luaO	-4762
▁TextEncoding	-4763
Lim	-4764
▁LEP	-4765
unref	-4766
Cell	-4767
▁req	-4768
▁orcSHT	-4769
CurrentTest	-4770
gmp	-4771
▁restorefs	-4772
sem	-4773
▁tb	-4774
uninitialized	-4775
▁Skip	-4776
Reverse	-4777
▁Network	-4778
DeathTest	-4779
EUSER	-4780
NameIs	-4781
breakpoints	-4782
▁cx	-4783
iple	-4784
▁lin	-4785
▁level	-4786
antiator	-4787
49	-4788
ET	-4789
dg	-4790
▁nbr	-4791
preload	-4792
▁HawkGateway	-4793
LB	-4794
height	-4795
replace	-4796
▁execute	-4797
setaffinity	-4798
Io	-4799
▁On	-4800
congest	-4801
unaligned	-4802
sel	-4803
▁CS	-4804
Target	-4805
rewind	-4806
Pe	-4807
oint	-4808
turbo	-4809
HEAD	-4810
lent	-4811
une	-4812
▁top	-4813
dummy	-4814
▁dbgPrint	-4815
tpv	-4816
▁mmem	-4817
▁stdscr	-4818
MS	-4819
▁fw	-4820
direction	-4821
apter	-4822
▁cxmac	-4823
rc	-4824
dio	-4825
zip	-4826
tiv	-4827
Area	-4828
dnow	-4829
ross	-4830
verage	-4831
▁rewind	-4832
▁Program	-4833
StatusExit	-4834
rnd	-4835
argv	-4836
liers	-4837
▁itti	-4838
▁da	-4839
ambd	-4840
ayer	-4841
ident	-4842
▁locaddr	-4843
UTR	-4844
Transl	-4845
Not	-4846
iov	-4847
▁mbuf	-4848
datapacket	-4849
▁Io	-4850
second	-4851
PtrError	-4852
formation	-4853
▁NullPtrError	-4854
DI	-4855
▁apr	-4856
Vertex	-4857
▁Polynomial	-4858
algo	-4859
tabs	-4860
emeral	-4861
Watcher	-4862
congested	-4863
parameter	-4864
Notification	-4865
boot	-4866
▁eax	-4867
▁sam	-4868
ambda	-4869
choose	-4870
losure	-4871
trigger	-4872
Multi	-4873
▁FastMutex	-4874
▁vp	-4875
_138	-4876
▁tcset	-4877
▁used	-4878
CurrentTime	-4879
yle	-4880
6050	-4881
▁eph	-4882
▁Comp	-4883
paren	-4884
Reader	-4885
valptr	-4886
▁Allocate	-4887
▁RangeEnc	-4888
TH	-4889
eyIs	-4890
▁MPU	-4891
strcat	-4892
▁TestResult	-4893
▁TestCaseNameIs	-4894
win	-4895
▁pa	-4896
▁pe	-4897
pose	-4898
return	-4899
▁Insert	-4900
AND	-4901
_228	-4902
ally	-4903
password	-4904
codec	-4905
Parser	-4906
▁msgctl	-4907
sappdata	-4908
▁ephemeral	-4909
SES	-4910
▁AL	-4911
octet	-4912
hitespace	-4913
Black	-4914
algos	-4915
intern	-4916
▁tempo	-4917
▁typeinfo	-4918
asci	-4919
▁BFS	-4920
▁ewf	-4921
OutStream	-4922
EB	-4923
MC	-4924
emon	-4925
walk	-4926
acity	-4927
▁bdrv	-4928
online	-4929
Success	-4930
▁gzwrite	-4931
Fl	-4932
IOS	-4933
▁Time	-4934
target	-4935
29	-4936
CR	-4937
gl	-4938
eps	-4939
▁vl	-4940
instance	-4941
kfree	-4942
▁device	-4943
▁NetServer	-4944
▁strncasecmp	-4945
snd	-4946
▁ass	-4947
▁define	-4948
_33	-4949
▁tsd	-4950
loaded	-4951
▁netdev	-4952
outliers	-4953
receiver	-4954
▁AcpiOsPrintf	-4955
▁HawkLogger	-4956
branch	-4957
history	-4958
▁crunch	-4959
▁Formatter	-4960
getCurrentTime	-4961
prob	-4962
▁Rio	-4963
AsVal	-4964
raise	-4965
▁gTemp	-4966
▁Destroy	-4967
▁TestRunner	-4968
▁DirectoryEvent	-4969
NUL	-4970
▁sl	-4971
▁CopyStr	-4972
▁dh	-4973
Volume	-4974
ingReporter	-4975
▁connection	-4976
optC	-4977
optW	-4978
▁adj	-4979
▁dev	-4980
proxy	-4981
▁tids	-4982
itical	-4983
▁khmer	-4984
▁pindex	-4985
▁Datatype	-4986
▁zconfdebug	-4987
Tail	-4988
▁tracking	-4989
▁initialize	-4990
neg	-4991
▁Any	-4992
clean	-4993
lines	-4994
▁poison	-4995
unmarshal	-4996
▁ftruncate	-4997
▁lab	-4998
ability	-4999
▁xmlrpc	-5000
▁redzone	-5001
transport	-5002
awn	-5003
term	-5004
▁URI	-5005
scope	-5006
Search	-5007
sensors	-5008
hypercall	-5009
FixtureTest	-5010
▁app	-5011
▁mtd	-5012
rotate	-5013
Label	-5014
eflags	-5015
▁RedOs	-5016
GetNext	-5017
bw	-5018
Gtpv	-5019
▁vcpu	-5020
▁Timer	-5021
▁gfmul	-5022
▁freeaddrinfo	-5023
▁tl	-5024
▁stbir	-5025
▁MemoryOutStream	-5026
serial	-5027
sibling	-5028
▁result	-5029
▁iau	-5030
atial	-5031
87	-5032
Boot	-5033
▁QCC	-5034
iltin	-5035
timed	-5036
▁getcwd	-5037
Instantiator	-5038
draw	-5039
▁assert	-5040
▁cpMessage	-5041
▁istream	-5042
Translator	-5043
▁lambda	-5044
▁splice	-5045
▁AN	-5046
devices	-5047
▁strhash	-5048
Recursive	-5049
▁Do	-5050
Detector	-5051
Has	-5052
▁sum	-5053
ASS	-5054
▁fin	-5055
▁genu	-5056
Define	-5057
export	-5058
▁genuine	-5059
vars	-5060
▁done	-5061
▁threads	-5062
Di	-5063
Pass	-5064
encoder	-5065
_54	-5066
cvtp	-5067
▁uade	-5068
Callback	-5069
▁value	-5070
circular	-5071
MutexLock	-5072
_45	-5073
▁src	-5074
▁Make	-5075
quence	-5076
job	-5077
2000	-5078
cycles	-5079
▁fwcache	-5080
types	-5081
mnt	-5082
▁up	-5083
iant	-5084
idge	-5085
meta	-5086
▁fdt	-5087
PtrEntry	-5088
Reference	-5089
910	-5090
nch	-5091
ool	-5092
sing	-5093
▁item	-5094
▁zlib	-5095
shutdown	-5096
▁ixml	-5097
netfile	-5098
Container	-5099
stdin	-5100
Pci	-5101
▁rreq	-5102
Network	-5103
network	-5104
verride	-5105
DR	-5106
ru	-5107
▁gc	-5108
▁stop	-5109
irqsave	-5110
▁eprintf	-5111
▁getaddrinfo	-5112
47	-5113
AA	-5114
kg	-5115
fns	-5116
ioapic	-5117
basename	-5118
▁Details	-5119
ToG	-5120
eep	-5121
inv	-5122
▁iter	-5123
▁evthread	-5124
▁erasesize	-5125
des	-5126
▁Heap	-5127
Random	-5128
Wait	-5129
gmpz	-5130
▁Lib	-5131
▁gResp	-5132
Profile	-5133
▁gRespStr	-5134
▁pass	-5135
unlink	-5136
▁wrmsr	-5137
▁describe	-5138
▁live	-5139
▁getCurrent	-5140
▁mq	-5141
▁mth	-5142
role	-5143
midl	-5144
▁ptime	-5145
tpacket	-5146
▁mtherr	-5147
▁Generic	-5148
Exp	-5149
Lookup	-5150
rbtree	-5151
Null	-5152
▁aubio	-5153
Production	-5154
ia	-5155
Option	-5156
nested	-5157
▁zhash	-5158
mdt	-5159
▁seqno	-5160
▁tcsetattr	-5161
▁MemoryLeak	-5162
▁ScopedLock	-5163
▁bu	-5164
StreamBuf	-5165
tim	-5166
sequ	-5167
▁usb	-5168
MB	-5169
util	-5170
heard	-5171
FrameRead	-5172
udio	-5173
▁gsl	-5174
▁gpRed	-5175
▁UTP	-5176
▁osc	-5177
ftime	-5178
vail	-5179
▁dlsym	-5180
yale	-5181
_607410	-5182
lockdep	-5183
▁Malloc	-5184
unpacklo	-5185
toggle	-5186
inf	-5187
sta	-5188
▁TH	-5189
mpeg	-5190
_4480	-5191
igits	-5192
upport	-5193
Globals	-5194
▁TG	-5195
_128_	-5196
▁shim	-5197
▁trim	-5198
▁shmdt	-5199
OS	-5200
xp	-5201
cbc	-5202
▁bn	-5203
FAD	-5204
lap	-5205
Norm	-5206
nsor	-5207
convert	-5208
66	-5209
clr	-5210
comb	-5211
▁non	-5212
▁Exec	-5213
Package	-5214
▁enable	-5215
▁det	-5216
unique	-5217
da	-5218
nb	-5219
echo	-5220
ascii	-5221
FileName	-5222
▁Instruction	-5223
FE	-5224
after	-5225
▁PASS	-5226
reactor	-5227
▁started	-5228
▁liveness	-5229
▁mon	-5230
▁AcpiDs	-5231
509	-5232
hys	-5233
6803	-5234
bbnode	-5235
gb	-5236
nly	-5237
too	-5238
▁ss	-5239
▁Base	-5240
▁xmem	-5241
PS	-5242
vol	-5243
agic	-5244
▁deflateParams	-5245
Only	-5246
▁ALU	-5247
ified	-5248
▁DeathTest	-5249
45	-5250
wb	-5251
mpul	-5252
failure	-5253
optional	-5254
timestamps	-5255
▁ProgramFail	-5256
61	-5257
92	-5258
api	-5259
▁ops	-5260
smash	-5261
▁announcements	-5262
▁chr	-5263
_2299	-5264
▁ilog	-5265
▁lsmash	-5266
Dictionary	-5267
anic	-5268
Dna	-5269
▁su	-5270
Pair	-5271
▁merge	-5272
metadata	-5273
useconds	-5274
ala	-5275
FADT	-5276
year	-5277
▁tbl	-5278
Non	-5279
priv	-5280
tore	-5281
▁sample	-5282
drhd	-5283
▁well	-5284
Binding	-5285
longname	-5286
▁receiver	-5287
▁unpoison	-5288
overloaded	-5289
Over	-5290
perm	-5291
tunnel	-5292
Variant	-5293
TPM	-5294
oki	-5295
▁Ac	-5296
TI	-5297
umn	-5298
Diag	-5299
custom	-5300
▁mango	-5301
bdd	-5302
▁httpd	-5303
atialIndex	-5304
▁zconfrestart	-5305
adr	-5306
▁mc	-5307
▁gate	-5308
▁Pr	-5309
▁rsa	-5310
▁delay	-5311
medi	-5312
▁Clock	-5313
Cl	-5314
▁jpeg	-5315
sensor	-5316
shmget	-5317
▁logfp	-5318
Bdd	-5319
▁mi	-5320
aging	-5321
ifnum	-5322
▁bcast	-5323
hm	-5324
234	-5325
LIN	-5326
Skip	-5327
▁tcc	-5328
silent	-5329
▁rxbuf	-5330
detailed	-5331
▁yydestruct	-5332
mapping	-5333
freep	-5334
Binary	-5335
Session	-5336
▁CheckEqual	-5337
▁Expression	-5338
▁translate	-5339
Cause	-5340
▁msgsnd	-5341
Save	-5342
_199	-5343
rout	-5344
▁ompi	-5345
▁gateway	-5346
FramePPLB	-5347
▁chunksize	-5348
Fin	-5349
igitalWrite	-5350
enter	-5351
timex	-5352
ML	-5353
sz	-5354
_35	-5355
_57	-5356
best	-5357
▁luaG	-5358
Plugin	-5359
bclient	-5360
▁vmovsd	-5361
▁SimpleType	-5362
MM	-5363
Cut	-5364
pif	-5365
▁hk	-5366
▁auth	-5367
ansport	-5368
▁adjtimex	-5369
AssertFail	-5370
▁RedOsAssertFail	-5371
uch	-5372
Chunk	-5373
▁FCore	-5374
ION	-5375
Wor	-5376
Decl	-5377
▁gpio	-5378
Hii	-5379
Pop	-5380
mma	-5381
32_0	-5382
▁gnttab	-5383
position	-5384
▁CopyMem	-5385
▁Ap	-5386
▁RND	-5387
dalloc	-5388
▁locale	-5389
▁deflateReset	-5390
▁me	-5391
▁nullmac	-5392
4290	-5393
Cost	-5394
orith	-5395
▁cipher	-5396
ENU	-5397
_00	-5398
lip	-5399
_3958	-5400
nostic	-5401
wrlock	-5402
▁RedBlack	-5403
▁webclient	-5404
bdf	-5405
kcmp	-5406
▁ofp	-5407
▁luaC	-5408
sniffer	-5409
ign	-5410
nas	-5411
Stat	-5412
execute	-5413
interlocked	-5414
dst	-5415
Each	-5416
shim	-5417
nextfile	-5418
ingListener	-5419
iet	-5420
▁Dis	-5421
▁box	-5422
Install	-5423
▁TestFactoryImpl	-5424
AppendResult	-5425
gine	-5426
Units	-5427
yield	-5428
leanup	-5429
endtoken	-5430
expression	-5431
▁zconfdump	-5432
▁zconfpush	-5433
checknumber	-5434
▁zconfparse	-5435
Poco	-5436
▁reverse	-5437
▁bar	-5438
▁wrmsrl	-5439
unloader	-5440
▁returnErrorPtr	-5441
loud	-5442
note	-5443
expir	-5444
▁luaB	-5445
atable	-5446
vertex	-5447
Tb	-5448
strl	-5449
public	-5450
Diagnostic	-5451
▁autostart	-5452
▁AcpiEx	-5453
▁wiringPiI	-5454
tor	-5455
▁query	-5456
▁single	-5457
uss	-5458
NCUR	-5459
_5_0	-5460
91023	-5461
NCURSES	-5462
_5_0_199	-5463
_5_0_19991023	-5464
▁NN	-5465
▁rcu	-5466
Bound	-5467
_2158	-5468
Transform	-5469
alar	-5470
ited	-5471
addch	-5472
▁fixup	-5473
▁param	-5474
Ip	-5475
▁Comm	-5476
▁bytes	-5477
activation	-5478
AG	-5479
▁er	-5480
Menu	-5481
_201	-5482
bear	-5483
peed	-5484
63	-5485
phys	-5486
▁errx	-5487
vernor	-5488
▁symbols	-5489
▁governor	-5490
Min	-5491
▁tty	-5492
Failed	-5493
alance	-5494
▁proto	-5495
▁RunImpl	-5496
registrar	-5497
pow	-5498
mime	-5499
▁AAS	-5500
▁mov	-5501
▁tab	-5502
▁TRAP	-5503
▁itimer	-5504
itt	-5505
Date	-5506
jobs	-5507
pree	-5508
uard	-5509
perror	-5510
▁readn	-5511
enum	-5512
▁locks	-5513
queuebuf	-5514
TF	-5515
unsafe	-5516
asworld	-5517
sequence	-5518
RecursiveDeref	-5519
▁Bin	-5520
▁join	-5521
tc	-5522
▁Ser	-5523
macro	-5524
▁down	-5525
expiration	-5526
TestPartResult	-5527
ORE	-5528
intx	-5529
checklstring	-5530
fgets	-5531
▁copystr	-5532
transform	-5533
pushlstring	-5534
ENT	-5535
Cdma	-5536
▁Ogre	-5537
▁cpSp	-5538
Matrix	-5539
mapbits	-5540
▁reserve	-5541
▁cpSpatialIndex	-5542
trim	-5543
Avail	-5544
▁AcpiTb	-5545
Vec	-5546
▁rmh	-5547
apping	-5548
tracking	-5549
_604	-5550
▁gai	-5551
▁rta	-5552
Arbit	-5553
codeAB	-5554
▁chrif	-5555
▁editor	-5556
▁Results	-5557
PDU	-5558
_380	-5559
▁PEM	-5560
▁edx	-5561
▁xht	-5562
delim	-5563
Sock	-5564
icted	-5565
▁fltk	-5566
addset	-5567
trylock	-5568
observer	-5569
commit	-5570
▁Clear	-5571
authentic	-5572
gs	-5573
dopen	-5574
histo	-5575
listener	-5576
▁tracecmd	-5577
Ne	-5578
uld	-5579
▁env	-5580
elf	-5581
dead	-5582
Flush	-5583
board	-5584
▁syncsearch	-5585
ging	-5586
marker	-5587
Display	-5588
TINFO	-5589
▁cont	-5590
▁getp	-5591
▁mkyaffs	-5592
▁freeList	-5593
▁VarHolder	-5594
optarg	-5595
▁speex	-5596
pal	-5597
▁inst	-5598
izerTest	-5599
resolver	-5600
ERR	-5601
filled	-5602
▁gzread	-5603
procmask	-5604
BF	-5605
tags	-5606
ffect	-5607
▁COgre	-5608
▁number	-5609
metatable	-5610
MIN	-5611
▁cf	-5612
opts	-5613
▁atol	-5614
unload	-5615
Collection	-5616
▁Eventable	-5617
xe	-5618
msi	-5619
▁Tvba	-5620
▁ctype	-5621
▁maccalc	-5622
Fast	-5623
Store	-5624
screen	-5625
Content	-5626
▁cpus	-5627
▁script	-5628
▁TestFilter	-5629
LS	-5630
▁arptime	-5631
▁evicted	-5632
DOW	-5633
▁tsl	-5634
INDOW	-5635
idxml	-5636
▁counter	-5637
shortShiftRight	-5638
ipc	-5639
▁url	-5640
resolve	-5641
▁rapidxml	-5642
crash	-5643
etime	-5644
NB	-5645
scale	-5646
▁Link	-5647
▁clean	-5648
_16_0	-5649
▁math	-5650
intremap	-5651
fb	-5652
pci	-5653
mpli	-5654
▁Cmd	-5655
▁fft	-5656
▁trap	-5657
console	-5658
▁pclose	-5659
▁prefix	-5660
uncompress	-5661
▁br	-5662
cell	-5663
cfree	-5664
blevel	-5665
lladdr	-5666
▁extra	-5667
▁Select	-5668
Critical	-5669
▁Psyntax	-5670
▁symfile	-5671
▁recvnetfile	-5672
▁DestroyString	-5673
loy	-5674
▁WINDOW	-5675
▁rodata	-5676
▁outflags	-5677
▁MENU	-5678
errmsg	-5679
▁action	-5680
Position	-5681
Exec	-5682
Attrib	-5683
ressed	-5684
StreamTo	-5685
▁Register	-5686
StreamToHelper	-5687
FP	-5688
▁exe	-5689
audit	-5690
▁smbc	-5691
sitive	-5692
ollback	-5693
▁assign	-5694
queuelen	-5695
tsc	-5696
▁gsm	-5697
Matches	-5698
▁reparent	-5699
97	-5700
cles	-5701
native	-5702
▁rlimit	-5703
distance	-5704
▁commands	-5705
MPI	-5706
UTE	-5707
topt	-5708
▁RSA	-5709
▁jrb	-5710
_6020	-5711
tuple	-5712
mulate	-5713
probing	-5714
identity	-5715
▁strftime	-5716
VE	-5717
leg	-5718
mos	-5719
▁pin	-5720
▁ubi	-5721
▁vec	-5722
curse	-5723
concat	-5724
rdlock	-5725
suffix	-5726
unlisten	-5727
▁vprintf	-5728
blob	-5729
▁Buf	-5730
ucture	-5731
contact	-5732
▁hashtable	-5733
fw	-5734
wGtpv	-5735
package	-5736
Ps	-5737
DATA	-5738
adapter	-5739
▁Handle	-5740
NG	-5741
xf	-5742
nhm	-5743
fini	-5744
Semap	-5745
assoc	-5746
atures	-5747
▁sigaddset	-5748
▁ul	-5749
_256	-5750
Options	-5751
▁parser	-5752
▁FillFlags	-5753
▁inflateSync	-5754
vif	-5755
okie	-5756
addrlen	-5757
▁xzalloc	-5758
ube	-5759
owner	-5760
Eval	-5761
_000	-5762
▁Compare	-5763
shortShiftLeft	-5764
09	-5765
wa	-5766
BSS	-5767
spn	-5768
setjmp	-5769
▁FreePool	-5770
Constraint	-5771
▁cpowercycle	-5772
▁sigprocmask	-5773
eee	-5774
gstr	-5775
▁npc	-5776
▁vlapic	-5777
parameters	-5778
Fr	-5779
gy	-5780
defrt	-5781
▁phys	-5782
bearer	-5783
▁parms	-5784
▁prefetcht	-5785
Su	-5786
iss	-5787
rtp	-5788
▁fi	-5789
Vars	-5790
side	-5791
uptr	-5792
Digest	-5793
itimer	-5794
memcmp	-5795
pushnil	-5796
▁js	-5797
cost	-5798
Enter	-5799
▁kexec	-5800
▁GetNext	-5801
libc	-5802
▁qsend	-5803
▁luaH	-5804
mutexattr	-5805
▁PathArgument	-5806
▁the	-5807
ussdrv	-5808
Semaphore	-5809
Expression	-5810
02	-5811
▁bt	-5812
▁Csr	-5813
▁final	-5814
Arbiter	-5815
43	-5816
67	-5817
▁bio	-5818
Getopt	-5819
rshift	-5820
Document	-5821
▁PyObject	-5822
DP	-5823
Cor	-5824
▁ieee	-5825
ono	-5826
▁vq	-5827
ious	-5828
▁xdg	-5829
Nodes	-5830
episode	-5831
preempt	-5832
setfield	-5833
▁advance	-5834
▁strlcpy	-5835
▁Priority	-5836
93	-5837
▁hrt	-5838
Layer	-5839
fread	-5840
▁cgiForm	-5841
▁calculate	-5842
hdrlen	-5843
▁unpack	-5844
▁UnityPrint	-5845
uv	-5846
cer	-5847
chg	-5848
Scope	-5849
pathc	-5850
▁RedI	-5851
lq	-5852
▁pf	-5853
0_39	-5854
poly	-5855
activate	-5856
Information	-5857
mountpoints	-5858
Occ	-5859
trl	-5860
bios	-5861
▁Big	-5862
▁Iup	-5863
initbatch	-5864
vq	-5865
psr	-5866
Stop	-5867
here	-5868
Order	-5869
member	-5870
▁pager	-5871
▁panic	-5872
counted	-5873
Response	-5874
features	-5875
▁zmalloc	-5876
Supported	-5877
tolstring	-5878
bpf	-5879
ten	-5880
tif	-5881
▁vlog	-5882
▁source	-5883
verbosity	-5884
▁evbuffer	-5885
▁tcgetattr	-5886
▁webserver	-5887
ADD	-5888
vvmcs	-5889
Literal	-5890
▁prussdrv	-5891
CompareExchange	-5892
LM	-5893
▁font	-5894
rv	-5895
Emp	-5896
▁rcx	-5897
▁ret	-5898
cstate	-5899
▁Append	-5900
Services	-5901
socktype	-5902
pad	-5903
▁ig	-5904
▁ns	-5905
▁attr	-5906
▁tess	-5907
Lua	-5908
▁IR	-5909
answ	-5910
view	-5911
▁bst	-5912
▁ice	-5913
▁barf	-5914
omp	-5915
▁Os	-5916
▁Pe	-5917
font	-5918
▁Type	-5919
Crypto	-5920
ToGpio	-5921
▁CsrCrypto	-5922
MatchFinder	-5923
ComponentName	-5924
pename	-5925
▁lseqi	-5926
Def	-5927
solve	-5928
▁Vector	-5929
▁pixGet	-5930
▁Pointer	-5931
UtilGetopt	-5932
BD	-5933
bp	-5934
_3723	-5935
_14548	-5936
▁proactive	-5937
descriptors	-5938
_134	-5939
259	-5940
▁blake	-5941
▁Buffer	-5942
SetDictionary	-5943
▁pcre	-5944
Employ	-5945
▁MemoryRead	-5946
NtkIs	-5947
▁game	-5948
▁HawkM	-5949
▁vhost	-5950
resampler	-5951
Par	-5952
bio	-5953
▁anet	-5954
▁detect	-5955
upstream	-5956
▁cpArray	-5957
CP	-5958
FL	-5959
_621	-5960
prep	-5961
Serial	-5962
putnbr	-5963
urface	-5964
toupper	-5965
▁gztell	-5966
MUTE	-5967
entifier	-5968
typename	-5969
iten	-5970
▁ctx	-5971
▁tos	-5972
▁pages	-5973
Connect	-5974
▁TokenizerTest	-5975
UnsignedInteger	-5976
dbe	-5977
▁packetbufptr	-5978
_270	-5979
_622	-5980
frag	-5981
sink	-5982
▁uid	-5983
▁cpBB	-5984
atomic	-5985
▁termp	-5986
▁BinInfo	-5987
Indication	-5988
▁backtrace	-5989
mlUnitTestResult	-5990
_166	-5991
_8800	-5992
etable	-5993
override	-5994
compressed	-5995
ca	-5996
▁tu	-5997
Tick	-5998
ship	-5999
_3827	-6000
▁recovi	-6001
▁recovj	-6002
sistency	-6003
▁gzerror	-6004
virtqueue	-6005
DY	-6006
icro	-6007
▁mul	-6008
repeat	-6009
_621240	-6010
▁handler	-6011
▁descriptor	-6012
rng	-6013
rsa	-6014
▁uncompress	-6015
via	-6016
INTE	-6017
mail	-6018
xsdt	-6019
▁dist	-6020
edList	-6021
▁split	-6022
▁windowstart	-6023
_53	-6024
▁No	-6025
plus	-6026
voke	-6027
▁Sock	-6028
▁vmcb	-6029
▁xfgets	-6030
▁AcpiDbg	-6031
▁TestTest	-6032
cf	-6033
CCH	-6034
UINT	-6035
less	-6036
▁irq	-6037
▁pty	-6038
panic	-6039
latform	-6040
▁BFSInfo	-6041
ils	-6042
txn	-6043
▁doc	-6044
ities	-6045
upool	-6046
▁object	-6047
DriverBinding	-6048
_402	-6049
▁PMPI	-6050
Repeat	-6051
player	-6052
recursive	-6053
itr	-6054
▁sb	-6055
_162	-6056
STORE	-6057
▁abuf	-6058
sIn	-6059
▁hn	-6060
▁rc	-6061
aged	-6062
until	-6063
vmult	-6064
GER	-6065
▁ned	-6066
apsed	-6067
▁mask	-6068
Import	-6069
▁rq	-6070
rank	-6071
tuid	-6072
Cir	-6073
OMP	-6074
_68	-6075
mpi	-6076
▁DH	-6077
prod	-6078
_2652	-6079
htonl	-6080
paddw	-6081
▁Posix	-6082
ReturnValue	-6083
Mark	-6084
▁ape	-6085
ached	-6086
links	-6087
model	-6088
▁Uefi	-6089
mntent	-6090
▁aasworld	-6091
nan	-6092
poke	-6093
▁jwt	-6094
sources	-6095
eract	-6096
icate	-6097
▁GOMP	-6098
mpulse	-6099
▁Table	-6100
▁memchr	-6101
▁xstrdup	-6102
FI	-6103
▁ce	-6104
Vdbe	-6105
cryp	-6106
▁Map	-6107
resses	-6108
seqnos	-6109
▁modes	-6110
duration	-6111
ipconfig	-6112
▁tesseract	-6113
Uri	-6114
▁extend	-6115
printable	-6116
ino	-6117
Heap	-6118
▁dyn	-6119
bitopt	-6120
▁radix	-6121
▁zcfree	-6122
ba	-6123
Pix	-6124
idb	-6125
Rule	-6126
maps	-6127
Access	-6128
▁Bit	-6129
ating	-6130
ested	-6131
tcache	-6132
▁popen	-6133
dsn	-6134
▁OB	-6135
Pred	-6136
▁ANN	-6137
▁Efi	-6138
_4060	-6139
fixup	-6140
linked	-6141
mplate	-6142
▁cschedule	-6143
icodeString	-6144
Ed	-6145
gnuc	-6146
▁dpif	-6147
▁Float	-6148
suseconds	-6149
assignment	-6150
orig	-6151
▁gST	-6152
▁color	-6153
balance	-6154
▁msghdr	-6155
TestShell	-6156
ni	-6157
np	-6158
_513	-6159
▁dss	-6160
▁icu	-6161
▁sup	-6162
super	-6163
totals	-6164
▁strxf	-6165
DVertex	-6166
Maximum	-6167
rp	-6168
vprintf	-6169
▁exclude	-6170
▁outbuffer	-6171
Raw	-6172
▁ii	-6173
▁Dev	-6174
▁longpath	-6175
▁readline	-6176
10_	-6177
▁Put	-6178
_2335	-6179
netif	-6180
Bridge	-6181
rawset	-6182
sistor	-6183
builtin	-6184
▁semget	-6185
transmitting	-6186
_51	-6187
_2628	-6188
outils	-6189
tivate	-6190
Instance	-6191
▁iioutils	-6192
Ab	-6193
clip	-6194
prof	-6195
▁info	-6196
▁quiet	-6197
▁OnTest	-6198
decompress	-6199
Constructor	-6200
_67	-6201
hci	-6202
▁inv	-6203
▁luaV	-6204
▁rbtree	-6205
blocking	-6206
▁gzoffset	-6207
▁AcpiError	-6208
PL	-6209
UM	-6210
WT	-6211
Wr	-6212
_603	-6213
▁VLM	-6214
▁ccp	-6215
depng	-6216
Prefix	-6217
recurse	-6218
▁AcpiPs	-6219
▁lodepng	-6220
Env	-6221
PEG	-6222
▁Line	-6223
▁luaF	-6224
▁getrlimit	-6225
▁Packed	-6226
Aig	-6227
abs	-6228
avg	-6229
ple	-6230
cstr	-6231
reat	-6232
▁DevPath	-6233
▁baseaddr	-6234
▁cpArbiter	-6235
itle	-6236
▁cout	-6237
▁Index	-6238
▁cpvdot	-6239
▁SHIWORD	-6240
Listeners	-6241
addresses	-6242
▁ThreadLocal	-6243
nex	-6244
▁wake	-6245
▁saved	-6246
readdir	-6247
▁bcastconn	-6248
TM	-6249
▁mv	-6250
▁bug	-6251
Suite	-6252
▁apei	-6253
Master	-6254
special	-6255
container	-6256
▁freelist	-6257
Ci	-6258
df	-6259
den	-6260
Declar	-6261
▁nested	-6262
Directory	-6263
▁RangeException	-6264
vis	-6265
stmt	-6266
edtls	-6267
paths	-6268
writer	-6269
▁mbedtls	-6270
▁basename	-6271
registered	-6272
▁preferred	-6273
▁Logger	-6274
▁UTPSocket	-6275
▁registered	-6276
csr	-6277
sen	-6278
uan	-6279
▁Qu	-6280
▁fit	-6281
▁pretty	-6282
appendstr	-6283
pu	-6284
tbl	-6285
tlb	-6286
allel	-6287
factor	-6288
Employee	-6289
elements	-6290
ingPoint	-6291
01	-6292
_416	-6293
▁lcp	-6294
ulation	-6295
lt	-6296
huff	-6297
before	-6298
▁speed	-6299
▁My	-6300
▁ms	-6301
Split	-6302
▁atof	-6303
▁insn	-6304
vmwrite	-6305
▁ExpToken	-6306
debugbreak	-6307
▁bufferevent	-6308
Ali	-6309
perf	-6310
gamma	-6311
statement	-6312
▁FloatingPoint	-6313
sbox	-6314
▁Com	-6315
cvtps	-6316
inner	-6317
siblings	-6318
Extension	-6319
▁TestFactoryBase	-6320
ENB	-6321
vtd	-6322
ould	-6323
▁Par	-6324
▁tap	-6325
Assign	-6326
whitespace	-6327
▁setrlimit	-6328
▁hp	-6329
▁dip	-6330
▁buff	-6331
coming	-6332
▁Macro	-6333
Material	-6334
_58	-6335
aim	-6336
alt	-6337
dag	-6338
vme	-6339
quote	-6340
0_3956	-6341
Tables	-6342
▁LexGet	-6343
NewPointer	-6344
NewPointerObj	-6345
mr	-6346
srai	-6347
▁aux	-6348
groups	-6349
combine	-6350
Atom	-6351
escape	-6352
mplify	-6353
spfree	-6354
Section	-6355
secondary	-6356
Turn	-6357
mdir	-6358
▁Ses	-6359
ctree	-6360
osleep	-6361
parate	-6362
▁cpfmin	-6363
▁Session	-6364
▁gTempBuf	-6365
acy	-6366
Same	-6367
▁gli	-6368
eroMem	-6369
modAdd	-6370
Security	-6371
customized	-6372
hi	-6373
bfs	-6374
ome	-6375
pyx	-6376
lflag	-6377
▁ether	-6378
▁msgget	-6379
tificate	-6380
▁dprintf	-6381
pushinteger	-6382
Cat	-6383
nthe	-6384
▁chidb	-6385
▁Pthread	-6386
▁sizetoll	-6387
▁HawkGateThread	-6388
Sum	-6389
gue	-6390
▁pi	-6391
Buff	-6392
_3755	-6393
liver	-6394
▁quick	-6395
▁Display	-6396
checktype	-6397
mlTestReporter	-6398
mpr	-6399
ique	-6400
Delay	-6401
▁Tree	-6402
Acquire	-6403
compat	-6404
▁wmove	-6405
Managed	-6406
Compress	-6407
▁cpvmult	-6408
Character	-6409
amd	-6410
_211	-6411
raig	-6412
take	-6413
▁cor	-6414
palloc	-6415
rnl	-6416
ToStr	-6417
ahead	-6418
▁card	-6419
▁neti	-6420
energy	-6421
emulate	-6422
keyword	-6423
▁resize	-6424
Repeater	-6425
▁ov	-6426
acpi	-6427
bject	-6428
ittle	-6429
magic	-6430
month	-6431
Equals	-6432
ToText	-6433
import	-6434
appcall	-6435
▁PyString	-6436
▁HawkTimer	-6437
Optind	-6438
rowser	-6439
▁reader	-6440
Sequence	-6441
▁pole	-6442
Signal	-6443
strncpy	-6444
▁adddep	-6445
Transport	-6446
RAB	-6447
ook	-6448
▁dy	-6449
crnl	-6450
olve	-6451
supp	-6452
▁arenas	-6453
▁netifs	-6454
getfield	-6455
plane	-6456
proces	-6457
sockets	-6458
▁gzgetc	-6459
aly	-6460
dlg	-6461
Band	-6462
ived	-6463
_1730	-6464
▁kput	-6465
stable	-6466
▁timex	-6467
mission	-6468
Available	-6469
cal	-6470
▁PC	-6471
junk	-6472
secret	-6473
▁yaffs	-6474
▁CurTok	-6475
DynArray	-6476
argerror	-6477
▁testfile	-6478
Host	-6479
▁parent	-6480
▁strtod	-6481
Te	-6482
ROC	-6483
_222	-6484
Cursor	-6485
▁Context	-6486
certificate	-6487
consistency	-6488
▁Bm	-6489
emit	-6490
▁board	-6491
rollback	-6492
vmx	-6493
ATTR	-6494
eded	-6495
enar	-6496
802_1	-6497
▁replace	-6498
▁recvnetfilept	-6499
BT	-6500
▁Sym	-6501
▁Inter	-6502
▁execvp	-6503
▁notify	-6504
initialized	-6505
estedDiagnostic	-6506
▁xj	-6507
MODU	-6508
_100	-6509
_104	-6510
unct	-6511
basic	-6512
Symbol	-6513
ClassData	-6514
▁Initialize	-6515
veat	-6516
▁atan	-6517
codeABC	-6518
wrapper	-6519
huge	-6520
descr	-6521
▁THIS	-6522
▁json	-6523
MODULE	-6524
disconnect	-6525
▁HawkSocket	-6526
Mo	-6527
mgr	-6528
qui	-6529
▁BAS	-6530
69	-6531
MI	-6532
Poly	-6533
READ	-6534
goto	-6535
▁fat	-6536
▁fre	-6537
gsqword	-6538
setsize	-6539
Cond	-6540
auto	-6541
lump	-6542
▁met	-6543
▁getr	-6544
▁spec	-6545
_60740	-6546
comple	-6547
indexer	-6548
▁pfring	-6549
calculate	-6550
▁URIStream	-6551
lan	-6552
pth	-6553
rary	-6554
▁cat	-6555
▁zip	-6556
define	-6557
digits	-6558
engine	-6559
readlineb	-6560
readgsqword	-6561
gw	-6562
▁Fix	-6563
ented	-6564
exist	-6565
Att	-6566
Use	-6567
▁PP	-6568
unce	-6569
linux	-6570
linear	-6571
▁msgrcv	-6572
▁download	-6573
DestroyString	-6574
Sm	-6575
Dup	-6576
alog	-6577
rrep	-6578
force	-6579
▁flag	-6580
netdev	-6581
▁HawkPackage	-6582
_56	-6583
▁eq	-6584
▁qh	-6585
apply	-6586
ategy	-6587
▁snum	-6588
▁digitalWrite	-6589
emm	-6590
▁Ref	-6591
▁der	-6592
▁acc	-6593
EDATA	-6594
_2459	-6595
brary	-6596
AsChar	-6597
▁Parser	-6598
▁returnErrorInt	-6599
_63	-6600
unix	-6601
▁cap	-6602
ancel	-6603
▁adjust	-6604
MProcess	-6605
simulate	-6606
▁disable	-6607
estimates	-6608
▁Bindable	-6609
RunDeathTest	-6610
RunDeathTestFlag	-6611
td	-6612
Win	-6613
pol	-6614
▁gui	-6615
master	-6616
▁nwGtpv	-6617
▁clockstring	-6618
Font	-6619
each	-6620
entr	-6621
tial	-6622
cpuid	-6623
finib	-6624
▁Pipe	-6625
▁visi	-6626
ctimer	-6627
splice	-6628
▁addReply	-6629
▁FI	-6630
ceiv	-6631
span	-6632
ysql	-6633
▁vss	-6634
gorith	-6635
▁eapol	-6636
readmsr	-6637
▁assuan	-6638
finibatch	-6639
▁BindInfo	-6640
▁HawkMysql	-6641
RB	-6642
sep	-6643
trr	-6644
_404	-6645
extra	-6646
mmcfg	-6647
▁location	-6648
Fill	-6649
hour	-6650
▁pos	-6651
style	-6652
utable	-6653
zeroes	-6654
▁extent	-6655
▁optopt	-6656
▁dlerror	-6657
▁shutdown	-6658
▁testBody	-6659
Hand	-6660
_668	-6661
cant	-6662
shdr	-6663
▁Loc	-6664
stime	-6665
▁xint	-6666
▁xenbus	-6667
document	-6668
▁PMProcess	-6669
tf	-6670
▁Arg	-6671
▁LIN	-6672
▁gfn	-6673
▁tmr	-6674
stick	-6675
▁stringEqual	-6676
True	-6677
_5261	-6678
clamp	-6679
▁norm	-6680
▁Ascii	-6681
▁LibVE	-6682
▁front	-6683
▁group	-6684
FromString	-6685
bittestandset	-6686
▁GenClassData	-6687
▁Bt	-6688
_5262	-6689
unala	-6690
printw	-6691
ptrace	-6692
ToBytes	-6693
asprintf	-6694
Criticality	-6695
Er	-6696
uler	-6697
▁Per	-6698
▁rwl	-6699
cript	-6700
ticks	-6701
▁pending	-6702
kind	-6703
rreq	-6704
UTRAN	-6705
▁erst	-6706
ceiving	-6707
▁pixDestroy	-6708
Hc	-6709
pav	-6710
Rect	-6711
▁rsp	-6712
claim	-6713
▁exfat	-6714
▁directory	-6715
Grow	-6716
▁protobuf	-6717
heapadjust	-6718
▁ki	-6719
profile	-6720
subject	-6721
▁screen	-6722
boundPage	-6723
▁HawkThread	-6724
▁OutboundPage	-6725
Inv	-6726
▁pk	-6727
▁Tmp	-6728
▁Usb	-6729
▁gcr	-6730
▁tag	-6731
dealloc	-6732
▁cpvadd	-6733
▁waddch	-6734
▁getNext	-6735
MER	-6736
RGB	-6737
eto	-6738
▁ED	-6739
_180	-6740
igned	-6741
▁kftp	-6742
attrib	-6743
expire	-6744
freeze	-6745
account	-6746
▁daemon	-6747
▁console	-6748
▁getNode	-6749
▁fragments	-6750
▁HawkObjManager	-6751
aio	-6752
mob	-6753
ote	-6754
▁cyg	-6755
Change	-6756
enario	-6757
▁Convert	-6758
▁AcpiUtGet	-6759
EQ	-6760
Row	-6761
▁TS	-6762
ctrue	-6763
▁wget	-6764
Enable	-6765
punpckl	-6766
▁Accept	-6767
▁active	-6768
▁cctrue	-6769
▁cgiOut	-6770
▁uiplib	-6771
eol	-6772
fft	-6773
blas	-6774
fter	-6775
synch	-6776
delayed	-6777
▁Update	-6778
0_0	-6779
wig	-6780
▁SP	-6781
_6061	-6782
bprint	-6783
mapped	-6784
perand	-6785
▁entry	-6786
▁binary	-6787
▁cpfmax	-6788
SpaceData	-6789
initworker	-6790
▁globalUtil	-6791
fon	-6792
endl	-6793
Files	-6794
ender	-6795
utime	-6796
VarData	-6797
▁repeat	-6798
deadlock	-6799
scenario	-6800
Make	-6801
cons	-6802
sendto	-6803
putendl	-6804
pw	-6805
tos	-6806
▁row	-6807
rtattr	-6808
traces	-6809
fillset	-6810
tracing	-6811
▁option	-6812
Seq	-6813
sto	-6814
▁can	-6815
cached	-6816
▁getuid	-6817
▁drawCard	-6818
▁Tcp	-6819
▁rdr	-6820
arker	-6821
states	-6822
▁record	-6823
▁values	-6824
dispatch	-6825
isuserdata	-6826
jor	-6827
regs	-6828
scat	-6829
_16_1	-6830
stand	-6831
ListDir	-6832
▁sizetoint	-6833
Low	-6834
VER	-6835
abc	-6836
vecs	-6837
▁For	-6838
▁fxp	-6839
Probs	-6840
▁Task	-6841
vmexit	-6842
Timeout	-6843
tolower	-6844
▁ofpbuf	-6845
▁tracefs	-6846
Sop	-6847
▁bwa	-6848
▁not	-6849
Tests	-6850
codes	-6851
lected	-6852
▁IMesh	-6853
RootTable	-6854
PcdMaximum	-6855
▁verbosity	-6856
_65	-6857
▁Ip	-6858
▁iv	-6859
▁dlo	-6860
Unload	-6861
▁round	-6862
▁Output	-6863
▁classhash	-6864
▁cv	-6865
▁Msg	-6866
▁Pei	-6867
▁Random	-6868
▁fevent	-6869
Indicator	-6870
checkpoint	-6871
▁Hop	-6872
relax	-6873
▁mote	-6874
decomp	-6875
except	-6876
▁evtchn	-6877
children	-6878
LOB	-6879
png	-6880
_216	-6881
lyph	-6882
depend	-6883
RefCounter	-6884
localalias	-6885
▁GenVarData	-6886
thr	-6887
chld	-6888
Machine	-6889
icroseconds	-6890
▁advanceStream	-6891
Game	-6892
uate	-6893
▁hist	-6894
suppli	-6895
errupts	-6896
▁syserr	-6897
▁Pattern	-6898
▁MacroDefine	-6899
configuration	-6900
Tx	-6901
vc	-6902
Prev	-6903
atoi	-6904
cptr	-6905
disk	-6906
edit	-6907
pick	-6908
Limits	-6909
checks	-6910
▁Stack	-6911
parents	-6912
pattern	-6913
▁cached	-6914
▁trapped	-6915
HashTable	-6916
▁irc	-6917
paging	-6918
settings	-6919
Increment	-6920
▁zconfprint	-6921
▁GenSpaceData	-6922
▁GTestMutexLock	-6923
_59	-6924
After	-6925
shake	-6926
spend	-6927
▁icebp	-6928
▁rmdir	-6929
transfer	-6930
▁HawkVector	-6931
game	-6932
jpeg	-6933
unds	-6934
▁sdp	-6935
Leave	-6936
Limit	-6937
agate	-6938
▁yyrline	-6939
▁unicastconn	-6940
zz	-6941
grid	-6942
▁BASM	-6943
▁ucimap	-6944
ipchksum	-6945
▁cpupool	-6946
▁newdata	-6947
connected	-6948
strsource	-6949
AE	-6950
towc	-6951
▁blk	-6952
▁Code	-6953
HashSet	-6954
charset	-6955
errprintf	-6956
▁com	-6957
▁mob	-6958
▁iovec	-6959
▁lstat	-6960
▁tuple	-6961
▁cpHashSet	-6962
▁zlibVersion	-6963
83	-6964
85	-6965
Bn	-6966
Div	-6967
_80	-6968
▁nt	-6969
▁Sec	-6970
▁ipv	-6971
Btree	-6972
cheme	-6973
▁fftw	-6974
▁concat	-6975
▁Execute	-6976
Transparent	-6977
la	-6978
Req	-6979
pkg	-6980
anno	-6981
bias	-6982
ehdr	-6983
plug	-6984
tured	-6985
▁Conn	-6986
Static	-6987
▁lower	-6988
Converter	-6989
ObjFanout	-6990
subbuffer	-6991
▁mmemlist	-6992
_405	-6993
▁Mock	-6994
▁peek	-6995
▁async	-6996
▁place	-6997
▁globals	-6998
▁Resistor	-6999
▁transmit	-7000
pte	-7001
mday	-7002
▁nan	-7003
LINEA	-7004
▁ceil	-7005
▁fifo	-7006
▁guid	-7007
triple	-7008
answers	-7009
Microseconds	-7010
Unal	-7011
ster	-7012
Track	-7013
▁PPMd	-7014
▁drop	-7015
▁matd	-7016
comment	-7017
hdrsize	-7018
▁context	-7019
FailureMessage	-7020
Top	-7021
ama	-7022
▁Pkg	-7023
press	-7024
▁prof	-7025
synthe	-7026
▁Matrix	-7027
▁curbuf	-7028
Algorith	-7029
Unstable	-7030
▁Structure	-7031
▁AcpiUtTrace	-7032
lif	-7033
▁ar	-7034
▁mf	-7035
▁zs	-7036
buck	-7037
mapp	-7038
osip	-7039
ended	-7040
TreeNode	-7041
Bar	-7042
Rel	-7043
▁ck	-7044
▁pm	-7045
RREG	-7046
sqrt	-7047
▁def	-7048
▁myD	-7049
Pages	-7050
▁gain	-7051
submit	-7052
writen	-7053
cpumask	-7054
timediff	-7055
LINEARREG	-7056
▁nanswers	-7057
ingFixture	-7058
SU	-7059
MSB	-7060
Tag	-7061
▁Len	-7062
Model	-7063
ished	-7064
▁knet	-7065
Render	-7066
emalloc	-7067
Unaligned	-7068
▁Rc	-7069
buff	-7070
vtmp	-7071
▁vli	-7072
bytesTo	-7073
▁RcTree	-7074
bytesToNative	-7075
nativeToBytes	-7076
POL	-7077
Rout	-7078
_430	-7079
▁luaS	-7080
▁Mutex	-7081
deliver	-7082
reasons	-7083
Dispatch	-7084
▁invalid	-7085
▁ixmlNode	-7086
cpuaffinity	-7087
aps	-7088
▁fn	-7089
STAR	-7090
PUCCH	-7091
_2284	-7092
▁offset	-7093
▁triple	-7094
ToOffset	-7095
illi	-7096
▁iss	-7097
▁pol	-7098
Width	-7099
nonce	-7100
▁getE	-7101
▁setfd	-7102
storage	-7103
allocated	-7104
punpcklbw	-7105
▁locroute	-7106
RootTableList	-7107
bittestandreset	-7108
▁bwt	-7109
▁luaT	-7110
Marker	-7111
StrLen	-7112
▁ascii	-7113
▁image	-7114
▁TIFFError	-7115
▁Pop	-7116
Props	-7117
▁areg	-7118
▁disp	-7119
▁execl	-7120
namelen	-7121
routing	-7122
▁xfwrite	-7123
▁setfdlimit	-7124
▁DevPathToText	-7125
▁mce	-7126
▁rew	-7127
▁INFO	-7128
▁enter	-7129
filtered	-7130
incoming	-7131
▁PkgFile	-7132
finiworker	-7133
Pin	-7134
utf	-7135
Depth	-7136
▁Socket	-7137
relocate	-7138
▁interrupt	-7139
▁incomplete	-7140
doc	-7141
usb	-7142
▁dd	-7143
▁nb	-7144
fold	-7145
▁Local	-7146
▁ungetc	-7147
ada	-7148
fsm	-7149
rad	-7150
▁bk	-7151
▁lh	-7152
atty	-7153
Named	-7154
ipInfo	-7155
sockname	-7156
duplicate	-7157
tw	-7158
▁ST	-7159
▁om	-7160
psub	-7161
true	-7162
▁ofs	-7163
▁yyrhs	-7164
▁kimage	-7165
buffered	-7166
Parameter	-7167
Rx	-7168
LOG	-7169
ndx	-7170
_420	-7171
▁Ver	-7172
_6021	-7173
_6091	-7174
trust	-7175
▁Push	-7176
▁grow	-7177
▁webs	-7178
cookie	-7179
semble	-7180
▁GVars	-7181
▁errmsg	-7182
▁invarg	-7183
supplicant	-7184
▁STREAMRead	-7185
▁zconferror	-7186
Me	-7187
xv	-7188
31_	-7189
HAS	-7190
Mon	-7191
_3_	-7192
optA	-7193
alert	-7194
shdrs	-7195
slong	-7196
▁basm	-7197
strtabs	-7198
symtabs	-7199
▁mtarch	-7200
▁tsdseg	-7201
▁tsdsize	-7202
▁fullname	-7203
▁LexGetToken	-7204
Full	-7205
ints	-7206
prhs	-7207
prim	-7208
▁rep	-7209
leave	-7210
retry	-7211
▁tmem	-7212
Folder	-7213
actions	-7214
▁yyprhs	-7215
ipReader	-7216
abo	-7217
rem	-7218
easy	-7219
iali	-7220
▁PyInt	-7221
nam	-7222
0_38	-7223
_2662	-7224
▁strlcat	-7225
▁function	-7226
▁HawkRefCounter	-7227
GE	-7228
SP	-7229
8_0	-7230
pit	-7231
_300	-7232
fvec	-7233
▁now	-7234
▁CORD	-7235
byteinc	-7236
oneline	-7237
▁errhandler	-7238
NS	-7239
Down	-7240
▁Aig	-7241
▁unl	-7242
▁mpiP	-7243
strlcpy	-7244
encoding	-7245
handshake	-7246
CI	-7247
rows	-7248
trac	-7249
▁cbfs	-7250
logger	-7251
▁super	-7252
waiting	-7253
ipaddrconv	-7254
▁powertrace	-7255
06	-7256
atal	-7257
▁Calc	-7258
▁ehdr	-7259
▁fsync	-7260
noexcept	-7261
operator	-7262
▁gzdopen	-7263
▁prefixcmp	-7264
AGS	-7265
lon	-7266
▁UP	-7267
PPMd	-7268
Stra	-7269
aGet	-7270
▁gfx	-7271
creat	-7272
ground	-7273
▁button	-7274
UnitTest	-7275
gon	-7276
pdn	-7277
dist	-7278
▁DBG	-7279
▁svg	-7280
stdio	-7281
Support	-7282
▁kputsn	-7283
▁netmask	-7284
Normalize	-7285
Statement	-7286
▁CsrCryptoBn	-7287
oa	-7288
API	-7289
DYN	-7290
_71	-7291
med	-7292
Bool	-7293
Pixel	-7294
▁zero	-7295
Receive	-7296
▁isatty	-7297
▁session	-7298
RO	-7299
▁cg	-7300
coord	-7301
ermin	-7302
▁Shape	-7303
▁RedInode	-7304
Cmp	-7305
toi	-7306
Rand	-7307
glob	-7308
plat	-7309
qnum	-7310
STree	-7311
ioreq	-7312
▁gOut	-7313
Unlock	-7314
CoreVol	-7315
▁mpiPif	-7316
memalloc	-7317
▁resolve	-7318
▁TreeNode	-7319
GetCurrent	-7320
▁itimerval	-7321
LibConstructor	-7322
NF	-7323
▁Bug	-7324
▁syn	-7325
cflag	-7326
▁ipcp	-7327
▁part	-7328
Operator	-7329
Strategy	-7330
▁ucontext	-7331
precedence	-7332
▁ConnBridge	-7333
▁Subscription	-7334
Leaf	-7335
edure	-7336
rules	-7337
▁apama	-7338
▁dlopen	-7339
▁fdopen	-7340
freelist	-7341
xchg	-7342
▁bbb	-7343
arenas	-7344
capacity	-7345
Ic	-7346
hc	-7347
▁vc	-7348
ctors	-7349
disks	-7350
▁Show	-7351
mlBase	-7352
▁align	-7353
▁tunala	-7354
Shm	-7355
cor	-7356
fici	-7357
lish	-7358
ssse	-7359
▁pwm	-7360
Names	-7361
ReadByte	-7362
▁dequeue	-7363
▁gzrewind	-7364
▁condition	-7365
▁lookahead	-7366
meas	-7367
▁echo	-7368
reject	-7369
resume	-7370
Activate	-7371
▁NetUser	-7372
▁xcalloc	-7373
▁PointerToOffset	-7374
Na	-7375
oot	-7376
prz	-7377
UTRA	-7378
▁tok	-7379
Occur	-7380
▁Data	-7381
▁writen	-7382
▁outfile	-7383
▁hc	-7384
ente	-7385
▁Opt	-7386
Instr	-7387
retty	-7388
suite	-7389
digest	-7390
getstr	-7391
msgque	-7392
literal	-7393
▁Pretty	-7394
BIO	-7395
FAT	-7396
_410	-7397
atom	-7398
haust	-7399
iovar	-7400
shndx	-7401
Comment	-7402
foreach	-7403
UnstablePeriod	-7404
sage	-7405
▁gxv	-7406
Chain	-7407
cross	-7408
major	-7409
sible	-7410
▁verb	-7411
▁Fixed	-7412
▁Query	-7413
feature	-7414
▁getElf	-7415
Contains	-7416
Substring	-7417
▁swapTask	-7418
Db	-7419
most	-7420
topp	-7421
▁cho	-7422
Sample	-7423
pushcc	-7424
strict	-7425
▁onvif	-7426
▁Factor	-7427
plyCount	-7428
membarrier	-7429
pushcclosure	-7430
▁mosquittopp	-7431
PM	-7432
0_4	-7433
RNC	-7434
cdb	-7435
▁Gd	-7436
Vocab	-7437
_4490	-7438
junct	-7439
▁ivrs	-7440
mbtowc	-7441
▁Match	-7442
▁Invalid	-7443
PRI	-7444
plain	-7445
▁outb	-7446
▁pprz	-7447
opcode	-7448
indexed	-7449
ipolite	-7450
assemble	-7451
hostname	-7452
_421	-7453
redi	-7454
▁Sem	-7455
▁shl	-7456
▁clif	-7457
strjoin	-7458
▁bignbr	-7459
MemoryLeak	-7460
PHT	-7461
umns	-7462
_2627	-7463
ential	-7464
▁xalloc	-7465
▁changes	-7466
▁forward	-7467
▁getCost	-7468
▁FixedFormat	-7469
▁InstructionData	-7470
cos	-7471
Done	-7472
▁End	-7473
▁dmi	-7474
touch	-7475
▁curl	-7476
▁huge	-7477
▁pick	-7478
Writer	-7479
▁nodes	-7480
▁commit	-7481
▁callback	-7482
▁settings	-7483
Controller	-7484
OB	-7485
8_4	-7486
SET	-7487
Ste	-7488
dao	-7489
wps	-7490
▁im	-7491
_250	-7492
defs	-7493
▁hpet	-7494
Finish	-7495
eneral	-7496
nameinfo	-7497
▁mapping	-7498
dn	-7499
hid	-7500
qpp	-7501
sin	-7502
sqr	-7503
9_2_	-7504
Anal	-7505
video	-7506
_13894	-7507
_13898	-7508
urHash	-7509
▁Taint	-7510
▁ipaddr	-7511
▁mosqpp	-7512
parallel	-7513
extension	-7514
intercept	-7515
▁filesize	-7516
608	-7517
uer	-7518
Lump	-7519
Term	-7520
▁inc	-7521
Latch	-7522
lapse	-7523
rease	-7524
▁genlmsg	-7525
Generator	-7526
workgroup	-7527
89	-7528
▁BU	-7529
ties	-7530
Round	-7531
grant	-7532
iform	-7533
▁orig	-7534
▁sniff	-7535
▁evhttp	-7536
▁passwd	-7537
▁Connect	-7538
▁bitmask	-7539
Formatter	-7540
Successor	-7541
▁SDMMessage	-7542
▁PL	-7543
▁saf	-7544
▁dhcp	-7545
NodeIs	-7546
abolic	-7547
▁equal	-7548
▁gaRed	-7549
DynEntry	-7550
▁summary	-7551
▁Parabolic	-7552
▁ParabolicFinder	-7553
NT	-7554
ename	-7555
untag	-7556
▁idle	-7557
OpCode	-7558
▁Count	-7559
▁kputc	-7560
eroPool	-7561
▁traverse	-7562
endingTask	-7563
▁bytecount	-7564
HO	-7565
IC	-7566
▁RE	-7567
_434	-7568
▁aio	-7569
▁Swig	-7570
▁stun	-7571
▁unit	-7572
Strash	-7573
bitmask	-7574
▁sparse	-7575
▁SelectStream	-7576
Are	-7577
_70	-7578
irm	-7579
▁ae	-7580
▁tq	-7581
this	-7582
▁csv	-7583
▁pal	-7584
▁atom	-7585
Notify	-7586
button	-7587
▁Device	-7588
channels	-7589
▁TestCheck	-7590
gettimeofday	-7591
nid	-7592
▁Tk	-7593
▁rth	-7594
▁sdscat	-7595
▁spfree	-7596
username	-7597
processes	-7598
Rem	-7599
mea	-7600
cmds	-7601
otal	-7602
▁sas	-7603
union	-7604
▁mlock	-7605
virtual	-7606
▁finish	-7607
memalign	-7608
▁nedalloc	-7609
▁PendingTask	-7610
▁TIFFErrorExt	-7611
iop	-7612
_401	-7613
lean	-7614
▁HTS	-7615
gtest	-7616
Proper	-7617
Replace	-7618
pecific	-7619
Multiple	-7620
TickTask	-7621
cpt	-7622
szad	-7623
▁rlc	-7624
fontp	-7625
iotlb	-7626
▁Date	-7627
▁cons	-7628
byaddr	-7629
strtok	-7630
suspend	-7631
Location	-7632
segments	-7633
▁xmmword	-7634
StringEquals	-7635
SE	-7636
Smm	-7637
slo	-7638
Wlan	-7639
acha	-7640
Recur	-7641
Script	-7642
▁radio	-7643
Boolean	-7644
capture	-7645
▁Service	-7646
▁GetToken	-7647
▁Factorial	-7648
▁getsockname	-7649
Gr	-7650
▁nv	-7651
Desc	-7652
msrs	-7653
▁fsm	-7654
sonly	-7655
Library	-7656
commands	-7657
character	-7658
▁GetString	-7659
bv	-7660
Args	-7661
▁tan	-7662
realm	-7663
▁really	-7664
▁showmsg	-7665
▁NoMemory	-7666
mu	-7667
ATE	-7668
dns	-7669
▁As	-7670
▁WW	-7671
▁lf	-7672
ieve	-7673
weep	-7674
▁WWW	-7675
▁win	-7676
Coord	-7677
mtime	-7678
_604290	-7679
FromLong	-7680
▁QString	-7681
pagesizes	-7682
▁setitimer	-7683
▁CB	-7684
▁MM	-7685
▁Op	-7686
_406	-7687
▁Pci	-7688
newln	-7689
rdtsc	-7690
▁Fraig	-7691
Contact	-7692
separate	-7693
▁HawkFolder	-7694
Any	-7695
irk	-7696
▁hv	-7697
▁mg	-7698
Post	-7699
_412	-7700
_605	-7701
blem	-7702
▁fib	-7703
▁Expr	-7704
▁ctrl	-7705
▁nmea	-7706
▁spawn	-7707
▁dictId	-7708
▁environ	-7709
▁PMurHash	-7710
▁collapse	-7711
▁locprefix	-7712
checkinteger	-7713
Idx	-7714
____	-7715
rapl	-7716
▁job	-7717
QName	-7718
canon	-7719
▁Curl	-7720
iangle	-7721
Cleanup	-7722
average	-7723
▁Global	-7724
▁dirname	-7725
condition	-7726
▁CollCount	-7727
▁DevicePath	-7728
Tbl	-7729
▁of	-7730
Face	-7731
delt	-7732
pand	-7733
ssed	-7734
wire	-7735
_3944	-7736
▁polevl	-7737
▁symtab	-7738
NtkCreate	-7739
Tokenizer	-7740
▁LinkList	-7741
getspecific	-7742
NPC	-7743
▁vh	-7744
chol	-7745
_3933	-7746
▁bits	-7747
scalar	-7748
flating	-7749
▁SwigPy	-7750
▁finalst	-7751
▁tasklet	-7752
translate	-7753
05	-7754
eth	-7755
requ	-7756
resp	-7757
▁Hii	-7758
▁bor	-7759
▁pap	-7760
fdelt	-7761
▁hmap	-7762
▁allow	-7763
▁bswap	-7764
written	-7765
▁inited	-7766
maxclass	-7767
tonumber	-7768
▁AppendMessage	-7769
SG	-7770
asy	-7771
izz	-7772
▁bg	-7773
mdoc	-7774
_4059	-7775
_6112	-7776
sigrt	-7777
▁MShm	-7778
▁dtls	-7779
Compar	-7780
▁tnode	-7781
handlers	-7782
LastError	-7783
StackFrame	-7784
tt	-7785
Bus	-7786
gif	-7787
Real	-7788
Scsi	-7789
Unix	-7790
_650	-7791
glue	-7792
imal	-7793
ligh	-7794
▁clk	-7795
▁FIFO	-7796
▁endl	-7797
INTEGER	-7798
ObjName	-7799
opendir	-7800
▁Config	-7801
isstring	-7802
messages	-7803
▁netaddr	-7804
Formatted	-7805
▁gaRedVolume	-7806
Sl	-7807
rq	-7808
Ack	-7809
▁pq	-7810
▁bfd	-7811
▁gmp	-7812
Digit	-7813
associ	-7814
locale	-7815
▁xleft	-7816
ioapics	-7817
▁Listen	-7818
▁discover	-7819
createtable	-7820
UI	-7821
30_	-7822
Hawk	-7823
Used	-7824
serv	-7825
▁train	-7826
allowed	-7827
DateTime	-7828
SimpleString	-7829
EMA	-7830
NAS	-7831
Usb	-7832
_290	-7833
msgs	-7834
▁lrs	-7835
▁prt	-7836
▁RAND	-7837
_10480	-7838
▁strim	-7839
allback	-7840
▁StringPair	-7841
▁kv	-7842
inet	-7843
▁NME	-7844
freed	-7845
▁chacha	-7846
overflow	-7847
hashtable	-7848
▁contains	-7849
▁supplyCount	-7850
ADR	-7851
Draw	-7852
Recv	-7853
▁pir	-7854
▁Inet	-7855
▁binrpc	-7856
WriteReg	-7857
platform	-7858
▁machine	-7859
growstack	-7860
▁external	-7861
▁duplicate	-7862
▁TestPrintf	-7863
▁SLPProperty	-7864
Sys	-7865
hit	-7866
Loop	-7867
acce	-7868
cpup	-7869
seti	-7870
tool	-7871
▁unz	-7872
_4340	-7873
_6172	-7874
izzle	-7875
lored	-7876
omain	-7877
other	-7878
vision	-7879
Registr	-7880
methods	-7881
▁choose	-7882
mismatch	-7883
takedata	-7884
▁swizzle	-7885
CheckLimits	-7886
▁safemalloc	-7887
fx	-7888
sat	-7889
▁dg	-7890
▁rd	-7891
cent	-7892
▁mak	-7893
_6108	-7894
audio	-7895
▁HTTP	-7896
Atomic	-7897
optind	-7898
_614290	-7899
closure	-7900
disjunct	-7901
pushboolean	-7902
_76	-7903
cnv	-7904
▁Sd	-7905
_914	-7906
hmac	-7907
▁DSA	-7908
_1564	-7909
licit	-7910
▁inat	-7911
▁cross	-7912
▁Delete	-7913
▁linkage	-7914
▁verblevel	-7915
html	-7916
▁COL	-7917
cause	-7918
▁WADR	-7919
▁affi	-7920
addstr	-7921
FreeMem	-7922
Summary	-7923
maphore	-7924
listenfd	-7925
_72	-7926
ivr	-7927
diag	-7928
▁Pic	-7929
_4471	-7930
▁numa	-7931
gettag	-7932
▁hists	-7933
Transfer	-7934
▁yyalloc	-7935
Configuration	-7936
jb	-7937
968	-7938
Tex	-7939
___	-7940
INIT	-7941
king	-7942
▁Sys	-7943
▁libc	-7944
bucket	-7945
spectr	-7946
mappings	-7947
streambuf	-7948
▁GenericVector	-7949
hv	-7950
AST	-7951
Com	-7952
sim	-7953
_020	-7954
rase	-7955
▁Recv	-7956
▁tail	-7957
clocks	-7958
▁FLAGS	-7959
▁pwrite	-7960
▁should	-7961
Validate	-7962
▁account	-7963
▁checkSame	-7964
COMP	-7965
Step	-7966
runq	-7967
title	-7968
▁grid	-7969
▁prime	-7970
discard	-7971
specific	-7972
▁refresh	-7973
Initialize	-7974
PtrAndSize	-7975
▁AcpiUtRemove	-7976
GR	-7977
Ent	-7978
RES	-7979
fol	-7980
▁oc	-7981
611_	-7982
rdata	-7983
▁edge	-7984
▁lfds	-7985
_406086	-7986
▁Collada	-7987
▁sendmsg	-7988
sigsetjmp	-7989
▁nestedhvm	-7990
authentication	-7991
RM	-7992
bro	-7993
mio	-7994
▁Pl	-7995
insn	-7996
▁utf	-7997
Neigh	-7998
▁nvmx	-7999
IRExpr	-8000
Unique	-8001
effici	-8002
▁Build	-8003
▁fetch	-8004
▁space	-8005
library	-8006
ErrorMessage	-8007
instructions	-8008
FormattedNumber	-8009
hz	-8010
sup	-8011
▁wes	-8012
Errno	-8013
▁jobs	-8014
Single	-8015
▁actual	-8016
EncodeBit	-8017
▁HawkTask	-8018
▁rtmetric	-8019
nonblocking	-8020
▁VariableAlloc	-8021
ich	-8022
nxt	-8023
wan	-8024
High	-8025
band	-8026
lstr	-8027
pirq	-8028
Lists	-8029
light	-8030
sical	-8031
defaults	-8032
▁hostname	-8033
▁mythread	-8034
▁senddata	-8035
Complement	-8036
synthesize	-8037
xr	-8038
esc	-8039
pas	-8040
▁uv	-8041
acon	-8042
once	-8043
▁Cap	-8044
Stats	-8045
phase	-8046
▁Mono	-8047
charge	-8048
iovlen	-8049
etition	-8050
▁Cleanup	-8051
Installer	-8052
scheduler	-8053
ImageHandle	-8054
An	-8055
Fd	-8056
tomb	-8057
Blocks	-8058
▁pause	-8059
MapNode	-8060
▁Decode	-8061
▁orcDYN	-8062
copyable	-8063
▁average	-8064
▁nullsub	-8065
▁noncopyable	-8066
hes	-8067
mur	-8068
tar	-8069
▁cd	-8070
alarm	-8071
readn	-8072
sslog	-8073
cmpxchg	-8074
announce	-8075
execveat	-8076
▁mpsslog	-8077
▁DateTime	-8078
▁cMutexLock	-8079
▁CoreSession	-8080
Exc	-8081
lru	-8082
▁bkc	-8083
▁esl	-8084
▁idx	-8085
Upper	-8086
nilob	-8087
▁left	-8088
ByName	-8089
Packed	-8090
setting	-8091
▁tapdev	-8092
▁termin	-8093
Priority	-8094
periodic	-8095
nilobject	-8096
▁bufchain	-8097
▁serialPut	-8098
▁symfilelist	-8099
rth	-8100
oriz	-8101
▁Tvbf	-8102
▁Driver	-8103
▁address	-8104
▁fnmatch	-8105
GetString	-8106
description	-8107
fabs	-8108
▁aup	-8109
▁lat	-8110
▁xdr	-8111
_5260	-8112
prime	-8113
strchr	-8114
ulator	-8115
▁PyExc	-8116
▁mktime	-8117
▁setenv	-8118
markobject	-8119
readeflags	-8120
ServicesTable	-8121
rab	-8122
loss	-8123
▁eat	-8124
Async	-8125
unset	-8126
▁Lith	-8127
▁desc	-8128
▁shlx	-8129
▁sinI	-8130
▁acked	-8131
▁btree	-8132
install	-8133
checkany	-8134
▁IsPrime	-8135
▁cpShape	-8136
▁generic	-8137
OutputStream	-8138
BDF	-8139
Std	-8140
dip	-8141
▁att	-8142
Seeds	-8143
ained	-8144
▁dead	-8145
little	-8146
▁Graph	-8147
freeall	-8148
▁Encode	-8149
▁paging	-8150
antSeeds	-8151
▁simplify	-8152
PD	-8153
but	-8154
itoa	-8155
▁dao	-8156
Chars	-8157
_2654	-8158
tempt	-8159
generator	-8160
TestFunction	-8161
dm	-8162
Sem	-8163
sap	-8164
sof	-8165
▁bf	-8166
▁fb	-8167
_440	-8168
▁aid	-8169
Begin	-8170
ONENT	-8171
lexer	-8172
smbus	-8173
ardware	-8174
matching	-8175
normalize	-8176
Attributes	-8177
Inc	-8178
Cube	-8179
_4657	-8180
aubio	-8181
sname	-8182
▁plug	-8183
declar	-8184
exhaust	-8185
ression	-8186
xenheap	-8187
▁tunnel	-8188
interior	-8189
toregion	-8190
▁encrypt	-8191
▁options	-8192
Procedure	-8193
▁AcpiUtCreate	-8194
Sign	-8195
▁est	-8196
_5259	-8197
_6030	-8198
_6105	-8199
tuser	-8200
▁strp	-8201
▁Picoc	-8202
AddItem	-8203
▁strspn	-8204
▁compile	-8205
▁vsprintf	-8206
identifier	-8207
ularExpression	-8208
xx	-8209
por	-8210
fenv	-8211
▁rbx	-8212
allen	-8213
quant	-8214
▁loop	-8215
▁ybot	-8216
unwind	-8217
elapsed	-8218
▁Packet	-8219
accessed	-8220
Arguments	-8221
tv	-8222
Lex	-8223
jac	-8224
▁Bl	-8225
ivrs	-8226
GetEntry	-8227
SetBuffer	-8228
▁Th	-8229
Cast	-8230
quat	-8231
▁iov	-8232
iterate	-8233
▁ignore	-8234
Threshold	-8235
▁getsockopt	-8236
▁EventMachine	-8237
lg	-8238
TAB	-8239
▁Mat	-8240
▁den	-8241
lision	-8242
ToAscii	-8243
lication	-8244
runerror	-8245
ToPointer	-8246
itu	-8247
▁CL	-8248
Prog	-8249
intr	-8250
ostat	-8251
▁best	-8252
▁upper	-8253
MovePos	-8254
_609138	-8255
Resource	-8256
indirect	-8257
Bandwidth	-8258
▁gainCard	-8259
▁verbError	-8260
MatchesSpec	-8261
▁symfilecnt	-8262
▁defaultline	-8263
▁cgiFormEntry	-8264
AsCharPtrAndSize	-8265
isc	-8266
Conf	-8267
▁freq	-8268
▁Offset	-8269
signature	-8270
▁nanosleep	-8271
Main	-8272
Visi	-8273
▁mtrr	-8274
invert	-8275
Trigger	-8276
▁drawrect	-8277
BuildValue	-8278
currentThread	-8279
xis	-8280
Edge	-8281
▁rtp	-8282
▁vxo	-8283
arith	-8284
▁html	-8285
▁icem	-8286
▁noop	-8287
readnb	-8288
▁tmesh	-8289
irection	-8290
toptions	-8291
▁FileInfo	-8292
DebugPrint	-8293
▁UnitTestOptions	-8294
esm	-8295
▁gn	-8296
Wrap	-8297
disc	-8298
▁ber	-8299
▁cwd	-8300
ialog	-8301
speed	-8302
attempt	-8303
obstack	-8304
▁isEmpty	-8305
▁zcalloc	-8306
▁regerror	-8307
wantoptions	-8308
awg	-8309
▁ls	-8310
▁csp	-8311
Ready	-8312
slice	-8313
▁gbox	-8314
Direct	-8315
strnew	-8316
▁found	-8317
Impulse	-8318
buffers	-8319
initial	-8320
▁dlinfo	-8321
▁iupStr	-8322
vsnprintf	-8323
ReleaseMutex	-8324
ces	-8325
_411	-8326
leaf	-8327
nable	-8328
trail	-8329
column	-8330
getint	-8331
support	-8332
▁SkipDB	-8333
Contents	-8334
▁conring	-8335
▁sigfillset	-8336
▁TestFailure	-8337
UnicodeString	-8338
nv	-8339
bra	-8340
cir	-8341
uac	-8342
▁SQ	-8343
Safe	-8344
heads	-8345
score	-8346
extend	-8347
wctomb	-8348
▁evalst	-8349
▁setjmp	-8350
completion	-8351
touserdata	-8352
▁VarHolderImpl	-8353
GC	-8354
qh	-8355
Dbg	-8356
lev	-8357
nest	-8358
▁isn	-8359
_6041	-8360
divide	-8361
htable	-8362
mounts	-8363
▁First	-8364
▁HTSAC	-8365
▁episode	-8366
▁transfer	-8367
▁pinToGpio	-8368
DoubleToStr	-8369
▁IsSubstring	-8370
▁gImageHandle	-8371
▁aos	-8372
invalid	-8373
▁CollAt	-8374
▁reactor	-8375
▁checksum	-8376
▁xrealloc	-8377
▁byteReverse	-8378
▁OffsetToPointer	-8379
UT	-8380
cand	-8381
ised	-8382
▁BWT	-8383
▁mdl	-8384
Usage	-8385
ycles	-8386
▁prod	-8387
ermine	-8388
resync	-8389
▁cpPoly	-8390
structor	-8391
▁getppid	-8392
▁munlock	-8393
▁CEncoder	-8394
Whitespace	-8395
▁Connection	-8396
▁alarmcount	-8397
▁CheckFailed	-8398
_608	-8399
▁fac	-8400
▁thr	-8401
redis	-8402
▁Swap	-8403
▁Queue	-8404
Disable	-8405
PtrPush	-8406
▁buflib	-8407
▁Replace	-8408
ProtoRule	-8409
inputfile	-8410
selection	-8411
▁OsCommand	-8412
▁addProtoRule	-8413
PTR	-8414
fun	-8415
pmp	-8416
Pipe	-8417
▁dec	-8418
Front	-8419
_3826	-8420
agram	-8421
liste	-8422
fclose	-8423
getopt	-8424
polygon	-8425
External	-8426
▁eventfd	-8427
serialize	-8428
▁deadline	-8429
▁windowend	-8430
InputStream	-8431
Stmt	-8432
Coins	-8433
Wtime	-8434
▁Look	-8435
dialog	-8436
▁Start	-8437
▁cpvsub	-8438
▁getblk	-8439
external	-8440
terminal	-8441
TraceFlag	-8442
▁reference	-8443
clocksource	-8444
transaction	-8445
EqualFailure	-8446
_74	-8447
dog	-8448
pwd	-8449
▁ui	-8450
▁ESL	-8451
▁MSG	-8452
▁asm	-8453
▁ebx	-8454
▁esi	-8455
▁rtt	-8456
▁vga	-8457
ToName	-8458
▁inser	-8459
dblevel	-8460
postfix	-8461
▁bufcat	-8462
▁comple	-8463
▁Colored	-8464
▁ColoredPrintf	-8465
cid	-8466
rss	-8467
land	-8468
pong	-8469
▁ruc	-8470
_32_0	-8471
_14558	-8472
ialise	-8473
▁lexer	-8474
▁myfree	-8475
delivery	-8476
standing	-8477
▁utvector	-8478
Parameters	-8479
▁printString	-8480
▁updatewindow	-8481
few	-8482
ugh	-8483
Swap	-8484
etwe	-8485
Dummy	-8486
ToInt	-8487
aFile	-8488
etween	-8489
filing	-8490
▁Bignum	-8491
▁ymmword	-8492
▁DkStream	-8493
UtilGetoptReset	-8494
Und	-8495
512_	-8496
▁spi	-8497
▁tnl	-8498
_6110	-8499
atpmp	-8500
▁oper	-8501
▁assoc	-8502
ATTRchar	-8503
▁wrefresh	-8504
mlDocument	-8505
ObjFaninNum	-8506
▁inflateGet	-8507
▁AcpiDbgLevel	-8508
Nee	-8509
▁dz	-8510
▁hl	-8511
▁hy	-8512
tirq	-8513
▁bee	-8514
▁fast	-8515
Needed	-8516
anyreg	-8517
colors	-8518
percpu	-8519
▁cList	-8520
primary	-8521
rtrealm	-8522
ToBuffer	-8523
selected	-8524
▁ListGetNext	-8525
TY	-8526
▁ze	-8527
ices	-8528
mega	-8529
onic	-8530
Truth	-8531
huffman	-8532
▁orcPHT	-8533
▁vmovaps	-8534
setcancel	-8535
▁cpfclamp	-8536
▁serveraddr	-8537
Pfx	-8538
alf	-8539
▁gw	-8540
vpmu	-8541
▁iks	-8542
_2283	-8543
_6113	-8544
_8808	-8545
black	-8546
endor	-8547
▁pkcs	-8548
Effect	-8549
▁rogue	-8550
consume	-8551
newdata	-8552
▁AcpiDm	-8553
▁zError	-8554
▁iupClass	-8555
fromregion	-8556
Ph	-8557
omm	-8558
ons	-8559
stab	-8560
▁Cat	-8561
▁imp	-8562
_3834	-8563
▁mpcf	-8564
▁sane	-8565
fxstat	-8566
Correct	-8567
_621248	-8568
atistic	-8569
rwunlock	-8570
Declaration	-8571
Play	-8572
seal	-8573
ssid	-8574
vals	-8575
▁FTP	-8576
▁bpn	-8577
▁drv	-8578
_3825	-8579
thing	-8580
▁Size	-8581
▁hard	-8582
0_3824	-8583
Values	-8584
etimer	-8585
testdev	-8586
▁usbdev	-8587
▁logWrite	-8588
▁testdevs	-8589
igitalRead	-8590
AV	-8591
HASH	-8592
NtkCo	-8593
▁Msat	-8594
samples	-8595
Interfaces	-8596
▁ReadUnaligned	-8597
ypt	-8598
▁IS	-8599
▁ha	-8600
_614	-8601
CFADD	-8602
Milli	-8603
iface	-8604
detect	-8605
planes	-8606
▁intel	-8607
FastRef	-8608
Storage	-8609
gettext	-8610
▁avance	-8611
▁cprint	-8612
▁sockfd	-8613
▁GetFirst	-8614
▁LVFastRef	-8615
▁Timestamp	-8616
getmetatable	-8617
▁EventObserver	-8618
108	-8619
uzz	-8620
_428	-8621
dasm	-8622
Clock	-8623
ilong	-8624
getbuf	-8625
trieve	-8626
▁zebra	-8627
Counted	-8628
Mapping	-8629
▁player	-8630
▁network	-8631
▁locdefrt	-8632
turedStream	-8633
ExceptionsIn	-8634
hap	-8635
tap	-8636
Seek	-8637
must	-8638
▁Std	-8639
▁Isos	-8640
NtkObj	-8641
cblock	-8642
closed	-8643
tifier	-8644
tohere	-8645
CirList	-8646
svector	-8647
▁totals	-8648
▁PutSeed	-8649
▁Isosurface	-8650
▁itimerspec	-8651
CirListDeque	-8652
LR	-8653
308	-8654
clb	-8655
prf	-8656
▁DL	-8657
devs	-8658
four	-8659
unge	-8660
gettm	-8661
msecs	-8662
mysql	-8663
▁ufat	-8664
Member	-8665
raised	-8666
tlsind	-8667
mallocz	-8668
▁mntent	-8669
Checksum	-8670
▁defined	-8671
tuserdata	-8672
▁fallocate	-8673
cm	-8674
hl	-8675
lsr	-8676
Rate	-8677
▁rpc	-8678
arest	-8679
orary	-8680
▁Scan	-8681
modInv	-8682
pcache	-8683
▁Fatal	-8684
▁omega	-8685
▁shift	-8686
ReadReg	-8687
allenge	-8688
▁height	-8689
▁master	-8690
▁percpu	-8691
pushligh	-8692
▁testnum	-8693
Interrupt	-8694
▁sequence	-8695
588	-8696
Neg	-8697
dem	-8698
eoi	-8699
_425	-8700
▁Abf	-8701
▁gfp	-8702
▁own	-8703
▁uri	-8704
LOBAL	-8705
_4056	-8706
▁bson	-8707
rename	-8708
▁Fgets	-8709
▁label	-8710
MethodIf	-8711
writable	-8712
defconfig	-8713
▁GetStream	-8714
AcquireMutex	-8715
▁getnameinfo	-8716
Fp	-8717
ECT	-8718
bee	-8719
dexp	-8720
ling	-8721
mmio	-8722
more	-8723
▁eof	-8724
▁Name	-8725
▁ftok	-8726
polate	-8727
▁chmod	-8728
CharString	-8729
Decompress	-8730
▁EventType	-8731
▁cpPolyShape	-8732
AI	-8733
SR	-8734
rk	-8735
_90	-8736
fdb	-8737
ini	-8738
ips	-8739
Auth	-8740
Peim	-8741
▁eqn	-8742
▁psf	-8743
_2334	-8744
▁Save	-8745
▁cell	-8746
stdout	-8747
▁Block	-8748
complex	-8749
strncat	-8750
▁substr	-8751
Progress	-8752
arpcache	-8753
indented	-8754
▁settime	-8755
Partition	-8756
▁MonoPool	-8757
▁AcpiDbgLayer	-8758
▁OnTestFailure	-8759
▁StreamTokenizer	-8760
Pub	-8761
vmcb	-8762
cepts	-8763
Circle	-8764
▁movem	-8765
browser	-8766
fixture	-8767
▁monster	-8768
▁gethostname	-8769
ProcedureCode	-8770
IF	-8771
srv	-8772
▁rk	-8773
Sink	-8774
▁hna	-8775
▁lex	-8776
Radio	-8777
Cached	-8778
ToOpen	-8779
broken	-8780
ioport	-8781
tracomm	-8782
▁STRING	-8783
Settings	-8784
▁install	-8785
▁Intracomm	-8786
▁FactorialTest	-8787
512	-8788
EDF	-8789
Off	-8790
▁um	-8791
cMsg	-8792
fadt	-8793
▁iso	-8794
_2336	-8795
ibble	-8796
▁LINU	-8797
▁Norm	-8798
▁Strip	-8799
Regular	-8800
softirq	-8801
▁fdDisk	-8802
▁derived	-8803
InputParam	-8804
▁getrusage	-8805
CAL	-8806
ism	-8807
Trav	-8808
dirs	-8809
▁Div	-8810
▁avl	-8811
▁mur	-8812
▁tms	-8813
_6142	-8814
▁yyin	-8815
Expand	-8816
bigint	-8817
issuer	-8818
stored	-8819
▁murmur	-8820
▁strlwc	-8821
▁vmovss	-8822
▁character	-8823
NtkIsStrash	-8824
▁IndexedList	-8825
EGS	-8826
▁bs	-8827
000_	-8828
Fetch	-8829
regions	-8830
▁syntax	-8831
Registry	-8832
registry	-8833
ObjIsNode	-8834
DevicePathNode	-8835
hf	-8836
820	-8837
ACM	-8838
▁PQ	-8839
▁uf	-8840
Board	-8841
Quant	-8842
68000_	-8843
Cancel	-8844
▁gfpow	-8845
▁onoff	-8846
BitScan	-8847
appendf	-8848
GetPrice	-8849
▁slabcache	-8850
▁InternalMem	-8851
UnloadHandler	-8852
▁asCharString	-8853
▁destroyDynArray	-8854
FR	-8855
wl	-8856
FFC	-8857
cef	-8858
▁xq	-8859
dele	-8860
▁tam	-8861
guard	-8862
▁cosf	-8863
▁edit	-8864
▁fake	-8865
GLOBAL	-8866
nameto	-8867
putest	-8868
ungetc	-8869
▁bread	-8870
▁felem	-8871
▁simpl	-8872
▁entries	-8873
nametoindex	-8874
ACH	-8875
Blk	-8876
Orig	-8877
calls	-8878
cvtpd	-8879
▁ILib	-8880
▁Page	-8881
▁need	-8882
▁ytop	-8883
setbuf	-8884
requeue	-8885
▁RedCore	-8886
▁tableTest	-8887
SegmentQuery	-8888
▁serialPutchar	-8889
TCP	-8890
dts	-8891
otg	-8892
ulk	-8893
▁fo	-8894
▁hw	-8895
ient	-8896
_6111	-8897
pavgb	-8898
rtprot	-8899
widget	-8900
▁drand	-8901
alifier	-8902
dsfield	-8903
strncmp	-8904
▁dbglog	-8905
undefine	-8906
▁FTPlast	-8907
toboolean	-8908
Comparison	-8909
▁Calculate	-8910
▁interface	-8911
Tcp	-8912
mic	-8913
▁dt	-8914
boost	-8915
ories	-8916
prior	-8917
olling	-8918
▁subst	-8919
parator	-8920
▁escape	-8921
ifstream	-8922
▁avcodec	-8923
makefinal	-8924
SetCurrent	-8925
▁FileSystem	-8926
▁NetChannel	-8927
Rec	-8928
hcp	-8929
udo	-8930
upr	-8931
▁Ad	-8932
▁CM	-8933
Bind	-8934
NBit	-8935
parm	-8936
uuid	-8937
▁Top	-8938
Cards	-8939
Merge	-8940
decay	-8941
media	-8942
▁Info	-8943
▁jlog	-8944
bignum	-8945
strsub	-8946
▁IScsi	-8947
▁whose	-8948
Execute	-8949
entropy	-8950
rtscope	-8951
▁Cached	-8952
localvar	-8953
▁listing	-8954
Broadcast	-8955
▁gGeneric	-8956
▁priority	-8957
▁disassemble	-8958
▁gGenericResp	-8959
▁CachedTreeNode	-8960
▁	-8961
e	-8962
_	-8963
r	-8964
t	-8965
n	-8966
i	-8967
(	-8968
)	-8969
u	-8970
;	-8971
m	-8972
b	-8973
s	-8974
*	-8975
N	-8976
a	-8977
=	-8978
d	-8979
c	-8980
l	-8981
,	-8982
f	-8983
o	-8984
g	-8985
6	-8986
+	-8987
4	-8988
D	-8989
p	-8990
O	-8991
R	-8992
W	-8993
{	-8994
}	-8995
h	-8996
&	-8997
Q	-8998
S	-8999
v	-9000
k	-9001
>	-9002
]	-9003
[	-9004
w	-9005
<	-9006
E	-9007
y	-9008
!	-9009
1	-9010
B	-9011
-	-9012
T	-9013
x	-9014
L	-9015
8	-9016
q	-9017
|	-9018
2	-9019
A	-9020
Y	-9021
C	-9022
P	-9023
I	-9024
z	-9025
:	-9026
0	-9027
F	-9028
3	-9029
M	-9030
H	-9031
5	-9032
G	-9033
9	-9034
^	-9035
U	-9036
7	-9037
.	-9038
j	-9039
V	-9040
