{
  "source": {
    "unk_id": 3,
    "word2id": {
      "<pad>": 0,
      "<s>": 1,
      "</s>": 2,
      "<unk>": 3,
      "<IDENTITY>": 4,
      "a1": 5,
      "a2": 6,
      "result": 7,
      "v4": 8,
      "v3": 9,
      "i": 10,
      "v5": 11,
      "v6": 12,
      "v2": 13,
      "v7": 14,
      "v8": 15,
      "a3": 16,
      "v9": 17,
      "v10": 18,
      "v1": 19,
      "v11": 20,
      "s": 21,
      "v12": 22,
      "j": 23,
      "a4": 24,
      "v13": 25,
      "ptr": 26,
      "v14": 27,
      "v15": 28,
      "v16": 29,
      "a5": 30,
      "s1": 31,
      "dest": 32,
      "v17": 33,
      "fd": 34,
      "v0": 35,
      "stream": 36,
      "v18": 37,
      "a6": 38,
      "k": 39,
      "n": 40,
      "v19": 41,
      "this": 42,
      "src": 43,
      "buf": 44,
      "v20": 45,
      "addr": 46,
      "v21": 47,
      "argv": 48,
      "a7": 49,
      "v22": 50,
      "l": 51,
      "v23": 52,
      "arg": 53,
      "s2": 54,
      "a8": 55,
      "filename": 56,
      "nptr": 57,
      "v24": 58,
      "argc": 59,
      "size": 60,
      "m": 61,
      "base": 62,
      "v25": 63,
      "_RAX": 64,
      "endptr": 65,
      "sops": 66,
      "n_4": 67,
      "v27": 68,
      "v26": 69,
      "a9": 70,
      "dirp": 71,
      "errnum": 72,
      "optval": 73,
      "sa": 74,
      "key": 75,
      "stat_loc": 76,
      "v28": 77,
      "a10": 78,
      "stat_buf": 79,
      "tv": 80,
      "ptra": 81,
      "v29": 82,
      "file": 83,
      "tp": 84,
      "shmid": 85,
      "a11": 86,
      "pid": 87,
      "name": 88,
      "jj": 89,
      "ii": 90,
      "envp": 91,
      "readfds": 92,
      "timer": 93,
      "v30": 94,
      "pai": 95,
      "newa": 96,
      "len": 97,
      "c": 98,
      "nbytes": 99,
      "pattern": 100,
      "haystack": 101,
      "addr_len": 102,
      "rlimits": 103,
      "v31": 104,
      "pipedes": 105,
      "a12": 106,
      "shmaddr": 107,
      "nmemb": 108,
      "v32": 109,
      "termios_p": 110,
      "msqid": 111,
      "path": 112,
      "fds": 113,
      "v33": 114,
      "cpuset": 115,
      "timeout": 116,
      "_RDX": 117,
      "a13": 118,
      "preg": 119,
      "newthread": 120,
      "v34": 121,
      "policy": 122,
      "x": 123,
      "format": 124,
      "buflen": 125,
      "status": 126,
      "streama": 127,
      "msgid": 128,
      "v35": 129,
      "v36": 130,
      "a14": 131,
      "message": 132,
      "kk": 133,
      "ntx": 134,
      "s1a": 135,
      "req": 136,
      "a15": 137,
      "lineptr": 138,
      "maxlen": 139,
      "set": 140,
      "size_4": 141,
      "ecode": 142,
      "dir": 143,
      "mutex": 144,
      "sb": 145,
      "argva": 146,
      "retaddr": 147,
      "th": 148,
      "attr": 149,
      "cp": 150,
      "pglob": 151,
      "command": 152,
      "handle": 153,
      "value": 154,
      "_RCX": 155,
      "msgtyp": 156,
      "offset": 157,
      "desta": 158,
      "v37": 159,
      "fda": 160,
      "v38": 161,
      "writefds": 162,
      "na": 163,
      "argca": 164,
      "hostlong": 165,
      "a16": 166,
      "oflag": 167,
      "seed": 168,
      "mnt": 169,
      "old": 170,
      "a17": 171,
      "srca": 172,
      "v39": 173,
      "save_ptr": 174,
      "_RBX": 175,
      "thread_return": 176,
      "errcode": 177,
      "fp": 178,
      "sig": 179,
      "v40": 180,
      "event": 181,
      "off": 182,
      "optlen": 183,
      "modes": 184,
      "patterna": 185,
      "string": 186,
      "msgtyp_4": 187,
      "msgtyp_4a": 188,
      "requested_time": 189,
      "exponent": 190,
      "y": 191,
      "addra": 192,
      "a18": 193,
      "v41": 194,
      "v44": 195,
      "longind": 196,
      "s2a": 197,
      "data": 198,
      "file_times": 199,
      "usage": 200,
      "v42": 201,
      "sizea": 202,
      "needle": 203,
      "array": 204,
      "seconds": 205,
      "optname": 206,
      "_XMM0": 207,
      "oset": 208,
      "errbuf": 209,
      "timerid": 210,
      "nbytes_4": 211,
      "in": 212,
      "abstime": 213,
      "flags": 214,
      "type": 215,
      "v43": 216,
      "addrb": 217,
      "_EAX": 218,
      "namelist": 219,
      "rwflag": 220,
      "v46": 221,
      "nptra": 222,
      "buffer": 223,
      "v45": 224,
      "_EDX": 225,
      "a19": 226,
      "memptr": 227,
      "v47": 228,
      "statusa": 229,
      "env": 230,
      "iovec": 231,
      "ai": 232,
      "special_file": 233,
      "exceptfds": 234,
      "inp": 235,
      "stringp": 236,
      "statusb": 237,
      "vars0": 238,
      "domain": 239,
      "vars108": 240,
      "_10": 241,
      "netlong": 242,
      "a20": 243,
      "_0": 244,
      "pmatch": 245,
      "clock_id": 246,
      "delim": 247,
      "savedregs": 248,
      "v50": 249,
      "in_fd": 250,
      "oflaga": 251,
      "param": 252,
      "mode": 253,
      "useconds": 254,
      "oldstate": 255,
      "flag": 256,
      "length": 257,
      "prot": 258,
      "epfd": 259,
      "v71": 260,
      "events": 261,
      "sem": 262,
      "v49": 263,
      "v51": 264,
      "a21": 265,
      "v48": 266,
      "uid": 267,
      "_60": 268,
      "_70": 269,
      "fildes": 270,
      "haystacka": 271,
      "outbuf": 272,
      "nmemb_4": 273,
      "out_fd": 274,
      "_130": 275,
      "v73": 276,
      "vars1008": 277,
      "whence": 278,
      "host": 279,
      "tz": 280,
      "msgp": 281,
      "nfds": 282,
      "service": 283,
      "ca": 284,
      "_R12": 285,
      "s1b": 286,
      "cmsg": 287,
      "ifname": 288,
      "n_4a": 289,
      "v52": 290,
      "protocol": 291,
      "utmr": 292,
      "a22": 293,
      "ptrb": 294,
      "pointer": 295,
      "v72": 296,
      "sc": 297,
      "speed": 298,
      "start_routine": 299,
      "v66": 300,
      "dev": 301,
      "start": 302,
      "entry": 303,
      "v53": 304,
      "a23": 305,
      "semid": 306,
      "v64": 307,
      "v59": 308,
      "ucp": 309,
      "v60": 310,
      "templatea": 311,
      "errnuma": 312,
      "result_buf": 313,
      "inbytesleft": 314,
      "s1c": 315,
      "outbytesleft": 316,
      "v55": 317,
      "cd": 318,
      "v54": 319,
      "v74": 320,
      "flagsa": 321,
      "from": 322,
      "serv": 323,
      "v58": 324,
      "v62": 325,
      "v78": 326,
      "optionp": 327,
      "v56": 328,
      "longopts": 329,
      "ufd": 330,
      "v65": 331,
      "time1": 332,
      "to": 333,
      "v67": 334,
      "xdrs": 335,
      "cosx": 336,
      "sd": 337,
      "_RDI": 338,
      "v61": 339,
      "a70": 340,
      "maxlen_4": 341,
      "destb": 342,
      "inbuf": 343,
      "off_4": 344,
      "retval": 345,
      "v57": 346,
      "v77": 347,
      "v63": 348,
      "numer": 349,
      "v76": 350,
      "a24": 351,
      "domaina": 352,
      "ap": 353,
      "ecodea": 354,
      "group": 355,
      "srcb": 356,
      "sinx": 357,
      "v69": 358,
      "iptr": 359,
      "salt": 360,
      "v80": 361,
      "h_errnop": 362,
      "nptrb": 363,
      "v75": 364,
      "count": 365,
      "fdb": 366,
      "mhdr": 367,
      "_RBP": 368,
      "ifap": 369,
      "_140": 370,
      "ovalue": 371,
      "v68": 372,
      "a25": 373,
      "compar": 374,
      "filenamea": 375,
      "v79": 376,
      "cond_attr": 377,
      "fmt": 378,
      "loadavg": 379,
      "v70": 380,
      "gid": 381,
      "remaining": 382,
      "envpa": 383,
      "delta": 384,
      "maxsize": 385,
      "stacksize": 386,
      "valuep": 387,
      "ifindex": 388,
      "typea": 389,
      "argvb": 390,
      "fstype": 391,
      "arga": 392,
      "tokens": 393,
      "format_4": 394,
      "_30": 395,
      "haystackb": 396,
      "locale": 397,
      "mask": 398,
      "xdr_location": 399,
      "a27": 400,
      "len_4": 401,
      "list": 402,
      "v83": 403,
      "groups": 404,
      "nb": 405,
      "shortopts": 406,
      "xa": 407,
      "a28": 408,
      "a26": 409,
      "vars28": 410,
      "vars8": 411,
      "time0": 412,
      "a39": 413,
      "oldmask": 414,
      "pwc": 415,
      "start_routinea": 416,
      "_XMM1": 417,
      "nbytesa": 418,
      "pos": 419,
      "info": 420,
      "nptrc": 421,
      "signo": 422,
      "tvp": 423,
      "a71": 424,
      "val": 425,
      "vars20": 426,
      "wc": 427,
      "a29": 428,
      "a30": 429,
      "owner": 430,
      "proto": 431,
      "ST30_16_1": 432,
      "_ECX": 433,
      "msgflg": 434,
      "ngroups": 435,
      "a38": 436,
      "detachstate": 437,
      "msgsz": 438,
      "p": 439,
      "pgrp": 440,
      "user": 441,
      "fd2": 442,
      "list_return": 443,
      "resolved": 444,
      "s2b": 445,
      "state": 446,
      "errnumb": 447,
      "flagsb": 448,
      "srcc": 449,
      "va": 450,
      "xdr_results": 451,
      "_RSI": 452,
      "act": 453,
      "block": 454,
      "haystacklen": 455,
      "_50": 456,
      "bufa": 457,
      "cb": 458,
      "nodep": 459,
      "seedval": 460,
      "_24": 461,
      "cond": 462,
      "handler": 463,
      "maxsizea": 464,
      "n_7": 465,
      "nptrd": 466,
      "streamb": 467,
      "v82": 468,
      "_48": 469,
      "_250": 470,
      "_4C": 471,
      "_78": 472,
      "major": 473,
      "minor": 474,
      "request": 475,
      "needlelen": 476,
      "offset_4": 477,
      "op": 478,
      "sval": 479,
      "cookie": 480,
      "decpt": 481,
      "ps": 482,
      "s1d": 483,
      "sizeloc": 484,
      "special": 485,
      "_20": 486,
      "clnt": 487,
      "hostlen": 488,
      "pri": 489,
      "res": 490,
      "timebuf": 491,
      "v81": 492,
      "a31": 493,
      "e": 494,
      "errcodea": 495,
      "formata": 496,
      "input": 497,
      "nptre": 498,
      "pwordexp": 499,
      "s2c": 500,
      "a32": 501,
      "new_len": 502,
      "pgrp_id": 503,
      "times": 504,
      "v118": 505,
      "ST00_32_4": 506,
      "_40": 507,
      "eflags": 508,
      "inc": 509,
      "instring": 510,
      "otmr": 511,
      "rwflaga": 512,
      "shmflg": 513,
      "hostname": 514,
      "hostp": 515,
      "inherit": 516,
      "level": 517,
      "maxlena": 518,
      "nmemba": 519,
      "pwcs": 520,
      "scope": 521,
      "shmida": 522,
      "suffixlen": 523,
      "vec": 524,
      "R": 525,
      "count_return": 526,
      "dst": 527,
      "fromcode": 528,
      "modea": 529,
      "newmask": 530,
      "objp": 531,
      "patha": 532,
      "salen": 533,
      "servlen": 534,
      "text_prop": 535,
      "up": 536,
      "v87": 537,
      "vars10": 538,
      "_58": 539,
      "_XMM2": 540,
      "fpa": 541,
      "namea": 542,
      "rwlock": 543,
      "v91": 544,
      "vars18": 545,
      "vars48": 546,
      "address": 547,
      "alignment": 548,
      "dest_8": 549,
      "how": 550,
      "ident": 551,
      "nfds_4": 552,
      "nmatch": 553,
      "nptrf": 554,
      "out": 555,
      "resultbuf": 556,
      "semnum": 557,
      "semnuma": 558,
      "sigmask": 559,
      "stat_loc_4": 560,
      "stringa": 561,
      "v85": 562,
      "a58": 563,
      "a69": 564,
      "accept": 565,
      "cflags": 566,
      "ll": 567,
      "pgid": 568,
      "reject": 569,
      "size_4a": 570,
      "statbuf": 571,
      "v114": 572,
      "v151": 573,
      "v84": 574,
      "v86": 575,
      "vars68": 576,
      "a72": 577,
      "argb": 578,
      "bufloc": 579,
      "category": 580,
      "child_stack": 581,
      "formatb": 582,
      "ipart": 583,
      "newthreada": 584,
      "old_len": 585,
      "pathb": 586,
      "v108": 587,
      "v112": 588,
      "valuea": 589,
      "_38": 590,
      "_420": 591,
      "a33": 592,
      "a40": 593,
      "a74": 594,
      "attrp": 595,
      "dest_4": 596,
      "dirent": 597,
      "evp": 598,
      "file_actions": 599,
      "identa": 600,
      "kind": 601,
      "netlonga": 602,
      "offa": 603,
      "se": 604,
      "seedval_4": 605,
      "v115": 606,
      "v129": 607,
      "_FST6": 608,
      "a62": 609,
      "dirpa": 610,
      "expbuf": 611,
      "hostlonga": 612,
      "lock": 613,
      "nent": 614,
      "v113": 615,
      "v88": 616,
      "v89": 617,
      "vmessages": 618,
      "wd": 619,
      "_BL": 620,
      "_EBX": 621,
      "a88": 622,
      "amaster": 623,
      "guardsize": 624,
      "ifa": 625,
      "pathname": 626,
      "proj_id": 627,
      "seed16v": 628,
      "srcd": 629,
      "v126": 630,
      "v130": 631,
      "v99": 632,
      "_A0": 633,
      "_R10": 634,
      "a35": 635,
      "a66": 636,
      "a90": 637,
      "arg_8": 638,
      "basea": 639,
      "cmd": 640,
      "domainname": 641,
      "edflag": 642,
      "errbuf_size": 643,
      "gc": 644,
      "hostshort": 645,
      "nptrg": 646,
      "nptrh": 647,
      "oact": 648,
      "offseta": 649,
      "oldtype": 650,
      "rqtp": 651,
      "str": 652,
      "v101": 653,
      "v102": 654,
      "v103": 655,
      "v105": 656,
      "v116": 657,
      "v120": 658,
      "v124": 659,
      "v125": 660,
      "v134": 661,
      "v90": 662,
      "v93": 663,
      "vars64": 664,
      "_340": 665,
      "_90": 666,
      "_R11": 667,
      "_R9": 668,
      "a102": 669,
      "a36": 670,
      "a37": 671,
      "a47": 672,
      "a55": 673,
      "a89": 674,
      "cpa": 675,
      "filea": 676,
      "mm": 677,
      "needlelen_4": 678,
      "rectangles": 679,
      "salta": 680,
      "stackaddr": 681,
      "v110": 682,
      "v111": 683,
      "v117": 684,
      "v123": 685,
      "v136": 686,
      "vars38": 687,
      "_28": 688,
      "_400": 689,
      "_A8": 690,
      "_E0": 691,
      "_ER10": 692,
      "_R14": 693,
      "_R15": 694,
      "_XMM3": 695,
      "a34": 696,
      "a48": 697,
      "a50": 698,
      "a52": 699,
      "a61": 700,
      "a82": 701,
      "addr_4": 702,
      "af": 703,
      "argcb": 704,
      "argd": 705,
      "aslave": 706,
      "excepts": 707,
      "f": 708,
      "id": 709,
      "lista": 710,
      "maxlen_4a": 711,
      "mutexattr": 712,
      "nn": 713,
      "pida": 714,
      "rem": 715,
      "s_4": 716,
      "savedregsa": 717,
      "savedregsb": 718,
      "savedregsc": 719,
      "sign": 720,
      "streamc": 721,
      "v100": 722,
      "v121": 723,
      "v127": 724,
      "v132": 725,
      "v141": 726,
      "v166": 727,
      "v92": 728,
      "v94": 729,
      "v95": 730,
      "v96": 731,
      "v97": 732,
      "v98": 733,
      "var4": 734,
      "vars100": 735,
      "vars4": 736,
      "vars408": 737,
      "vars90": 738,
      "_138": 739,
      "_182": 740,
      "_34": 741,
      "_5C": 742,
      "_7E0": 743,
      "_94": 744,
      "_B0": 745,
      "_C0": 746,
      "_R13": 747,
      "_R8": 748,
      "a42": 749,
      "a57": 750,
      "a60": 751,
      "a65": 752,
      "a67": 753,
      "a73": 754,
      "argz": 755,
      "barrier": 756,
      "facility": 757,
      "fdc": 758,
      "fid": 759,
      "msqida": 760,
      "needlelena": 761,
      "oldname": 762,
      "oldval": 763,
      "pa": 764,
      "points": 765,
      "savedregsd": 766,
      "sf": 767,
      "stack_end": 768,
      "thread2": 769,
      "tocode": 770,
      "ubp_av": 771,
      "v104": 772,
      "v106": 773,
      "v107": 774,
      "v109": 775,
      "v119": 776,
      "v122": 777,
      "v135": 778,
      "v137": 779,
      "v138": 780,
      "v139": 781,
      "v140": 782,
      "v142": 783,
      "v143": 784,
      "v144": 785,
      "v145": 786,
      "v146": 787,
      "v163": 788,
      "v165": 789,
      "v167": 790,
      "v190": 791,
      "xsubi": 792,
      "_120": 793,
      "_199": 794,
      "_1B4": 795,
      "_1E6": 796,
      "_40C": 797,
      "_44": 798,
      "_440": 799,
      "_468": 800,
      "_540": 801,
      "_9C": 802,
      "_E8": 803,
      "_EC": 804,
      "_ESI": 805,
      "_FC0": 806,
      "_XMM4": 807,
      "a108": 808,
      "a41": 809,
      "a44": 810,
      "a45": 811,
      "a46": 812,
      "a49": 813,
      "a51": 814,
      "a53": 815,
      "a59": 816,
      "a68": 817,
      "a91": 818,
      "addr_lena": 819,
      "channel": 820,
      "cmap": 821,
      "cpp": 822,
      "egid": 823,
      "euid": 824,
      "groupa": 825,
      "hostlong_4": 826,
      "lena": 827,
      "nenta": 828,
      "nstype": 829,
      "oldlenp": 830,
      "oucp": 831,
      "replace": 832,
      "request_4": 833,
      "resource": 834,
      "s1_4": 835,
      "savedregse": 836,
      "savedregsf": 837,
      "sgid": 838,
      "statusc": 839,
      "suid": 840,
      "tp_32": 841,
      "ut_name": 842,
      "v1181": 843,
      "v1182": 844,
      "v1191": 845,
      "v1192": 846,
      "v128": 847,
      "v131": 848,
      "v133": 849,
      "v147": 850,
      "v169": 851,
      "v170": 852,
      "v171": 853,
      "v172": 854,
      "v173": 855,
      "v174": 856,
      "v175": 857,
      "v176": 858,
      "v177": 859,
      "v178": 860,
      "v179": 861,
      "v180": 862,
      "v189": 863,
      "v194": 864,
      "v259": 865,
      "v261": 866,
      "value_list": 867,
      "vars1": 868,
      "vars128": 869,
      "vars320": 870,
      "vars40": 871,
      "vars608": 872,
      "whencea": 873
    },
    "subtoken_model_path": null,
    "word_freq": {
      "a1": 3076259,
      "a2": 1378080,
      "result": 1243738,
      "nptr": 13624,
      "v3": 996898,
      "v4": 1054854,
      "i": 982597,
      "ptr": 161383,
      "v7": 714433,
      "v6": 825134,
      "a3": 471519,
      "v5": 941460,
      "a4": 200061,
      "v11": 310836,
      "v9": 457830,
      "v12": 243437,
      "v8": 573152,
      "v10": 379425,
      "dest": 82195,
      "fd": 64762,
      "v2": 757337,
      "argc": 12152,
      "argv": 26172,
      "v14": 156795,
      "s": 259058,
      "stream": 59893,
      "mnt": 735,
      "errnum": 6786,
      "v13": 197185,
      "timer": 3444,
      "name": 3986,
      "endptr": 9942,
      "v1": 377388,
      "v15": 127463,
      "v17": 75471,
      "v16": 98436,
      "th": 1250,
      "j": 205974,
      "buf": 35857,
      "a5": 94913,
      "a6": 51301,
      "pipedes": 2849,
      "fds": 2396,
      "cpuset": 2222,
      "v38": 931,
      "v39": 670,
      "v37": 947,
      "newthread": 2050,
      "v18": 58922,
      "v19": 44176,
      "s1": 86313,
      "a7": 25048,
      "sa": 6145,
      "v0": 61396,
      "thread_return": 646,
      "v23": 16317,
      "ecode": 1414,
      "pai": 3377,
      "addr_len": 3014,
      "n": 49295,
      "addr": 31628,
      "host": 149,
      "serv": 93,
      "_RAX": 10071,
      "_RDX": 2196,
      "v20": 35718,
      "v21": 27176,
      "k": 50213,
      "l": 19146,
      "a8": 14698,
      "m": 11146,
      "ii": 3844,
      "len": 3257,
      "format": 1976,
      "arg": 16108,
      "v40": 603,
      "v36": 1779,
      "v22": 20469,
      "v24": 13163,
      "v25": 10261,
      "v26": 8007,
      "v27": 8505,
      "v28": 5695,
      "v29": 4968,
      "v30": 3387,
      "v31": 2856,
      "v32": 2541,
      "a9": 7728,
      "src": 39257,
      "s2": 15302,
      "pattern": 3063,
      "stat_loc": 5927,
      "oflag": 749,
      "oflaga": 207,
      "jj": 3854,
      "path": 2418,
      "status": 1915,
      "kk": 1685,
      "tv": 5313,
      "offset": 1002,
      "requested_time": 503,
      "remaining": 55,
      "envp": 3635,
      "sizea": 411,
      "srca": 687,
      "start_routinea": 36,
      "v33": 2292,
      "v34": 2021,
      "v35": 1779,
      "command": 1128,
      "shmid": 4331,
      "shmaddr": 2728,
      "a18": 448,
      "a17": 697,
      "a16": 760,
      "a15": 1524,
      "string": 528,
      "this": 39528,
      "set": 1439,
      "base": 10920,
      "a11": 4319,
      "a12": 2787,
      "filename": 14474,
      "a10": 5654,
      "a13": 2097,
      "a14": 1736,
      "old": 726,
      "tp": 4422,
      "nbytes": 3109,
      "vars108": 239,
      "_10": 238,
      "optval": 6145,
      "key": 6107,
      "s1a": 1540,
      "netlong": 231,
      "dirp": 7212,
      "mutex": 1360,
      "buflen": 1963,
      "ptra": 5084,
      "hostlong": 832,
      "lineptr": 1497,
      "handle": 1128,
      "preg": 2075,
      "patterna": 532,
      "param": 207,
      "haystack": 3054,
      "termios_p": 2533,
      "x": 2010,
      "ca": 142,
      "c": 3143,
      "policy": 2020,
      "desta": 971,
      "timeout": 2221,
      "pid": 4204,
      "rlimits": 2879,
      "in_fd": 212,
      "out_fd": 155,
      "stat_buf": 5462,
      "size": 11988,
      "sops": 9624,
      "_RBX": 664,
      "_RCX": 1101,
      "v41": 441,
      "v42": 413,
      "v43": 319,
      "v44": 440,
      "v45": 290,
      "v46": 302,
      "v47": 270,
      "v48": 166,
      "v49": 173,
      "v50": 213,
      "oset": 351,
      "to": 85,
      "v58": 93,
      "v59": 105,
      "v57": 78,
      "a22": 131,
      "v61": 82,
      "a23": 110,
      "a19": 279,
      "a20": 225,
      "a21": 170,
      "v60": 104,
      "a24": 72,
      "v62": 92,
      "a25": 59,
      "v70": 57,
      "v63": 76,
      "v64": 106,
      "v65": 86,
      "v66": 123,
      "v67": 85,
      "v68": 60,
      "v69": 68,
      "v51": 171,
      "v52": 135,
      "v53": 115,
      "v54": 95,
      "v55": 97,
      "msgid": 1824,
      "newa": 3361,
      "req": 1533,
      "file": 4838,
      "dir": 1409,
      "cp": 1209,
      "value": 1109,
      "n_4": 8532,
      "optlen": 547,
      "attr": 1217,
      "suffixlen": 15,
      "streama": 1840,
      "sig": 615,
      "timerid": 343,
      "ovalue": 60,
      "namelist": 311,
      "msqid": 2493,
      "msgsz": 29,
      "size_4": 1434,
      "argca": 893,
      "argva": 1265,
      "s2a": 431,
      "fda": 933,
      "event": 599,
      "utmr": 132,
      "otmr": 16,
      "events": 178,
      "off": 587,
      "na": 914,
      "file_times": 423,
      "readfds": 3620,
      "needle": 405,
      "nptra": 301,
      "msgtyp_4": 519,
      "msgtyp": 1056,
      "msgtyp_4a": 519,
      "longind": 438,
      "n_4a": 135,
      "optname": 364,
      "oldtype": 6,
      "nmemb": 2620,
      "_30": 42,
      "_48": 23,
      "retaddr": 1251,
      "shortopts": 40,
      "longopts": 86,
      "a70": 80,
      "fp": 631,
      "modes": 539,
      "sb": 1323,
      "ntx": 1566,
      "array": 398,
      "addra": 467,
      "nbytes_4": 341,
      "off_4": 79,
      "addrb": 315,
      "stringp": 247,
      "type": 328,
      "cb": 25,
      "result_buf": 100,
      "h_errnop": 65,
      "a27": 41,
      "a28": 39,
      "a26": 38,
      "service": 144,
      "tz": 149,
      "errnuma": 100,
      "errnumb": 27,
      "special_file": 256,
      "data": 427,
      "rwflag": 303,
      "_60": 160,
      "ifname": 138,
      "errcode": 638,
      "errbuf": 345,
      "seed": 744,
      "message": 1716,
      "useconds": 205,
      "usage": 420,
      "entry": 115,
      "flag": 188,
      "_0": 222,
      "mode": 205,
      "protocol": 134,
      "seconds": 371,
      "flags": 329,
      "writefds": 922,
      "maxlen": 1448,
      "haystacka": 157,
      "sc": 124,
      "sd": 83,
      "_FC0": 2,
      "savedregs": 215,
      "clock_id": 219,
      "in": 338,
      "dev": 121,
      "flagsa": 94,
      "vars1008": 152,
      "vars0": 242,
      "v102": 6,
      "v101": 6,
      "v103": 6,
      "v105": 6,
      "v100": 4,
      "a53": 2,
      "v99": 7,
      "a52": 4,
      "v56": 87,
      "a50": 4,
      "v71": 179,
      "v72": 125,
      "v73": 152,
      "v74": 95,
      "v75": 65,
      "v76": 73,
      "v77": 77,
      "v78": 90,
      "v79": 59,
      "v80": 66,
      "v81": 19,
      "v82": 24,
      "v83": 41,
      "v84": 11,
      "v85": 12,
      "v86": 11,
      "v87": 14,
      "v88": 8,
      "v89": 8,
      "v90": 6,
      "v91": 13,
      "v92": 4,
      "v93": 6,
      "v94": 4,
      "v95": 4,
      "v96": 4,
      "v97": 4,
      "v98": 4,
      "a51": 2,
      "y": 471,
      "fildes": 159,
      "request": 22,
      "s1b": 140,
      "s1c": 99,
      "envpa": 53,
      "abstime": 332,
      "msgp": 145,
      "start_routine": 124,
      "oldmask": 36,
      "statusa": 269,
      "statusb": 243,
      "haystackb": 42,
      "ai": 260,
      "attrp": 9,
      "how": 12,
      "newmask": 14,
      "save_ptr": 669,
      "ufd": 86,
      "prot": 181,
      "ifindex": 50,
      "mask": 42,
      "s1d": 20,
      "xdrs": 85,
      "clnt": 19,
      "exponent": 474,
      "format_4": 43,
      "ucp": 104,
      "env": 266,
      "sinx": 68,
      "cosx": 83,
      "shmflg": 16,
      "length": 187,
      "uid": 162,
      "count": 64,
      "iovec": 261,
      "memptr": 275,
      "vars8": 38,
      "_XMM0": 360,
      "_XMM1": 35,
      "epfd": 180,
      "iptr": 67,
      "buffer": 296,
      "_RSI": 26,
      "nfds": 145,
      "delim": 218,
      "pglob": 1153,
      "_420": 9,
      "inp": 250,
      "sval": 21,
      "salen": 14,
      "filenamea": 59,
      "cflags": 11,
      "accept": 11,
      "nmatch": 12,
      "pmatch": 220,
      "eflags": 16,
      "detachstate": 29,
      "stacksize": 52,
      "scope": 15,
      "inherit": 15,
      "domaina": 71,
      "domain": 239,
      "typea": 49,
      "_E8": 2,
      "_B0": 3,
      "_A8": 4,
      "hostlonga": 8,
      "needlelen": 21,
      "speed": 124,
      "block": 26,
      "edflag": 6,
      "resultbuf": 12,
      "msgflg": 30,
      "semnum": 12,
      "semnuma": 12,
      "salt": 66,
      "_BL": 7,
      "_EBX": 7,
      "sem": 174,
      "new_len": 17,
      "_250": 22,
      "numer": 73,
      "ecodea": 70,
      "cmsg": 138,
      "user": 29,
      "list": 41,
      "fdb": 64,
      "a82": 4,
      "oldstate": 196,
      "gid": 56,
      "_RBP": 62,
      "_RDI": 82,
      "ST00_32_4": 16,
      "_40": 16,
      "_38": 9,
      "patha": 14,
      "pathb": 10,
      "kind": 9,
      "basea": 6,
      "semid": 108,
      "start": 119,
      "vec": 15,
      "a58": 11,
      "v151": 11,
      "v163": 3,
      "v166": 4,
      "v169": 2,
      "v170": 2,
      "v171": 2,
      "v172": 2,
      "v167": 3,
      "v173": 2,
      "v165": 3,
      "v174": 2,
      "v175": 2,
      "v176": 2,
      "v177": 2,
      "v178": 2,
      "v179": 2,
      "v180": 2,
      "v118": 17,
      "v120": 6,
      "v121": 4,
      "v122": 3,
      "v123": 5,
      "v124": 6,
      "v125": 6,
      "v126": 7,
      "destb": 79,
      "res": 19,
      "hostlen": 19,
      "vars68": 11,
      "vars64": 6,
      "arga": 46,
      "nmemba": 15,
      "pri": 19,
      "time1": 85,
      "inbytesleft": 99,
      "outbytesleft": 98,
      "inbuf": 79,
      "outbuf": 156,
      "optionp": 88,
      "tokens": 44,
      "valuep": 51,
      "fromcode": 14,
      "value_8": 1,
      "pgrp_id": 17,
      "pwc": 36,
      "pgid": 11,
      "ps": 20,
      "stackaddr": 5,
      "sigmask": 12,
      "exceptfds": 253,
      "whence": 151,
      "templatea": 101,
      "dest_8": 12,
      "from": 94,
      "ST30_16_1": 30,
      "vars48": 13,
      "vars20": 32,
      "vars10": 14,
      "loadavg": 57,
      "group": 69,
      "old_len": 10,
      "_EDX": 281,
      "_EAX": 314,
      "dirpa": 8,
      "a39": 36,
      "a40": 9,
      "a38": 29,
      "a71": 32,
      "cd": 95,
      "retval": 78,
      "resolved": 28,
      "_XMM2": 13,
      "fmt": 58,
      "pointer": 128,
      "maxsize": 52,
      "fd2": 28,
      "input": 18,
      "state": 28,
      "a47": 5,
      "vars18": 13,
      "pgrp": 29,
      "maxlen_4": 80,
      "xa": 40,
      "_E0": 4,
      "_4C": 22,
      "_90": 5,
      "_A0": 6,
      "handler": 24,
      "nptrb": 65,
      "time0": 37,
      "cond_attr": 58,
      "op": 21,
      "ap": 70,
      "ipart": 10,
      "_130": 152,
      "_44": 2,
      "_50": 25,
      "cond": 24,
      "bufa": 25,
      "major": 22,
      "minor": 22,
      "a41": 2,
      "a42": 3,
      "a44": 2,
      "a45": 2,
      "a46": 2,
      "a48": 4,
      "a49": 2,
      "owner": 31,
      "xdr_results": 27,
      "xdr_location": 42,
      "ptrb": 129,
      "flagsb": 27,
      "vars28": 38,
      "tvp": 34,
      "str": 6,
      "ifap": 62,
      "shmida": 15,
      "seedval": 25,
      "_28": 4,
      "nptrc": 34,
      "nptrd": 24,
      "nptre": 18,
      "nptrf": 12,
      "nptrg": 6,
      "nptrh": 6,
      "srcb": 69,
      "s1_4": 2,
      "_R9": 5,
      "vars98": 1,
      "_78": 22,
      "vars40": 2,
      "_138": 3,
      "nmemb_4": 155,
      "a62": 8,
      "a59": 2,
      "a55": 5,
      "_20": 19,
      "addr_4": 4,
      "servlen": 14,
      "groups": 40,
      "ngroups": 30,
      "a30": 31,
      "xsubi": 3,
      "_R8": 3,
      "v1191": 2,
      "v1192": 2,
      "bufloc": 10,
      "sizeloc": 20,
      "len_4": 41,
      "hostname": 15,
      "hostp": 15,
      "proto": 31,
      "n_7": 24,
      "streamb": 24,
      "_340": 5,
      "maxsizea": 24,
      "act": 26,
      "locale": 42,
      "se": 9,
      "signo": 34,
      "_182": 3,
      "_1B4": 2,
      "_1E6": 2,
      "reject": 11,
      "haystacklen": 26,
      "fstype": 47,
      "rwflaga": 16,
      "p": 29,
      "cmd": 6,
      "operation": 1,
      "srcc": 27,
      "srcd": 7,
      "f": 4,
      "nodep": 25,
      "alignment": 12,
      "compar": 59,
      "rem": 4,
      "formata": 18,
      "formatb": 10,
      "argvb": 47,
      "delta": 52,
      "offa": 9,
      "salta": 5,
      "v190": 3,
      "v195": 1,
      "v192": 1,
      "v188": 1,
      "v187": 1,
      "v186": 1,
      "v185": 1,
      "v136": 5,
      "v194": 2,
      "v137": 3,
      "v138": 3,
      "v139": 3,
      "v140": 3,
      "v141": 4,
      "v142": 3,
      "v143": 3,
      "v144": 3,
      "v145": 3,
      "v146": 3,
      "v147": 2,
      "v148": 1,
      "v149": 1,
      "v150": 1,
      "v152": 1,
      "v153": 1,
      "v154": 1,
      "v155": 1,
      "v156": 1,
      "v157": 1,
      "v158": 1,
      "v159": 1,
      "v160": 1,
      "v161": 1,
      "v162": 1,
      "v164": 1,
      "v168": 1,
      "v181": 1,
      "v182": 1,
      "v183": 1,
      "v184": 1,
      "v189": 2,
      "v104": 3,
      "v106": 3,
      "v107": 3,
      "v108": 10,
      "v109": 3,
      "v110": 5,
      "v111": 5,
      "v112": 10,
      "v113": 8,
      "v114": 11,
      "v115": 9,
      "v116": 6,
      "v117": 5,
      "v119": 3,
      "v127": 4,
      "v128": 2,
      "v129": 9,
      "v130": 7,
      "v131": 2,
      "v132": 4,
      "v133": 2,
      "v134": 6,
      "v135": 3,
      "a72": 10,
      "a73": 3,
      "a74": 9,
      "_7E0": 3,
      "_400": 4,
      "_440": 2,
      "_540": 2,
      "pos": 35,
      "netlonga": 9,
      "va": 27,
      "_R10": 6,
      "valuea": 10,
      "vars408": 4,
      "thread2": 3,
      "a102": 5,
      "level": 15,
      "a63": 1,
      "a29": 31,
      "needlelen_4": 5,
      "needlelena": 3,
      "a88": 7,
      "a89": 5,
      "a90": 6,
      "a91": 2,
      "a87": 1,
      "a69": 11,
      "a68": 2,
      "lock": 8,
      "_120": 2,
      "list_return": 28,
      "count_return": 14,
      "text_prop": 14,
      "_24": 24,
      "_R12": 141,
      "times": 17,
      "arg_8": 6,
      "a36": 5,
      "a37": 5,
      "a31": 18,
      "a32": 17,
      "a33": 9,
      "a34": 4,
      "a35": 6,
      "_58": 13,
      "maxlena": 15,
      "_70": 159,
      "_140": 60,
      "tp_32": 2,
      "nfds_4": 12,
      "argb": 10,
      "argd": 4,
      "a123": 1,
      "_XMM3": 4,
      "_XMM4": 2,
      "newthreada": 10,
      "nbytesa": 35,
      "euid": 2,
      "suid": 2,
      "egid": 2,
      "sgid": 2,
      "item_8": 1,
      "pwordexp": 18,
      "mhdr": 64,
      "a57": 3,
      "_3F0": 1,
      "instring": 16,
      "expbuf": 8,
      "mutexattr": 4,
      "_5C": 3,
      "_68": 1,
      "_74": 1,
      "sf": 3,
      "vars128": 2,
      "vars4": 4,
      "vars17": 1,
      "vars16": 1,
      "vars15": 1,
      "vars14": 1,
      "vars13": 1,
      "vars12": 1,
      "cmap": 2,
      "cookie": 20,
      "fid": 3,
      "value_list": 2,
      "gc": 6,
      "rectangles": 5,
      "points": 3,
      "a43": 1,
      "a54": 1,
      "a56": 1,
      "a60": 3,
      "offset_4": 21,
      "wd": 8,
      "ut_name": 2,
      "channel": 2,
      "_15D": 1,
      "_2A0": 1,
      "vars38": 5,
      "vars0a": 1,
      "oact": 6,
      "s2b": 28,
      "lena": 2,
      "af": 4,
      "excepts": 4,
      "info": 34,
      "special": 20,
      "errcodea": 18,
      "barrier": 3,
      "errbuf_size": 6,
      "savedregsb": 4,
      "savedregsc": 4,
      "savedregsa": 4,
      "ll": 11,
      "dst": 14,
      "statusc": 2,
      "_51B0": 1,
      "_D680": 1,
      "_R14": 4,
      "_R15": 4,
      "a67": 3,
      "rwlock": 13,
      "_34": 3,
      "_FST6": 8,
      "_9C": 2,
      "statbuf": 11,
      "_EC": 2,
      "oldlenp": 2,
      "oldval": 3,
      "vars58": 1,
      "val": 32,
      "R": 14,
      "e": 18,
      "_514": 1,
      "evp": 9,
      "_305": 1,
      "_315": 1,
      "s_4": 4,
      "var4": 4,
      "_ECX": 30,
      "a66": 6,
      "a65": 3,
      "size_4a": 11,
      "out": 12,
      "nent": 8,
      "lista": 4,
      "nenta": 2,
      "nb": 40,
      "wc": 32,
      "s2c": 18,
      "guardsize": 7,
      "groupa": 2,
      "pwcs": 15,
      "fpa": 13,
      "options": 1,
      "offseta": 6,
      "up": 14,
      "maxlen_4a": 4,
      "_3F8": 1,
      "argcb": 4,
      "_R13": 3,
      "tocode": 3,
      "resource": 2,
      "objp": 14,
      "file_actions": 9,
      "_2058": 1,
      "_3FA8": 1,
      "inc": 16,
      "_3C": 1,
      "ifa": 7,
      "vars188": 1,
      "namea": 13,
      "hostshort": 6,
      "oucp": 2,
      "hostlong_4": 2,
      "request_4": 2,
      "ident": 12,
      "identa": 9,
      "func": 1,
      "savedregsd": 3,
      "savedregse": 2,
      "savedregsf": 2,
      "cpa": 5,
      "a61": 4,
      "_199": 2,
      "_468": 2,
      "_670": 1,
      "_408": 1,
      "_7F0": 1,
      "cpp": 2,
      "timebuf": 19,
      "facility": 3,
      "modea": 14,
      "seed16v": 7,
      "child_stack": 10,
      "wchar": 1,
      "vars1F8": 1,
      "_C0": 3,
      "vars608": 2,
      "vars100": 4,
      "decpt": 20,
      "sign": 4,
      "ubp_av": 3,
      "main": 1,
      "savedregsg": 1,
      "addr_lena": 2,
      "filea": 5,
      "dirent": 9,
      "oldname": 3,
      "nstype": 2,
      "_4030": 1,
      "_5030": 1,
      "_49": 1,
      "stringa": 12,
      "v1181": 2,
      "v1182": 2,
      "optional_actions": 1,
      "queue_selector": 1,
      "a108": 2,
      "whencea": 2,
      "fdc": 3,
      "proj_id": 7,
      "_R11": 5,
      "pa": 3,
      "pathname": 7,
      "stat_loc_4": 12,
      "amaster": 7,
      "aslave": 4,
      "_94": 3,
      "seedval_4": 9,
      "mm": 5,
      "nn": 4,
      "address": 12,
      "domainname": 6,
      "category": 10,
      "codeset": 1,
      "dirname": 1,
      "vmessages": 8,
      "_4": 1,
      "streamc": 4,
      "_ESI": 2,
      "v259": 2,
      "_ER10": 4,
      "_ER8": 1,
      "v261": 2,
      "_1A0": 1,
      "vars90": 4,
      "vars5DF": 1,
      "vars5E8": 1,
      "replace": 2,
      "_170": 1,
      "vars208": 1,
      "vars1": 2,
      "vars5": 1,
      "vars328": 1,
      "vars320": 2,
      "_FST7": 1,
      "_40C": 2,
      "argz": 3,
      "dest_4": 9,
      "rqtp": 6,
      "msqida": 3,
      "stack_end": 3,
      "id": 4,
      "pida": 4,
      "var3C_1": 1
    }
  },
  "source_tokens": {
    "unk_id": 3,
    "word2id": {
      "<pad>": 0,
      "<s>": 1,
      "</s>": 2,
      "<unk>": 3,
      "@@vars15@@": 4,
      "@@accept@@": 5,
      "@@patha@@": 6,
      "@@ut_name@@": 7,
      "@@v142@@": 8,
      "@@resource@@": 9,
      "@@fdc@@": 10,
      "@@base@@": 11,
      "@@nn@@": 12,
      "@@groupa@@": 13,
      "@@_RSI@@": 14,
      "@@nmemba@@": 15,
      "@@cmd@@": 16,
      "@@cpuset@@": 17,
      "@@v168@@": 18,
      "@@_170@@": 19,
      "@@a19@@": 20,
      "@@v125@@": 21,
      "@@v63@@": 22,
      "@@v72@@": 23,
      "@@addr_len@@": 24,
      "@@nptrf@@": 25,
      "@@v166@@": 26,
      "@@v141@@": 27,
      "@@servlen@@": 28,
      "@@fstype@@": 29,
      "@@cond@@": 30,
      "@@nmatch@@": 31,
      "@@v130@@": 32,
      "@@pglob@@": 33,
      "@@v2@@": 34,
      "@@v78@@": 35,
      "@@s1b@@": 36,
      "@@v83@@": 37,
      "@@format@@": 38,
      "@@_94@@": 39,
      "@@_130@@": 40,
      "@@v184@@": 41,
      "@@v47@@": 42,
      "@@v11@@": 43,
      "@@_RDX@@": 44,
      "@@oflaga@@": 45,
      "@@v145@@": 46,
      "@@events@@": 47,
      "@@pida@@": 48,
      "@@pattern@@": 49,
      "@@vars5@@": 50,
      "@@v67@@": 51,
      "@@_1B4@@": 52,
      "@@v104@@": 53,
      "@@v182@@": 54,
      "@@stat_buf@@": 55,
      "@@_74@@": 56,
      "@@whencea@@": 57,
      "@@cflags@@": 58,
      "@@_49@@": 59,
      "@@ovalue@@": 60,
      "@@requested_time@@": 61,
      "@@abstime@@": 62,
      "@@excepts@@": 63,
      "@@rwflag@@": 64,
      "@@v73@@": 65,
      "@@count@@": 66,
      "@@v123@@": 67,
      "@@suffixlen@@": 68,
      "@@vars58@@": 69,
      "@@epfd@@": 70,
      "@@stat_loc@@": 71,
      "@@f@@": 72,
      "@@a52@@": 73,
      "@@_R10@@": 74,
      "@@v116@@": 75,
      "@@v110@@": 76,
      "@@vars4@@": 77,
      "@@v98@@": 78,
      "@@_305@@": 79,
      "@@domainname@@": 80,
      "@@ifname@@": 81,
      "@@out@@": 82,
      "@@_7E0@@": 83,
      "@@_ECX@@": 84,
      "@@_199@@": 85,
      "@@a44@@": 86,
      "@@a102@@": 87,
      "@@value@@": 88,
      "@@v148@@": 89,
      "@@_4@@": 90,
      "@@v53@@": 91,
      "@@v20@@": 92,
      "@@sval@@": 93,
      "@@start@@": 94,
      "@@v30@@": 95,
      "@@v23@@": 96,
      "@@v76@@": 97,
      "@@pwc@@": 98,
      "@@dir@@": 99,
      "@@in@@": 100,
      "@@nptrc@@": 101,
      "@@_A8@@": 102,
      "@@patterna@@": 103,
      "@@s2b@@": 104,
      "@@v46@@": 105,
      "@@needlelen_4@@": 106,
      "@@j@@": 107,
      "@@var3C_1@@": 108,
      "@@_44@@": 109,
      "@@_70@@": 110,
      "@@stringp@@": 111,
      "@@delta@@": 112,
      "@@timer@@": 113,
      "@@_EBX@@": 114,
      "@@retval@@": 115,
      "@@codeset@@": 116,
      "@@readfds@@": 117,
      "@@argc@@": 118,
      "@@domaina@@": 119,
      "@@savedregsg@@": 120,
      "@@memptr@@": 121,
      "@@valuep@@": 122,
      "@@fds@@": 123,
      "@@v132@@": 124,
      "@@xa@@": 125,
      "@@v156@@": 126,
      "@@_3F8@@": 127,
      "@@v1181@@": 128,
      "@@vars64@@": 129,
      "@@ident@@": 130,
      "@@_315@@": 131,
      "@@dirname@@": 132,
      "@@compar@@": 133,
      "@@a66@@": 134,
      "@@v153@@": 135,
      "@@_R11@@": 136,
      "@@v174@@": 137,
      "@@e@@": 138,
      "@@v170@@": 139,
      "@@optname@@": 140,
      "@@v164@@": 141,
      "@@offa@@": 142,
      "@@vars188@@": 143,
      "@@semid@@": 144,
      "@@bufloc@@": 145,
      "@@v157@@": 146,
      "@@wd@@": 147,
      "@@s@@": 148,
      "@@v86@@": 149,
      "@@v10@@": 150,
      "@@vars16@@": 151,
      "@@vars5E8@@": 152,
      "@@pipedes@@": 153,
      "@@v99@@": 154,
      "@@serv@@": 155,
      "@@request@@": 156,
      "@@a30@@": 157,
      "@@n@@": 158,
      "@@_R14@@": 159,
      "@@ptr@@": 160,
      "@@a26@@": 161,
      "@@v124@@": 162,
      "@@v109@@": 163,
      "@@seedval_4@@": 164,
      "@@oldstate@@": 165,
      "@@in_fd@@": 166,
      "@@operation@@": 167,
      "@@category@@": 168,
      "@@oldtype@@": 169,
      "@@cpp@@": 170,
      "@@_RAX@@": 171,
      "@@flagsa@@": 172,
      "@@vars40@@": 173,
      "@@a67@@": 174,
      "@@inbuf@@": 175,
      "@@string@@": 176,
      "@@nbytes@@": 177,
      "@@tp_32@@": 178,
      "@@v138@@": 179,
      "@@msgtyp_4a@@": 180,
      "@@_182@@": 181,
      "@@v1182@@": 182,
      "@@_RDI@@": 183,
      "@@msgflg@@": 184,
      "@@v27@@": 185,
      "@@a61@@": 186,
      "@@arg@@": 187,
      "@@aslave@@": 188,
      "@@argz@@": 189,
      "@@v91@@": 190,
      "@@egid@@": 191,
      "@@_7F0@@": 192,
      "@@v34@@": 193,
      "@@stream@@": 194,
      "@@a24@@": 195,
      "@@cmsg@@": 196,
      "@@v137@@": 197,
      "@@vars90@@": 198,
      "@@_340@@": 199,
      "@@a63@@": 200,
      "@@locale@@": 201,
      "@@newa@@": 202,
      "@@a27@@": 203,
      "@@_468@@": 204,
      "@@v1191@@": 205,
      "@@v186@@": 206,
      "@@proj_id@@": 207,
      "@@maxsize@@": 208,
      "@@_40C@@": 209,
      "@@_540@@": 210,
      "@@_670@@": 211,
      "@@a18@@": 212,
      "@@ST00_32_4@@": 213,
      "@@v146@@": 214,
      "@@msqid@@": 215,
      "@@vars408@@": 216,
      "@@instring@@": 217,
      "@@lineptr@@": 218,
      "@@res@@": 219,
      "@@buflen@@": 220,
      "@@a87@@": 221,
      "@@v136@@": 222,
      "@@vars38@@": 223,
      "@@ifindex@@": 224,
      "@@v19@@": 225,
      "@@numer@@": 226,
      "@@queue_selector@@": 227,
      "@@_68@@": 228,
      "@@typea@@": 229,
      "@@vars28@@": 230,
      "@@filenamea@@": 231,
      "@@v42@@": 232,
      "@@size_4a@@": 233,
      "@@v29@@": 234,
      "@@hostlong@@": 235,
      "@@a54@@": 236,
      "@@detachstate@@": 237,
      "@@info@@": 238,
      "@@oldmask@@": 239,
      "@@timebuf@@": 240,
      "@@message@@": 241,
      "@@longopts@@": 242,
      "@@a59@@": 243,
      "@@_R8@@": 244,
      "@@srcc@@": 245,
      "@@v95@@": 246,
      "@@ecode@@": 247,
      "@@vars1@@": 248,
      "@@v70@@": 249,
      "@@a12@@": 250,
      "@@dst@@": 251,
      "@@a42@@": 252,
      "@@stringa@@": 253,
      "@@oset@@": 254,
      "@@address@@": 255,
      "@@optionp@@": 256,
      "@@a13@@": 257,
      "@@clock_id@@": 258,
      "@@mask@@": 259,
      "@@dirent@@": 260,
      "@@timerid@@": 261,
      "@@a108@@": 262,
      "@@v22@@": 263,
      "@@s1c@@": 264,
      "@@_420@@": 265,
      "@@v127@@": 266,
      "@@src@@": 267,
      "@@v88@@": 268,
      "@@a89@@": 269,
      "@@cpa@@": 270,
      "@@vars0a@@": 271,
      "@@sizeloc@@": 272,
      "@@vars1008@@": 273,
      "@@resultbuf@@": 274,
      "@@list_return@@": 275,
      "@@s2c@@": 276,
      "@@netlonga@@": 277,
      "@@_A0@@": 278,
      "@@a36@@": 279,
      "@@v90@@": 280,
      "@@streamb@@": 281,
      "@@streama@@": 282,
      "@@argv@@": 283,
      "@@v152@@": 284,
      "@@gc@@": 285,
      "@@item_8@@": 286,
      "@@guardsize@@": 287,
      "@@a29@@": 288,
      "@@_60@@": 289,
      "@@v108@@": 290,
      "@@a49@@": 291,
      "@@writefds@@": 292,
      "@@a47@@": 293,
      "@@pwordexp@@": 294,
      "@@v31@@": 295,
      "@@a88@@": 296,
      "@@_34@@": 297,
      "@@se@@": 298,
      "@@v9@@": 299,
      "@@v50@@": 300,
      "@@tp@@": 301,
      "@@xsubi@@": 302,
      "@@v173@@": 303,
      "@@off@@": 304,
      "@@_90@@": 305,
      "@@needlelena@@": 306,
      "@@fromcode@@": 307,
      "@@v192@@": 308,
      "@@a4@@": 309,
      "@@v107@@": 310,
      "@@v71@@": 311,
      "@@sem@@": 312,
      "@@len_4@@": 313,
      "@@v181@@": 314,
      "@@v259@@": 315,
      "@@v122@@": 316,
      "@@ifap@@": 317,
      "@@dirpa@@": 318,
      "@@a50@@": 319,
      "@@n_4a@@": 320,
      "@@_0@@": 321,
      "@@v100@@": 322,
      "@@filename@@": 323,
      "@@loadavg@@": 324,
      "@@a70@@": 325,
      "@@_ER10@@": 326,
      "@@a48@@": 327,
      "@@v97@@": 328,
      "@@l@@": 329,
      "@@vars0@@": 330,
      "@@a82@@": 331,
      "@@rem@@": 332,
      "@@set@@": 333,
      "@@nptr@@": 334,
      "@@modea@@": 335,
      "@@v92@@": 336,
      "@@alignment@@": 337,
      "@@minor@@": 338,
      "@@v44@@": 339,
      "@@v24@@": 340,
      "@@thread_return@@": 341,
      "@@a71@@": 342,
      "@@v15@@": 343,
      "@@state@@": 344,
      "@@v114@@": 345,
      "@@a45@@": 346,
      "@@shmaddr@@": 347,
      "@@options@@": 348,
      "@@_RCX@@": 349,
      "@@timeout@@": 350,
      "@@_E8@@": 351,
      "@@s1@@": 352,
      "@@a90@@": 353,
      "@@file@@": 354,
      "@@op@@": 355,
      "@@ca@@": 356,
      "@@haystackb@@": 357,
      "@@vars68@@": 358,
      "@@optlen@@": 359,
      "@@a73@@": 360,
      "@@cmap@@": 361,
      "@@offset_4@@": 362,
      "@@_R15@@": 363,
      "@@a2@@": 364,
      "@@tocode@@": 365,
      "@@sc@@": 366,
      "@@useconds@@": 367,
      "@@v171@@": 368,
      "@@needle@@": 369,
      "@@v179@@": 370,
      "@@xdr_results@@": 371,
      "@@_15D@@": 372,
      "@@_D680@@": 373,
      "@@nent@@": 374,
      "@@vars608@@": 375,
      "@@_C0@@": 376,
      "@@dev@@": 377,
      "@@n_7@@": 378,
      "@@v139@@": 379,
      "@@addr_4@@": 380,
      "@@v105@@": 381,
      "@@va@@": 382,
      "@@data@@": 383,
      "@@v187@@": 384,
      "@@special@@": 385,
      "@@array@@": 386,
      "@@ai@@": 387,
      "@@savedregsf@@": 388,
      "@@fd2@@": 389,
      "@@_5C@@": 390,
      "@@msgp@@": 391,
      "@@sb@@": 392,
      "@@v89@@": 393,
      "@@a41@@": 394,
      "@@_250@@": 395,
      "@@xdr_location@@": 396,
      "@@hostlonga@@": 397,
      "@@argb@@": 398,
      "@@hostlen@@": 399,
      "@@a38@@": 400,
      "@@maxlen_4@@": 401,
      "@@_58@@": 402,
      "@@hostp@@": 403,
      "@@maxlen_4a@@": 404,
      "@@v51@@": 405,
      "@@a56@@": 406,
      "@@errcodea@@": 407,
      "@@nptre@@": 408,
      "@@optval@@": 409,
      "@@facility@@": 410,
      "@@policy@@": 411,
      "@@v180@@": 412,
      "@@_5030@@": 413,
      "@@offset@@": 414,
      "@@msgid@@": 415,
      "@@pgrp_id@@": 416,
      "@@iptr@@": 417,
      "@@_20@@": 418,
      "@@v133@@": 419,
      "@@vars108@@": 420,
      "@@v60@@": 421,
      "@@salen@@": 422,
      "@@clnt@@": 423,
      "@@times@@": 424,
      "@@remaining@@": 425,
      "@@v195@@": 426,
      "@@buffer@@": 427,
      "@@v55@@": 428,
      "@@n_4@@": 429,
      "@@optional_actions@@": 430,
      "@@vars10@@": 431,
      "@@v74@@": 432,
      "@@v43@@": 433,
      "@@c@@": 434,
      "@@rwflaga@@": 435,
      "@@newthreada@@": 436,
      "@@v6@@": 437,
      "@@v169@@": 438,
      "@@a11@@": 439,
      "@@delim@@": 440,
      "@@vars17@@": 441,
      "@@_XMM4@@": 442,
      "@@text_prop@@": 443,
      "@@na@@": 444,
      "@@format_4@@": 445,
      "@@vars48@@": 446,
      "@@v77@@": 447,
      "@@speed@@": 448,
      "@@reject@@": 449,
      "@@exceptfds@@": 450,
      "@@name@@": 451,
      "@@fp@@": 452,
      "@@env@@": 453,
      "@@identa@@": 454,
      "@@group@@": 455,
      "@@a8@@": 456,
      "@@flags@@": 457,
      "@@prot@@": 458,
      "@@_XMM1@@": 459,
      "@@longind@@": 460,
      "@@length@@": 461,
      "@@a35@@": 462,
      "@@oldval@@": 463,
      "@@a1@@": 464,
      "@@errnuma@@": 465,
      "@@v39@@": 466,
      "@@argca@@": 467,
      "@@service@@": 468,
      "@@v131@@": 469,
      "@@off_4@@": 470,
      "@@v40@@": 471,
      "@@a34@@": 472,
      "@@wchar@@": 473,
      "@@v28@@": 474,
      "@@v103@@": 475,
      "@@th@@": 476,
      "@@cosx@@": 477,
      "@@_EDX@@": 478,
      "@@dest_4@@": 479,
      "@@ngroups@@": 480,
      "@@v126@@": 481,
      "@@formata@@": 482,
      "@@nb@@": 483,
      "@@new_len@@": 484,
      "@@v162@@": 485,
      "@@addr@@": 486,
      "@@a39@@": 487,
      "@@host@@": 488,
      "@@v84@@": 489,
      "@@sign@@": 490,
      "@@streamc@@": 491,
      "@@dirp@@": 492,
      "@@errbuf@@": 493,
      "@@srca@@": 494,
      "@@sinx@@": 495,
      "@@sd@@": 496,
      "@@amaster@@": 497,
      "@@savedregsd@@": 498,
      "@@fmt@@": 499,
      "@@v61@@": 500,
      "@@ll@@": 501,
      "@@start_routine@@": 502,
      "@@major@@": 503,
      "@@savedregsb@@": 504,
      "@@argcb@@": 505,
      "@@value_8@@": 506,
      "@@hostlong_4@@": 507,
      "@@jj@@": 508,
      "@@cb@@": 509,
      "@@v3@@": 510,
      "@@savedregsc@@": 511,
      "@@v128@@": 512,
      "@@arg_8@@": 513,
      "@@v1192@@": 514,
      "@@groups@@": 515,
      "@@oldlenp@@": 516,
      "@@v58@@": 517,
      "@@s_4@@": 518,
      "@@otmr@@": 519,
      "@@signo@@": 520,
      "@@special_file@@": 521,
      "@@a9@@": 522,
      "@@s1d@@": 523,
      "@@ptrb@@": 524,
      "@@msqida@@": 525,
      "@@v81@@": 526,
      "@@kk@@": 527,
      "@@value_list@@": 528,
      "@@a33@@": 529,
      "@@request_4@@": 530,
      "@@a72@@": 531,
      "@@rlimits@@": 532,
      "@@_78@@": 533,
      "@@a32@@": 534,
      "@@vars98@@": 535,
      "@@v41@@": 536,
      "@@expbuf@@": 537,
      "@@v101@@": 538,
      "@@v32@@": 539,
      "@@s1a@@": 540,
      "@@envpa@@": 541,
      "@@_28@@": 542,
      "@@oact@@": 543,
      "@@oucp@@": 544,
      "@@rwlock@@": 545,
      "@@flag@@": 546,
      "@@len@@": 547,
      "@@_RBP@@": 548,
      "@@statbuf@@": 549,
      "@@pa@@": 550,
      "@@v36@@": 551,
      "@@exponent@@": 552,
      "@@_FC0@@": 553,
      "@@ap@@": 554,
      "@@outbytesleft@@": 555,
      "@@from@@": 556,
      "@@_9C@@": 557,
      "@@a69@@": 558,
      "@@v59@@": 559,
      "@@scope@@": 560,
      "@@param@@": 561,
      "@@rectangles@@": 562,
      "@@v79@@": 563,
      "@@filea@@": 564,
      "@@proto@@": 565,
      "@@handler@@": 566,
      "@@nptrg@@": 567,
      "@@eflags@@": 568,
      "@@handle@@": 569,
      "@@vars128@@": 570,
      "@@a15@@": 571,
      "@@fid@@": 572,
      "@@_ESI@@": 573,
      "@@nenta@@": 574,
      "@@suid@@": 575,
      "@@semnum@@": 576,
      "@@v16@@": 577,
      "@@main@@": 578,
      "@@attrp@@": 579,
      "@@needlelen@@": 580,
      "@@_EC@@": 581,
      "@@shmflg@@": 582,
      "@@a60@@": 583,
      "@@v66@@": 584,
      "@@desta@@": 585,
      "@@v158@@": 586,
      "@@_FST7@@": 587,
      "@@v37@@": 588,
      "@@seed16v@@": 589,
      "@@id@@": 590,
      "@@_XMM3@@": 591,
      "@@stackaddr@@": 592,
      "@@a7@@": 593,
      "@@v68@@": 594,
      "@@_408@@": 595,
      "@@a57@@": 596,
      "@@v106@@": 597,
      "@@whence@@": 598,
      "@@a58@@": 599,
      "@@ubp_av@@": 600,
      "@@a10@@": 601,
      "@@templatea@@": 602,
      "@@euid@@": 603,
      "@@stack_end@@": 604,
      "@@a62@@": 605,
      "@@nmemb@@": 606,
      "@@v144@@": 607,
      "@@v26@@": 608,
      "@@seconds@@": 609,
      "@@v151@@": 610,
      "@@ST30_16_1@@": 611,
      "@@nstype@@": 612,
      "@@old@@": 613,
      "@@pri@@": 614,
      "@@a123@@": 615,
      "@@v140@@": 616,
      "@@decpt@@": 617,
      "@@nfds@@": 618,
      "@@maxsizea@@": 619,
      "@@v35@@": 620,
      "@@a91@@": 621,
      "@@v49@@": 622,
      "@@v167@@": 623,
      "@@mm@@": 624,
      "@@ii@@": 625,
      "@@v188@@": 626,
      "@@argd@@": 627,
      "@@v178@@": 628,
      "@@result_buf@@": 629,
      "@@how@@": 630,
      "@@save_ptr@@": 631,
      "@@v185@@": 632,
      "@@rqtp@@": 633,
      "@@k@@": 634,
      "@@protocol@@": 635,
      "@@event@@": 636,
      "@@mhdr@@": 637,
      "@@owner@@": 638,
      "@@nbytes_4@@": 639,
      "@@savedregs@@": 640,
      "@@fd@@": 641,
      "@@_38@@": 642,
      "@@a51@@": 643,
      "@@v175@@": 644,
      "@@thread2@@": 645,
      "@@a65@@": 646,
      "@@a14@@": 647,
      "@@req@@": 648,
      "@@time1@@": 649,
      "@@pathname@@": 650,
      "@@objp@@": 651,
      "@@vars5DF@@": 652,
      "@@v75@@": 653,
      "@@v134@@": 654,
      "@@v38@@": 655,
      "@@stacksize@@": 656,
      "@@sops@@": 657,
      "@@fildes@@": 658,
      "@@savedregsa@@": 659,
      "@@size_4@@": 660,
      "@@v56@@": 661,
      "@@xdrs@@": 662,
      "@@command@@": 663,
      "@@tokens@@": 664,
      "@@_R12@@": 665,
      "@@v7@@": 666,
      "@@inbytesleft@@": 667,
      "@@nptrb@@": 668,
      "@@_48@@": 669,
      "@@v189@@": 670,
      "@@to@@": 671,
      "@@mutexattr@@": 672,
      "@@x@@": 673,
      "@@v115@@": 674,
      "@@outbuf@@": 675,
      "@@a37@@": 676,
      "@@hostshort@@": 677,
      "@@child_stack@@": 678,
      "@@_ER8@@": 679,
      "@@nptrh@@": 680,
      "@@ntx@@": 681,
      "@@vars8@@": 682,
      "@@v52@@": 683,
      "@@_RBX@@": 684,
      "@@cookie@@": 685,
      "@@cond_attr@@": 686,
      "@@argvb@@": 687,
      "@@m@@": 688,
      "@@block@@": 689,
      "@@_4C@@": 690,
      "@@_1A0@@": 691,
      "@@v160@@": 692,
      "@@_1E6@@": 693,
      "@@val@@": 694,
      "@@cd@@": 695,
      "@@v5@@": 696,
      "@@v120@@": 697,
      "@@ipart@@": 698,
      "@@v143@@": 699,
      "@@a21@@": 700,
      "@@v93@@": 701,
      "@@barrier@@": 702,
      "@@s1_4@@": 703,
      "@@sizea@@": 704,
      "@@_XMM0@@": 705,
      "@@netlong@@": 706,
      "@@v57@@": 707,
      "@@channel@@": 708,
      "@@_514@@": 709,
      "@@var4@@": 710,
      "@@lista@@": 711,
      "@@v161@@": 712,
      "@@oldname@@": 713,
      "@@modes@@": 714,
      "@@v4@@": 715,
      "@@result@@": 716,
      "@@vars12@@": 717,
      "@@v8@@": 718,
      "@@basea@@": 719,
      "@@v85@@": 720,
      "@@_2A0@@": 721,
      "@@a55@@": 722,
      "@@mnt@@": 723,
      "@@errnum@@": 724,
      "@@a74@@": 725,
      "@@replace@@": 726,
      "@@dest_8@@": 727,
      "@@msgtyp_4@@": 728,
      "@@pointer@@": 729,
      "@@path@@": 730,
      "@@_50@@": 731,
      "@@start_routinea@@": 732,
      "@@shmida@@": 733,
      "@@errcode@@": 734,
      "@@v82@@": 735,
      "@@edflag@@": 736,
      "@@errbuf_size@@": 737,
      "@@haystacklen@@": 738,
      "@@termios_p@@": 739,
      "@@sf@@": 740,
      "@@v119@@": 741,
      "@@endptr@@": 742,
      "@@pai@@": 743,
      "@@v135@@": 744,
      "@@_24@@": 745,
      "@@v117@@": 746,
      "@@v14@@": 747,
      "@@_140@@": 748,
      "@@sgid@@": 749,
      "@@level@@": 750,
      "@@nfds_4@@": 751,
      "@@v25@@": 752,
      "@@a22@@": 753,
      "@@v45@@": 754,
      "@@msgsz@@": 755,
      "@@flagsb@@": 756,
      "@@a20@@": 757,
      "@@v87@@": 758,
      "@@v21@@": 759,
      "@@sigmask@@": 760,
      "@@a53@@": 761,
      "@@retaddr@@": 762,
      "@@formatb@@": 763,
      "@@ifa@@": 764,
      "@@_138@@": 765,
      "@@vars328@@": 766,
      "@@v54@@": 767,
      "@@v194@@": 768,
      "@@resolved@@": 769,
      "@@_400@@": 770,
      "@@kind@@": 771,
      "@@_120@@": 772,
      "@@statusc@@": 773,
      "@@_30@@": 774,
      "@@sa@@": 775,
      "@@v177@@": 776,
      "@@a6@@": 777,
      "@@vars1F8@@": 778,
      "@@_3C@@": 779,
      "@@file_times@@": 780,
      "@@lena@@": 781,
      "@@_BL@@": 782,
      "@@count_return@@": 783,
      "@@v190@@": 784,
      "@@wc@@": 785,
      "@@_40@@": 786,
      "@@newthread@@": 787,
      "@@v183@@": 788,
      "@@v80@@": 789,
      "@@seedval@@": 790,
      "@@a23@@": 791,
      "@@_51B0@@": 792,
      "@@salt@@": 793,
      "@@_2058@@": 794,
      "@@ucp@@": 795,
      "@@envp@@": 796,
      "@@v64@@": 797,
      "@@vars18@@": 798,
      "@@inherit@@": 799,
      "@@v129@@": 800,
      "@@pos@@": 801,
      "@@inp@@": 802,
      "@@ufd@@": 803,
      "@@bufa@@": 804,
      "@@user@@": 805,
      "@@statusa@@": 806,
      "@@domain@@": 807,
      "@@_FST6@@": 808,
      "@@_B0@@": 809,
      "@@key@@": 810,
      "@@pgrp@@": 811,
      "@@status@@": 812,
      "@@maxlena@@": 813,
      "@@pid@@": 814,
      "@@tvp@@": 815,
      "@@namea@@": 816,
      "@@v13@@": 817,
      "@@out_fd@@": 818,
      "@@v159@@": 819,
      "@@fdb@@": 820,
      "@@_E0@@": 821,
      "@@a46@@": 822,
      "@@up@@": 823,
      "@@s2@@": 824,
      "@@msgtyp@@": 825,
      "@@pathb@@": 826,
      "@@v96@@": 827,
      "@@_10@@": 828,
      "@@arga@@": 829,
      "@@_EAX@@": 830,
      "@@stat_loc_4@@": 831,
      "@@utmr@@": 832,
      "@@gid@@": 833,
      "@@pgid@@": 834,
      "@@v112@@": 835,
      "@@v150@@": 836,
      "@@_3F0@@": 837,
      "@@act@@": 838,
      "@@maxlen@@": 839,
      "@@salta@@": 840,
      "@@a25@@": 841,
      "@@ptra@@": 842,
      "@@v147@@": 843,
      "@@savedregse@@": 844,
      "@@oflag@@": 845,
      "@@v111@@": 846,
      "@@nbytesa@@": 847,
      "@@v172@@": 848,
      "@@usage@@": 849,
      "@@addrb@@": 850,
      "@@haystack@@": 851,
      "@@a40@@": 852,
      "@@vmessages@@": 853,
      "@@srcb@@": 854,
      "@@nodep@@": 855,
      "@@vars20@@": 856,
      "@@_R13@@": 857,
      "@@old_len@@": 858,
      "@@func@@": 859,
      "@@R@@": 860,
      "@@errnumb@@": 861,
      "@@s2a@@": 862,
      "@@mode@@": 863,
      "@@tz@@": 864,
      "@@list@@": 865,
      "@@points@@": 866,
      "@@namelist@@": 867,
      "@@mutex@@": 868,
      "@@a28@@": 869,
      "@@a43@@": 870,
      "@@v17@@": 871,
      "@@nptra@@": 872,
      "@@af@@": 873,
      "@@v69@@": 874,
      "@@preg@@": 875,
      "@@v1@@": 876,
      "@@v165@@": 877,
      "@@nmemb_4@@": 878,
      "@@iovec@@": 879,
      "@@vec@@": 880,
      "@@v121@@": 881,
      "@@shortopts@@": 882,
      "@@vars14@@": 883,
      "@@a5@@": 884,
      "@@v94@@": 885,
      "@@entry@@": 886,
      "@@newmask@@": 887,
      "@@buf@@": 888,
      "@@v33@@": 889,
      "@@fpa@@": 890,
      "@@v113@@": 891,
      "@@file_actions@@": 892,
      "@@valuea@@": 893,
      "@@size@@": 894,
      "@@v118@@": 895,
      "@@v176@@": 896,
      "@@i@@": 897,
      "@@addra@@": 898,
      "@@v62@@": 899,
      "@@attr@@": 900,
      "@@statusb@@": 901,
      "@@str@@": 902,
      "@@v163@@": 903,
      "@@h_errnop@@": 904,
      "@@seed@@": 905,
      "@@pmatch@@": 906,
      "@@tv@@": 907,
      "@@argva@@": 908,
      "@@fda@@": 909,
      "@@a16@@": 910,
      "@@vars100@@": 911,
      "@@semnuma@@": 912,
      "@@destb@@": 913,
      "@@vars320@@": 914,
      "@@addr_lena@@": 915,
      "@@v149@@": 916,
      "@@pwcs@@": 917,
      "@@a68@@": 918,
      "@@cp@@": 919,
      "@@vars13@@": 920,
      "@@p@@": 921,
      "@@vars208@@": 922,
      "@@type@@": 923,
      "@@v102@@": 924,
      "@@v154@@": 925,
      "@@lock@@": 926,
      "@@_3FA8@@": 927,
      "@@_4030@@": 928,
      "@@sig@@": 929,
      "@@v18@@": 930,
      "@@time0@@": 931,
      "@@v261@@": 932,
      "@@srcd@@": 933,
      "@@_XMM2@@": 934,
      "@@shmid@@": 935,
      "@@ecodea@@": 936,
      "@@ps@@": 937,
      "@@v155@@": 938,
      "@@v12@@": 939,
      "@@y@@": 940,
      "@@a3@@": 941,
      "@@a31@@": 942,
      "@@this@@": 943,
      "@@inc@@": 944,
      "@@hostname@@": 945,
      "@@v48@@": 946,
      "@@v0@@": 947,
      "@@uid@@": 948,
      "@@offseta@@": 949,
      "@@haystacka@@": 950,
      "@@v65@@": 951,
      "@@input@@": 952,
      "@@a17@@": 953,
      "@@_R9@@": 954,
      "@@nptrd@@": 955,
      "@@dest@@": 956,
      "@@evp@@": 957,
      "@@_440@@": 958,
      "\u2581(": 959,
      "\u2581)": 960,
      "\u2581;": 961,
      "er": 962,
      "\u2581*": 963,
      "um": 964,
      "\u2581N": 965,
      "ber": 966,
      "umber": 967,
      "\u2581Number": 968,
      "in": 969,
      "\u2581_": 970,
      "int": 971,
      "\u2581,": 972,
      "\u2581=": 973,
      "\u2581__": 974,
      "64": 975,
      "\u2581+": 976,
      "st": 977,
      "si": 978,
      "re": 979,
      "ne": 980,
      "OR": 981,
      "\u2581{": 982,
      "\u2581}": 983,
      "sig": 984,
      "ORD": 985,
      "WORD": 986,
      "ned": 987,
      "signed": 988,
      "\u2581i": 989,
      "\u2581int": 990,
      "\u2581c": 991,
      "\u2581if": 992,
      "un": 993,
      "unsigned": 994,
      "\u2581unsigned": 995,
      "al": 996,
      "ar": 997,
      "QWORD": 998,
      "\u2581re": 999,
      "rn": 1000,
      "\u2581&": 1001,
      "tr": 1002,
      "ing": 1003,
      "tu": 1004,
      "turn": 1005,
      "\u2581return": 1006,
      "all": 1007,
      "se": 1008,
      "har": 1009,
      "\u2581S": 1010,
      "\u2581char": 1011,
      "tring": 1012,
      "fa": 1013,
      "\u2581String": 1014,
      "or": 1015,
      "call": 1016,
      "fast": 1017,
      "fastcall": 1018,
      "\u2581]": 1019,
      "\u2581[": 1020,
      "on": 1021,
      "\u2581<": 1022,
      "le": 1023,
      "DWORD": 1024,
      "\u2581f": 1025,
      "\u2581!": 1026,
      "\u2581st": 1027,
      "at": 1028,
      "\u2581>": 1029,
      "\u2581e": 1030,
      "\u2581p": 1031,
      "oc": 1032,
      "ad": 1033,
      "\u2581-": 1034,
      "\u2581signed": 1035,
      "it": 1036,
      "\u2581el": 1037,
      "id": 1038,
      "\u2581else": 1039,
      "en": 1040,
      "et": 1041,
      "__": 1042,
      "\u2581std": 1043,
      "\u2581con": 1044,
      "\u2581b": 1045,
      "\u2581d": 1046,
      "vo": 1047,
      "\u2581==": 1048,
      "void": 1049,
      "\u2581const": 1050,
      "\u2581s": 1051,
      "\u2581m": 1052,
      "rint": 1053,
      "TE": 1054,
      "BY": 1055,
      "BYTE": 1056,
      "ac": 1057,
      "te": 1058,
      "\u2581++": 1059,
      "\u2581void": 1060,
      "read": 1061,
      "lo": 1062,
      "\u2581g": 1063,
      "rintf": 1064,
      "ord": 1065,
      "word": 1066,
      "to": 1067,
      "\u2581str": 1068,
      "\u2581|": 1069,
      "\u2581>>": 1070,
      "ut": 1071,
      "ile": 1072,
      "\u2581w": 1073,
      "\u2581!=": 1074,
      "alloc": 1075,
      "me": 1076,
      "ree": 1077,
      "fs": 1078,
      "\u2581L": 1079,
      "de": 1080,
      "op": 1081,
      "uf": 1082,
      "rea": 1083,
      "16": 1084,
      "an": 1085,
      "qword": 1086,
      "ble": 1087,
      "err": 1088,
      "\u2581for": 1089,
      "\u2581:": 1090,
      "\u2581&&": 1091,
      "mp": 1092,
      "loc": 1093,
      "\u2581do": 1094,
      "ti": 1095,
      "reak": 1096,
      "\u2581break": 1097,
      "ss": 1098,
      "ase": 1099,
      "\u2581a": 1100,
      "readfs": 1101,
      "readfsqword": 1102,
      "ch": 1103,
      "printf": 1104,
      "ct": 1105,
      "buf": 1106,
      "ack": 1107,
      "set": 1108,
      "str": 1109,
      "cp": 1110,
      "\u2581<=": 1111,
      "AB": 1112,
      "EL": 1113,
      "ABEL": 1114,
      "\u2581LABEL": 1115,
      "ue": 1116,
      "\u2581wh": 1117,
      "\u2581while": 1118,
      "\u2581r": 1119,
      "ator": 1120,
      "uble": 1121,
      "ate": 1122,
      "li": 1123,
      "\u2581||": 1124,
      "em": 1125,
      "ent": 1126,
      "\u2581double": 1127,
      "add": 1128,
      "il": 1129,
      "\u2581free": 1130,
      "ze": 1131,
      "test": 1132,
      "ag": 1133,
      "ap": 1134,
      "co": 1135,
      "get": 1136,
      "\u2581case": 1137,
      "size": 1138,
      "_1": 1139,
      "ol": 1140,
      "\u2581test": 1141,
      "ite": 1142,
      "ve": 1143,
      "28": 1144,
      "con": 1145,
      "\u2581alloc": 1146,
      "he": 1147,
      "\u2581printf": 1148,
      "rite": 1149,
      "error": 1150,
      "128": 1151,
      "\u2581l": 1152,
      "\u2581>=": 1153,
      "mm": 1154,
      "cmp": 1155,
      "\u2581sy": 1156,
      "pe": 1157,
      "\u2581mem": 1158,
      "lock": 1159,
      "oto": 1160,
      "len": 1161,
      "\u2581get": 1162,
      "list": 1163,
      "\u2581ex": 1164,
      "ro": 1165,
      "vent": 1166,
      "\u2581goto": 1167,
      "\u2581allocator": 1168,
      "th": 1169,
      "\u2581+=": 1170,
      "sh": 1171,
      "ce": 1172,
      "ul": 1173,
      "ame": 1174,
      "acket": 1175,
      "and": 1176,
      "\u2581u": 1177,
      "\u2581stderr": 1178,
      "ir": 1179,
      "ati": 1180,
      "\u2581^": 1181,
      "est": 1182,
      "\u2581put": 1183,
      "fer": 1184,
      "addr": 1185,
      "string": 1186,
      "val": 1187,
      "\u2581testing": 1188,
      "\u2581T": 1189,
      "put": 1190,
      "\u2581<<": 1191,
      "\u2581P": 1192,
      "nt": 1193,
      "no": 1194,
      "\u2581fprintf": 1195,
      "is": 1196,
      "write": 1197,
      "loat": 1198,
      "its": 1199,
      "ex": 1200,
      "\u2581op": 1201,
      "ip": 1202,
      "up": 1203,
      "fi": 1204,
      "_2": 1205,
      "age": 1206,
      "\u2581t": 1207,
      "fl": 1208,
      "ess": 1209,
      "Re": 1210,
      "\u2581H": 1211,
      "ert": 1212,
      "\u2581size": 1213,
      "arg": 1214,
      "nd": 1215,
      "event": 1216,
      "able": 1217,
      "\u2581float": 1218,
      "ype": 1219,
      "\u2581de": 1220,
      "_6": 1221,
      "tion": 1222,
      "ation": 1223,
      "log": 1224,
      "ind": 1225,
      "mo": 1226,
      "cx": 1227,
      "lose": 1228,
      "\u2581exit": 1229,
      "\u2581strlen": 1230,
      "roc": 1231,
      "name": 1232,
      "acketbuf": 1233,
      "\u2581F": 1234,
      "time": 1235,
      "cxx": 1236,
      "cpu": 1237,
      "\u2581.": 1238,
      "\u2581se": 1239,
      "cpy": 1240,
      "ver": 1241,
      "init": 1242,
      "ute": 1243,
      "ur": 1244,
      "\u2581h": 1245,
      "thread": 1246,
      "\u2581A": 1247,
      "\u2581puts": 1248,
      "dat": 1249,
      "as": 1250,
      "buffer": 1251,
      "tra": 1252,
      "aw": 1253,
      "free": 1254,
      "rocess": 1255,
      "ace": 1256,
      "sic": 1257,
      "\u2581packetbuf": 1258,
      "asic": 1259,
      "ck": 1260,
      "char": 1261,
      "\u2581n": 1262,
      "traits": 1263,
      "ist": 1264,
      "req": 1265,
      "fo": 1266,
      "\u2581malloc": 1267,
      "nal": 1268,
      "\u2581z": 1269,
      "file": 1270,
      "11": 1271,
      "\u2581y": 1272,
      "\u2581strcmp": 1273,
      "ass": 1274,
      "ken": 1275,
      "\u2581read": 1276,
      "\u2581basic": 1277,
      "ow": 1278,
      "32": 1279,
      "rno": 1280,
      "In": 1281,
      "\u2581LO": 1282,
      "errno": 1283,
      "erator": 1284,
      "ug": 1285,
      "mer": 1286,
      "el": 1287,
      "xt": 1288,
      "ig": 1289,
      "\u2581sys": 1290,
      "\u2581yy": 1291,
      "68": 1292,
      "location": 1293,
      "out": 1294,
      "ult": 1295,
      "sy": 1296,
      "_4": 1297,
      "token": 1298,
      "\u2581qword": 1299,
      "\u2581--": 1300,
      "que": 1301,
      "\u2581sh": 1302,
      "po": 1303,
      "ock": 1304,
      "\u2581fwrite": 1305,
      "\u2581sym": 1306,
      "\u2581C": 1307,
      "ed": 1308,
      "value": 1309,
      "ort": 1310,
      "pi": 1311,
      "LE": 1312,
      "sc": 1313,
      "yte": 1314,
      "uct": 1315,
      "conf": 1316,
      "awk": 1317,
      "\u2581Hawk": 1318,
      "arse": 1319,
      "of": 1320,
      "ctor": 1321,
      "art": 1322,
      "ernal": 1323,
      "\u2581un": 1324,
      "\u2581M": 1325,
      "timer": 1326,
      "bug": 1327,
      "ter": 1328,
      "open": 1329,
      "ine": 1330,
      "ki": 1331,
      "ILE": 1332,
      "\u2581process": 1333,
      "OL": 1334,
      "\u2581bo": 1335,
      "ic": 1336,
      "\u2581zconf": 1337,
      "rent": 1338,
      "\u2581print": 1339,
      "De": 1340,
      "\u2581v": 1341,
      "ast": 1342,
      "data": 1343,
      "flag": 1344,
      "\u2581pevent": 1345,
      "\u2581pthread": 1346,
      "pr": 1347,
      "ost": 1348,
      "\u2581in": 1349,
      "ua": 1350,
      "trace": 1351,
      "ime": 1352,
      "BO": 1353,
      "fail": 1354,
      "stack": 1355,
      "\u2581internal": 1356,
      "type": 1357,
      "\u2581Test": 1358,
      "BOOL": 1359,
      "queue": 1360,
      "_3": 1361,
      "wit": 1362,
      "new": 1363,
      "\u2581struct": 1364,
      "print": 1365,
      "\u2581memset": 1366,
      "assert": 1367,
      "\u2581FILE": 1368,
      "arn": 1369,
      "\u2581perror": 1370,
      "air": 1371,
      "ay": 1372,
      "cl": 1373,
      "\u2581lua": 1374,
      "close": 1375,
      "utex": 1376,
      "unc": 1377,
      "ode": 1378,
      "io": 1379,
      "Test": 1380,
      "\u2581reg": 1381,
      "En": 1382,
      "eld": 1383,
      "\u2581uip": 1384,
      "\u2581sysfs": 1385,
      "ush": 1386,
      "\u2581ac": 1387,
      "rr": 1388,
      "\u2581cp": 1389,
      "\u2581pair": 1390,
      "info": 1391,
      "\u2581memcpy": 1392,
      "\u2581list": 1393,
      "unt": 1394,
      "urrent": 1395,
      "arning": 1396,
      "end": 1397,
      "witch": 1398,
      "\u2581log": 1399,
      "map": 1400,
      "opy": 1401,
      "ail": 1402,
      "\u2581x": 1403,
      "\u2581LODWORD": 1404,
      "oco": 1405,
      "\u2581operator": 1406,
      "mem": 1407,
      "ain": 1408,
      "dr": 1409,
      "_0": 1410,
      "\u2581ra": 1411,
      "ab": 1412,
      "\u2581Poco": 1413,
      "sg": 1414,
      "\u2581rime": 1415,
      "field": 1416,
      "code": 1417,
      "ke": 1418,
      "ser": 1419,
      "ufreq": 1420,
      "node": 1421,
      "6_": 1422,
      "sn": 1423,
      "attr": 1424,
      "heck": 1425,
      "_60": 1426,
      "\u2581G": 1427,
      "am": 1428,
      "\u2581|=": 1429,
      "\u2581set": 1430,
      "bo": 1431,
      "\u2581switch": 1432,
      "mutex": 1433,
      "\u2581rimeaddr": 1434,
      "if": 1435,
      "load": 1436,
      "reate": 1437,
      "ge": 1438,
      "orm": 1439,
      "\u2581close": 1440,
      "chk": 1441,
      "start": 1442,
      "lect": 1443,
      "ream": 1444,
      "\u2581B": 1445,
      "String": 1446,
      "\u2581k": 1447,
      "ash": 1448,
      "one": 1449,
      "os": 1450,
      "move": 1451,
      "\u2581loc": 1452,
      "send": 1453,
      "\u2581parse": 1454,
      "flags": 1455,
      "\u2581show": 1456,
      "comm": 1457,
      "\u2581unk": 1458,
      "vector": 1459,
      "ie": 1460,
      "fault": 1461,
      "hand": 1462,
      "lob": 1463,
      "table": 1464,
      "pid": 1465,
      "off": 1466,
      "\u2581raid": 1467,
      "seq": 1468,
      "tree": 1469,
      "sec": 1470,
      "pl": 1471,
      "bj": 1472,
      "pa": 1473,
      "\u2581U": 1474,
      "\u2581write": 1475,
      "\u2581check": 1476,
      "\u2581co": 1477,
      "text": 1478,
      "\u2581add": 1479,
      "\u2581send": 1480,
      "\u2581trace": 1481,
      "hel": 1482,
      "ler": 1483,
      "\u2581buf": 1484,
      "rom": 1485,
      "ink": 1486,
      "\u2581acpi": 1487,
      "enu": 1488,
      "copy": 1489,
      "head": 1490,
      "cy": 1491,
      "List": 1492,
      "_5": 1493,
      "back": 1494,
      "\u2581en": 1495,
      "ask": 1496,
      "byte": 1497,
      "base": 1498,
      "packet": 1499,
      "reg": 1500,
      "next": 1501,
      "\u2581sock": 1502,
      "ok": 1503,
      "comp": 1504,
      "top": 1505,
      "che": 1506,
      "ong": 1507,
      "page": 1508,
      "cle": 1509,
      "\u2581-=": 1510,
      "try": 1511,
      "\u2581vector": 1512,
      "\u2581E": 1513,
      "\u2581arg": 1514,
      "ice": 1515,
      "_8": 1516,
      "fil": 1517,
      "DE": 1518,
      "sult": 1519,
      "igh": 1520,
      "om": 1521,
      "fd": 1522,
      "ma": 1523,
      "date": 1524,
      "ptr": 1525,
      "ub": 1526,
      "\u2581D": 1527,
      "ange": 1528,
      "\u2581ch": 1529,
      "\u2581byte": 1530,
      "Co": 1531,
      "find": 1532,
      "sp": 1533,
      "ix": 1534,
      "\u2581boost": 1535,
      "ment": 1536,
      "\u2581opt": 1537,
      "\u2581is": 1538,
      "ot": 1539,
      "ath": 1540,
      "ull": 1541,
      "\u2581dword": 1542,
      "cr": 1543,
      "ump": 1544,
      "St": 1545,
      "\u2581->": 1546,
      "ted": 1547,
      "\u2581asn": 1548,
      "sym": 1549,
      "red": 1550,
      "dup": 1551,
      "func": 1552,
      "\u2581current": 1553,
      "vp": 1554,
      "fig": 1555,
      "ec": 1556,
      "fn": 1557,
      "\u2581debug": 1558,
      "dd": 1559,
      "qu": 1560,
      "line": 1561,
      "ali": 1562,
      "Err": 1563,
      "\u2581strn": 1564,
      "\u2581expr": 1565,
      "\u2581I": 1566,
      "nit": 1567,
      "warning": 1568,
      "putc": 1569,
      "\u2581sprintf": 1570,
      "md": 1571,
      "\u2581sn": 1572,
      "DEF": 1573,
      "handler": 1574,
      "opt": 1575,
      "\u2581time": 1576,
      "\u2581fclose": 1577,
      "ty": 1578,
      "cep": 1579,
      "\u2581default": 1580,
      "cpufreq": 1581,
      "Get": 1582,
      "sys": 1583,
      "bc": 1584,
      "Result": 1585,
      "To": 1586,
      "filter": 1587,
      "arr": 1588,
      "check": 1589,
      "\u2581HI": 1590,
      "\u2581bool": 1591,
      "\u2581queue": 1592,
      "gn": 1593,
      "\u2581putchar": 1594,
      "atch": 1595,
      "\u2581find": 1596,
      "ity": 1597,
      "decl": 1598,
      "Set": 1599,
      "\u2581le": 1600,
      "2_": 1601,
      "num": 1602,
      "\u2581fopen": 1603,
      "freq": 1604,
      "Con": 1605,
      "\u2581ft": 1606,
      "count": 1607,
      "gnu": 1608,
      "nel": 1609,
      "od": 1610,
      "\u2581snprintf": 1611,
      "im": 1612,
      "cdecl": 1613,
      "ild": 1614,
      "1_": 1615,
      "\u2581main": 1616,
      "\u2581gz": 1617,
      "output": 1618,
      "item": 1619,
      "\u2581ro": 1620,
      "\u2581ht": 1621,
      "oy": 1622,
      "ory": 1623,
      "us": 1624,
      "iterator": 1625,
      "Rb": 1626,
      "\u2581col": 1627,
      "bol": 1628,
      "IG": 1629,
      "stroy": 1630,
      "per": 1631,
      "\u2581Re": 1632,
      "_10": 1633,
      "tal": 1634,
      "Error": 1635,
      "Info": 1636,
      "pre": 1637,
      "vel": 1638,
      "block": 1639,
      "const": 1640,
      "\u2581error": 1641,
      "flate": 1642,
      "\u2581ma": 1643,
      "16_": 1644,
      "ener": 1645,
      "ml": 1646,
      "tp": 1647,
      "CC": 1648,
      "from": 1649,
      "\u2581ut": 1650,
      "\u2581Unit": 1651,
      "point": 1652,
      "mple": 1653,
      "hell": 1654,
      "\u2581tv": 1655,
      "\u2581tests": 1656,
      "stat": 1657,
      "\u2581sem": 1658,
      "process": 1659,
      "unlock": 1660,
      "create": 1661,
      "\u2581warning": 1662,
      "dex": 1663,
      "\u2581ctimer": 1664,
      "ative": 1665,
      "_9": 1666,
      "etail": 1667,
      "\u2581lob": 1668,
      "\u2581strerror": 1669,
      "ait": 1670,
      "bl": 1671,
      "ard": 1672,
      "\u2581collect": 1673,
      "\u2581SW": 1674,
      "\u2581event": 1675,
      "\u2581open": 1676,
      "Se": 1677,
      "\u2581wpa": 1678,
      "\u2581sig": 1679,
      "dis": 1680,
      "ata": 1681,
      "32_": 1682,
      "\u2581SWIG": 1683,
      "flush": 1684,
      "essage": 1685,
      "msg": 1686,
      "\u2581new": 1687,
      "bytes": 1688,
      "ns": 1689,
      "\u2581my": 1690,
      "ctype": 1691,
      "\u2581UnitTest": 1692,
      "Obj": 1693,
      "link": 1694,
      "scr": 1695,
      "debug": 1696,
      "PE": 1697,
      "callback": 1698,
      "port": 1699,
      "malloc": 1700,
      "\u2581util": 1701,
      "act": 1702,
      "ress": 1703,
      "sion": 1704,
      "parse": 1705,
      "pend": 1706,
      "\u2581BYTE": 1707,
      "lete": 1708,
      "neigh": 1709,
      "dir": 1710,
      "ule": 1711,
      "ction": 1712,
      "cast": 1713,
      "\u2581tr": 1714,
      "net": 1715,
      "datap": 1716,
      "sert": 1717,
      "\u2581stdout": 1718,
      "ister": 1719,
      "\u2581strcpy": 1720,
      "\u2581De": 1721,
      "bor": 1722,
      "_7": 1723,
      "key": 1724,
      "cpi": 1725,
      "pec": 1726,
      "ans": 1727,
      "neighbor": 1728,
      "look": 1729,
      "es": 1730,
      "_15": 1731,
      "Native": 1732,
      "bits": 1733,
      "ib": 1734,
      "can": 1735,
      "\u2581LOBYTE": 1736,
      "\u2581Acpi": 1737,
      "\u2581init": 1738,
      "sr": 1739,
      "ect": 1740,
      "\u2581string": 1741,
      "ep": 1742,
      "ache": 1743,
      "\u2581to": 1744,
      "rap": 1745,
      "\u2581stat": 1746,
      "push": 1747,
      "\u2581R": 1748,
      "ated": 1749,
      "10": 1750,
      "scan": 1751,
      "cv": 1752,
      "ds": 1753,
      "\u2581err": 1754,
      "\u2581cpufreq": 1755,
      "hdr": 1756,
      "vice": 1757,
      "\u2581conf": 1758,
      "ector": 1759,
      "hash": 1760,
      "ception": 1761,
      "\u2581line": 1762,
      "stream": 1763,
      "\u2581at": 1764,
      "sock": 1765,
      "CE": 1766,
      "\u2581die": 1767,
      "mod": 1768,
      "\u2581V": 1769,
      "\u2581o": 1770,
      "\u2581envp": 1771,
      "_16": 1772,
      "pro": 1773,
      "Init": 1774,
      "af": 1775,
      "bit": 1776,
      "mpty": 1777,
      "chr": 1778,
      "dep": 1779,
      "her": 1780,
      "do": 1781,
      "IN": 1782,
      "Ex": 1783,
      "vm": 1784,
      "\u2581&=": 1785,
      "TR": 1786,
      "\u2581Py": 1787,
      "pdate": 1788,
      "ek": 1789,
      "lookup": 1790,
      "\u2581regs": 1791,
      "\u2581strto": 1792,
      "\u2581av": 1793,
      "config": 1794,
      "ud": 1795,
      "tl": 1796,
      "Pr": 1797,
      "entry": 1798,
      "array": 1799,
      "\u2581dprint": 1800,
      "Ptr": 1801,
      "_12": 1802,
      "common": 1803,
      "lab": 1804,
      "\u2581queuebuf": 1805,
      "licy": 1806,
      "be": 1807,
      "File": 1808,
      "Name": 1809,
      "remove": 1810,
      "\u2581less": 1811,
      "der": 1812,
      "pt": 1813,
      "ph": 1814,
      "fprintf": 1815,
      "level": 1816,
      "\u2581uint": 1817,
      "lim": 1818,
      "iver": 1819,
      "ence": 1820,
      "ext": 1821,
      "road": 1822,
      "env": 1823,
      "sio": 1824,
      "for": 1825,
      "roadcast": 1826,
      "nore": 1827,
      "\u2581fputc": 1828,
      "Py": 1829,
      "state": 1830,
      "icast": 1831,
      "_11": 1832,
      "xor": 1833,
      "valid": 1834,
      "\u2581word": 1835,
      "\u2581page": 1836,
      "\u2581asio": 1837,
      "db": 1838,
      "di": 1839,
      "arch": 1840,
      "are": 1841,
      "pc": 1842,
      "Tr": 1843,
      "\u2581buffer": 1844,
      "ipt": 1845,
      "\u2581menu": 1846,
      "Node": 1847,
      "Lo": 1848,
      "_17": 1849,
      "bss": 1850,
      "\u2581file": 1851,
      "fatal": 1852,
      "oll": 1853,
      "_40": 1854,
      "\u2581pro": 1855,
      "rt": 1856,
      "menu": 1857,
      "ify": 1858,
      "\u2581timer": 1859,
      "Vector": 1860,
      "\u2581strdup": 1861,
      "ormat": 1862,
      "ECC": 1863,
      "\u2581TA": 1864,
      "\u2581calloc": 1865,
      "\u2581uECC": 1866,
      "\u2581pre": 1867,
      "ero": 1868,
      "clear": 1869,
      "range": 1870,
      "umer": 1871,
      "\u2581sp": 1872,
      "9_": 1873,
      "mpl": 1874,
      "YPE": 1875,
      "heap": 1876,
      "IO": 1877,
      "\u2581realloc": 1878,
      "rame": 1879,
      "mac": 1880,
      "number": 1881,
      "\u2581text": 1882,
      "lat": 1883,
      "norm": 1884,
      "\u2581regflags": 1885,
      "noreturn": 1886,
      "bool": 1887,
      "Al": 1888,
      "_14": 1889,
      "\u2581HIDWORD": 1890,
      "command": 1891,
      "ger": 1892,
      "\u2581q": 1893,
      "dataptr": 1894,
      "script": 1895,
      "destroy": 1896,
      "_13": 1897,
      "cc": 1898,
      "policy": 1899,
      "ER": 1900,
      "Enumer": 1901,
      "\u2581rand": 1902,
      "header": 1903,
      "Enumerated": 1904,
      "NativeEnumerated": 1905,
      "Po": 1906,
      "sa": 1907,
      "register": 1908,
      "_18": 1909,
      "\u2581Get": 1910,
      "ng": 1911,
      "mode": 1912,
      "\u2581sa": 1913,
      "ID": 1914,
      "\u2581Abc": 1915,
      "\u2581msg": 1916,
      "gx": 1917,
      "\u2581pr": 1918,
      "\u2581strc": 1919,
      "cov": 1920,
      "Code": 1921,
      "\u2581input": 1922,
      "Type": 1923,
      "\u2581hton": 1924,
      "Int": 1925,
      "50": 1926,
      "Case": 1927,
      "_20": 1928,
      "fin": 1929,
      "\u2581off": 1930,
      "normal": 1931,
      "ore": 1932,
      "\u2581O": 1933,
      "64_": 1934,
      "cho": 1935,
      "\u2581ngx": 1936,
      "\u2581long": 1937,
      "obj": 1938,
      "aram": 1939,
      "\u2581shell": 1940,
      "alize": 1941,
      "\u2581memcmp": 1942,
      "\u2581strchr": 1943,
      "\u2581route": 1944,
      "scriptor": 1945,
      "Str": 1946,
      "ci": 1947,
      "met": 1948,
      "asm": 1949,
      "\u2581j": 1950,
      "mask": 1951,
      "\u2581cs": 1952,
      "ure": 1953,
      "ize": 1954,
      "symbol": 1955,
      "thon": 1956,
      "server": 1957,
      "\u2581clock": 1958,
      "\u2581us": 1959,
      "Event": 1960,
      "host": 1961,
      "Python": 1962,
      "\u2581ab": 1963,
      "\u2581ptr": 1964,
      "\u2581an": 1965,
      "OWORD": 1966,
      "epi": 1967,
      "ts": 1968,
      "mar": 1969,
      "var": 1970,
      "\u2581ad": 1971,
      "insert": 1972,
      "annel": 1973,
      "ertion": 1974,
      "iv": 1975,
      "stats": 1976,
      "\u2581strncmp": 1977,
      "alue": 1978,
      "Listener": 1979,
      "inter": 1980,
      "update": 1981,
      "\u2581printk": 1982,
      "Read": 1983,
      "\u2581fd": 1984,
      "_23": 1985,
      "andle": 1986,
      "index": 1987,
      "cs": 1988,
      "path": 1989,
      "\u2581syslog": 1990,
      "lease": 1991,
      "ht": 1992,
      "\u2581Message": 1993,
      "etch": 1994,
      "\u2581memb": 1995,
      "space": 1996,
      "yn": 1997,
      "\u2581update": 1998,
      "\u2581last": 1999,
      "Data": 2000,
      "empty": 2001,
      "\u2581detail": 2002,
      "seek": 2003,
      "\u2581png": 2004,
      "driver": 2005,
      "ison": 2006,
      "EM": 2007,
      "Base": 2008,
      "\u2581cr": 2009,
      "cache": 2010,
      "ial": 2011,
      "atu": 2012,
      "sort": 2013,
      "Buf": 2014,
      "\u2581GC": 2015,
      "sum": 2016,
      "wap": 2017,
      "gth": 2018,
      "unter": 2019,
      "TYPE": 2020,
      "_61": 2021,
      "vli": 2022,
      "\u2581lm": 2023,
      "lobal": 2024,
      "std": 2025,
      "\u2581Debug": 2026,
      "\u2581strncpy": 2027,
      "long": 2028,
      "current": 2029,
      "stem": 2030,
      "tin": 2031,
      "allocator": 2032,
      "octl": 2033,
      "\u2581hash": 2034,
      "\u2581SH": 2035,
      "exp": 2036,
      "\u2581argc": 2037,
      "crit": 2038,
      "_22": 2039,
      "pg": 2040,
      "\u2581ap": 2041,
      "ker": 2042,
      "Select": 2043,
      "\u2581per": 2044,
      "fetch": 2045,
      "\u2581fflush": 2046,
      "Print": 2047,
      "tions": 2048,
      "rand": 2049,
      "zero": 2050,
      "cur": 2051,
      "80": 2052,
      "imple": 2053,
      "ched": 2054,
      "names": 2055,
      "mount": 2056,
      "by": 2057,
      "irst": 2058,
      "uest": 2059,
      "unk": 2060,
      "dev": 2061,
      "\u2581elf": 2062,
      "\u2581create": 2063,
      "low": 2064,
      "Alloc": 2065,
      "\u2581ver": 2066,
      "raw": 2067,
      "fix": 2068,
      "input": 2069,
      "adio": 2070,
      "Stream": 2071,
      "use": 2072,
      "rg": 2073,
      "nsec": 2074,
      "\u2581^=": 2075,
      "Write": 2076,
      "cb": 2077,
      "\u2581vo": 2078,
      "0_": 2079,
      "\u2581argv": 2080,
      "ement": 2081,
      "_39": 2082,
      "ill": 2083,
      "cycle": 2084,
      "go": 2085,
      "ssert": 2086,
      "\u2581run": 2087,
      "\u2581base": 2088,
      "ive": 2089,
      "und": 2090,
      "user": 2091,
      "sol": 2092,
      "choice": 2093,
      "double": 2094,
      "\u2581lock": 2095,
      "has": 2096,
      "max": 2097,
      "sub": 2098,
      "exit": 2099,
      "float": 2100,
      "son": 2101,
      "\u2581wait": 2102,
      "fg": 2103,
      "lient": 2104,
      "\u2581TestCase": 2105,
      "descriptor": 2106,
      "\u2581ser": 2107,
      "AS": 2108,
      "poison": 2109,
      "Msg": 2110,
      "\u2581ssize": 2111,
      "_607": 2112,
      "\u2581os": 2113,
      "_62": 2114,
      "Block": 2115,
      "ctl": 2116,
      "scanf": 2117,
      "\u2581nr": 2118,
      "_21": 2119,
      "\u2581ip": 2120,
      "cond": 2121,
      "my": 2122,
      "uild": 2123,
      "abled": 2124,
      "alc": 2125,
      "\u2581MEM": 2126,
      "ORY": 2127,
      "ls": 2128,
      "nounc": 2129,
      "nouncement": 2130,
      "tinue": 2131,
      "At": 2132,
      "unmap": 2133,
      "Prop": 2134,
      "snprintf": 2135,
      "oi": 2136,
      "mit": 2137,
      "\u2581MEMORY": 2138,
      "ra": 2139,
      "rot": 2140,
      "radio": 2141,
      "ire": 2142,
      "ft": 2143,
      "\u2581comp": 2144,
      "\u2581stb": 2145,
      "mmu": 2146,
      "null": 2147,
      "_19": 2148,
      "\u2581sockaddr": 2149,
      "\u2581ioctl": 2150,
      "alen": 2151,
      "offset": 2152,
      "ST": 2153,
      "datalen": 2154,
      "mt": 2155,
      "latile": 2156,
      "cess": 2157,
      "\u2581continue": 2158,
      "ion": 2159,
      "\u2581abort": 2160,
      "old": 2161,
      "\u2581io": 2162,
      "\u2581inflate": 2163,
      "\u2581mdb": 2164,
      "\u2581CO": 2165,
      "\u2581null": 2166,
      "ps": 2167,
      "min": 2168,
      "encode": 2169,
      "gets": 2170,
      "\u2581num": 2171,
      "ower": 2172,
      "istate": 2173,
      "\u2581regex": 2174,
      "ocol": 2175,
      "tristate": 2176,
      "\u2581max": 2177,
      "ach": 2178,
      "ibute": 2179,
      "ssertion": 2180,
      "ight": 2181,
      "nect": 2182,
      "atus": 2183,
      "ialize": 2184,
      "pected": 2185,
      "From": 2186,
      "row": 2187,
      "\u2581socket": 2188,
      "\u2581Simple": 2189,
      "dump": 2190,
      "av": 2191,
      "stderr": 2192,
      "stop": 2193,
      "\u2581irr": 2194,
      "\u2581core": 2195,
      "inher": 2196,
      "Mem": 2197,
      "\u2581symbol": 2198,
      "\u2581Assertion": 2199,
      "ql": 2200,
      "app": 2201,
      "append": 2202,
      "inherit": 2203,
      "\u2581te": 2204,
      "99_": 2205,
      "run": 2206,
      "tup": 2207,
      "Le": 2208,
      "\u2581deflate": 2209,
      "del": 2210,
      "isoc": 2211,
      "trix": 2212,
      "handle": 2213,
      "\u2581usage": 2214,
      "cmd": 2215,
      "\u2581sc": 2216,
      "ary": 2217,
      "pd": 2218,
      "vir": 2219,
      "\u2581Ex": 2220,
      "\u2581make": 2221,
      "erty": 2222,
      "length": 2223,
      "trans": 2224,
      "packetbuf": 2225,
      "mul": 2226,
      "indent": 2227,
      "\u2581dump": 2228,
      "3_": 2229,
      "\u2581atoi": 2230,
      "sprintf": 2231,
      "odule": 2232,
      "expected": 2233,
      "Add": 2234,
      "hex": 2235,
      "compar": 2236,
      "\u2581debugfs": 2237,
      "leep": 2238,
      "format": 2239,
      "\u2581rax": 2240,
      "ant": 2241,
      "Entry": 2242,
      "ared": 2243,
      "exception": 2244,
      "raph": 2245,
      "part": 2246,
      "alph": 2247,
      "conn": 2248,
      "Table": 2249,
      "Property": 2250,
      "_24": 2251,
      "\u2581AssertionResult": 2252,
      "gr": 2253,
      "\u2581htons": 2254,
      "tab": 2255,
      "\u2581recv": 2256,
      "\u2581rb": 2257,
      "\u2581SD": 2258,
      "Un": 2259,
      "\u2581volatile": 2260,
      "\u2581Lock": 2261,
      "Assert": 2262,
      "Is": 2263,
      "cord": 2264,
      "alpha": 2265,
      "\u2581LOWORD": 2266,
      "gin": 2267,
      "search": 2268,
      "udp": 2269,
      "cnt": 2270,
      "\u2581SimpleString": 2271,
      "\u2581asc": 2272,
      "Path": 2273,
      "_26": 2274,
      "ceive": 2275,
      "nc": 2276,
      "\u2581TestEvent": 2277,
      "\u2581handle": 2278,
      "rray": 2279,
      "IT": 2280,
      "va": 2281,
      "rotocol": 2282,
      "\u2581etimer": 2283,
      "store": 2284,
      "IR": 2285,
      "\u2581fread": 2286,
      "Efi": 2287,
      "fields": 2288,
      "ren": 2289,
      "uid": 2290,
      "\u2581tm": 2291,
      "\u2581po": 2292,
      "wn": 2293,
      "\u2581File": 2294,
      "PI": 2295,
      "25": 2296,
      "timet": 2297,
      "\u2581Cu": 2298,
      "wpoison": 2299,
      "ies": 2300,
      "Size": 2301,
      "EA": 2302,
      "vert": 2303,
      "\u2581errorCode": 2304,
      "br": 2305,
      "cpus": 2306,
      "\u2581tls": 2307,
      "\u2581copy": 2308,
      "timetable": 2309,
      "reloc": 2310,
      "\u2581shm": 2311,
      "AT": 2312,
      "ility": 2313,
      "col": 2314,
      "Arg": 2315,
      "olite": 2316,
      "decode": 2317,
      "\u2581remove": 2318,
      "puts": 2319,
      "\u2581luaL": 2320,
      "Call": 2321,
      "\u2581gEfi": 2322,
      "\u2581W": 2323,
      "\u2581announcement": 2324,
      "coder": 2325,
      "wor": 2326,
      "SL": 2327,
      "\u2581out": 2328,
      "tag": 2329,
      "ssion": 2330,
      "20": 2331,
      "Free": 2332,
      "\u2581si": 2333,
      "uction": 2334,
      "tk": 2335,
      "\u2581fatal": 2336,
      "gf": 2337,
      "\u2581Ti": 2338,
      "\u2581slab": 2339,
      "ift": 2340,
      "Part": 2341,
      "48": 2342,
      "Value": 2343,
      "mess": 2344,
      "own": 2345,
      "AC": 2346,
      "\u2581map": 2347,
      "\u2581child": 2348,
      "4_": 2349,
      "\u2581root": 2350,
      "message": 2351,
      "ERCE": 2352,
      "\u2581COERCE": 2353,
      "\u2581xmm": 2354,
      "ref": 2355,
      "\u2581cmd": 2356,
      "asecmp": 2357,
      "sm": 2358,
      "\u2581*=": 2359,
      "lag": 2360,
      "\u2581nl": 2361,
      "cry": 2362,
      "sent": 2363,
      "30": 2364,
      "delete": 2365,
      "\u2581packet": 2366,
      "ance": 2367,
      "gen": 2368,
      "\u2581tcp": 2369,
      "sk": 2370,
      "action": 2371,
      "\u2581broadcast": 2372,
      "ier": 2373,
      "change": 2374,
      "\u2581next": 2375,
      "Fail": 2376,
      "90": 2377,
      "counter": 2378,
      "ACE": 2379,
      "\u2581fgets": 2380,
      "nta": 2381,
      "\u2581dis": 2382,
      "ON": 2383,
      "canf": 2384,
      "param": 2385,
      "ust": 2386,
      "\u2581heap": 2387,
      "\u2581link": 2388,
      "with": 2389,
      "\u2581TestProperty": 2390,
      "memory": 2391,
      "nsecs": 2392,
      "bose": 2393,
      "lear": 2394,
      "\u2581acl": 2395,
      "address": 2396,
      "toh": 2397,
      "\u2581mmap": 2398,
      "tx": 2399,
      "_1_": 2400,
      "FILE": 2401,
      "\u2581http": 2402,
      "sse": 2403,
      "ev": 2404,
      "ick": 2405,
      "core": 2406,
      "dom": 2407,
      "arrier": 2408,
      "Id": 2409,
      "PartResult": 2410,
      "dp": 2411,
      "\u2581..": 2412,
      "\u2581...": 2413,
      "wait": 2414,
      "recov": 2415,
      "uc": 2416,
      "\u2581ntoh": 2417,
      "mountpoint": 2418,
      "\u2581strcat": 2419,
      "\u2581En": 2420,
      "ey": 2421,
      "local": 2422,
      "bs": 2423,
      "60": 2424,
      "Log": 2425,
      "ll": 2426,
      "Parse": 2427,
      "ring": 2428,
      "ors": 2429,
      "\u2581munmap": 2430,
      "ture": 2431,
      "\u2581va": 2432,
      "roup": 2433,
      "cept": 2434,
      "OU": 2435,
      "allocate": 2436,
      "\u2581global": 2437,
      "mmand": 2438,
      "\u2581net": 2439,
      "rw": 2440,
      "\u2581Q": 2441,
      "help": 2442,
      "DD": 2443,
      "Comp": 2444,
      "alse": 2445,
      "crypt": 2446,
      "\u2581optarg": 2447,
      "amp": 2448,
      "deg": 2449,
      "\u2581mfd": 2450,
      "\u2581output": 2451,
      "ang": 2452,
      "\u2581sub": 2453,
      "Buffer": 2454,
      "bserver": 2455,
      "And": 2456,
      "bin": 2457,
      "memb": 2458,
      "\u2581indent": 2459,
      "\u2581unicast": 2460,
      "ake": 2461,
      "\u2581inet": 2462,
      "\u2581delete": 2463,
      "reset": 2464,
      "acti": 2465,
      "match": 2466,
      "Var": 2467,
      "vec": 2468,
      "struction": 2469,
      "ply": 2470,
      "40": 2471,
      "mark": 2472,
      "erm": 2473,
      "Enabled": 2474,
      "impl": 2475,
      "alk": 2476,
      "fc": 2477,
      "packets": 2478,
      "ward": 2479,
      "Out": 2480,
      "Sh": 2481,
      "function": 2482,
      "appdata": 2483,
      "degree": 2484,
      "RR": 2485,
      "58": 2486,
      "\u2581fa": 2487,
      "\u2581getenv": 2488,
      "\u2581events": 2489,
      "\u2581gcc": 2490,
      "\u2581ev": 2491,
      "\u2581DebugAssert": 2492,
      "usec": 2493,
      "\u2581cpu": 2494,
      "ers": 2495,
      "ff": 2496,
      "tric": 2497,
      "spec": 2498,
      "six": 2499,
      "End": 2500,
      "\u2581prog": 2501,
      "Object": 2502,
      "struct": 2503,
      "metric": 2504,
      "calc": 2505,
      "parent": 2506,
      "98": 2507,
      "our": 2508,
      "matrix": 2509,
      "Inte": 2510,
      "FF": 2511,
      "LO": 2512,
      "\u2581seq": 2513,
      "lement": 2514,
      "rate": 2515,
      "break": 2516,
      "Array": 2517,
      "Op": 2518,
      "sync": 2519,
      "\u2581allocate": 2520,
      "\u2581false": 2521,
      "Pi": 2522,
      "fp": 2523,
      "Ntk": 2524,
      "\u2581li": 2525,
      "prop": 2526,
      "ield": 2527,
      "post": 2528,
      "iter": 2529,
      "\u2581spin": 2530,
      "fr": 2531,
      "ugin": 2532,
      "imate": 2533,
      "\u2581TestPartResult": 2534,
      "jo": 2535,
      "Integer": 2536,
      "modify": 2537,
      "\u2581prefetch": 2538,
      "aff": 2539,
      "qual": 2540,
      "oft": 2541,
      "avail": 2542,
      "any": 2543,
      "first": 2544,
      "switch": 2545,
      "http": 2546,
      "ING": 2547,
      "70": 2548,
      "\u2581data": 2549,
      "war": 2550,
      "\u2581host": 2551,
      "\u2581al": 2552,
      "etails": 2553,
      "listen": 2554,
      "\u2581getnsecs": 2555,
      "\u2581mac": 2556,
      "\u2581>>=": 2557,
      "\u2581db": 2558,
      "form": 2559,
      "iable": 2560,
      "ove": 2561,
      "request": 2562,
      "\u2581ptrace": 2563,
      "Create": 2564,
      "cover": 2565,
      "ference": 2566,
      "fic": 2567,
      "\u2581random": 2568,
      "\u2581kvp": 2569,
      "olsr": 2570,
      "\u2581soft": 2571,
      "Message": 2572,
      "estimate": 2573,
      "\u2581rt": 2574,
      "\u2581TestInfo": 2575,
      "Fix": 2576,
      "cat": 2577,
      "\u2581dp": 2578,
      "MP": 2579,
      "\u2581olsr": 2580,
      "\u2581rl": 2581,
      "\u2581signal": 2582,
      "sip": 2583,
      "ery": 2584,
      "poll": 2585,
      "Frame": 2586,
      "Find": 2587,
      "ew": 2588,
      "viron": 2589,
      "disable": 2590,
      "\u2581bind": 2591,
      "\u2581system": 2592,
      "ummy": 2593,
      "\u2581strcasecmp": 2594,
      "mat": 2595,
      "\u2581config": 2596,
      "slab": 2597,
      "ctory": 2598,
      "\u2581timerlist": 2599,
      "UN": 2600,
      "\u2581softfloat": 2601,
      "88": 2602,
      "\u2581wpabuf": 2603,
      "ists": 2604,
      "Attr": 2605,
      "play": 2606,
      "Byte": 2607,
      "Current": 2608,
      "arser": 2609,
      "\u2581name": 2610,
      "Impl": 2611,
      "\u2581strstr": 2612,
      "\u2581count": 2613,
      "frame": 2614,
      "\u2581gettext": 2615,
      "\u2581cur": 2616,
      "arget": 2617,
      "TRACE": 2618,
      "\u2581temp": 2619,
      "cu": 2620,
      "lin": 2621,
      "12": 2622,
      "He": 2623,
      "\u2581nullradio": 2624,
      "\u2581Ab": 2625,
      "Char": 2626,
      "Count": 2627,
      "\u2581thread": 2628,
      "chunk": 2629,
      "_32": 2630,
      "\u2581di": 2631,
      "\u2581Init": 2632,
      "\u2581mk": 2633,
      "\u2581Basic": 2634,
      "\u2581module": 2635,
      "fac": 2636,
      "domain": 2637,
      "ches": 2638,
      "limit": 2639,
      "\u2581LC": 2640,
      "Ut": 2641,
      "ho": 2642,
      "\u2581aren": 2643,
      "ynam": 2644,
      "\u2581end": 2645,
      "UG": 2646,
      "\u2581SSL": 2647,
      "lic": 2648,
      "\u2581exp": 2649,
      "Time": 2650,
      "iled": 2651,
      "strdup": 2652,
      "fence": 2653,
      "NO": 2654,
      "ssize": 2655,
      "nection": 2656,
      "ource": 2657,
      "8_": 2658,
      "depth": 2659,
      "ynamic": 2660,
      "alias": 2661,
      "STR": 2662,
      "\u2581memmove": 2663,
      "uple": 2664,
      "\u2581sql": 2665,
      "rtmetric": 2666,
      "vern": 2667,
      "Deque": 2668,
      "vironment": 2669,
      "\u2581ERR": 2670,
      "ony": 2671,
      "socket": 2672,
      "\u2581PTRACE": 2673,
      "facility": 2674,
      "ipher": 2675,
      "main": 2676,
      "release": 2677,
      "mous": 2678,
      "onymous": 2679,
      "attribute": 2680,
      "nl": 2681,
      "indow": 2682,
      "\u2581bit": 2683,
      "\u2581adns": 2684,
      "Tuple": 2685,
      "sockopt": 2686,
      "\u2581gpg": 2687,
      "ith": 2688,
      "\u2581func": 2689,
      "acc": 2690,
      "\u2581gen": 2691,
      "fy": 2692,
      "\u2581hwpoison": 2693,
      "exec": 2694,
      "default": 2695,
      "\u2581channel": 2696,
      "object": 2697,
      "client": 2698,
      "stract": 2699,
      "signal": 2700,
      "pass": 2701,
      "ilter": 2702,
      "\u2581AcpiUt": 2703,
      "options": 2704,
      "sign": 2705,
      "esh": 2706,
      "lass": 2707,
      "pect": 2708,
      "\u2581secs": 2709,
      "Caller": 2710,
      "mq": 2711,
      "\u2581wps": 2712,
      "\u2581gEfiCaller": 2713,
      "validate": 2714,
      "\u2581prefetchnta": 2715,
      "realloc": 2716,
      "\u2581sqlite": 2717,
      "receive": 2718,
      "compress": 2719,
      "ager": 2720,
      "memcpy": 2721,
      "die": 2722,
      "args": 2723,
      "_8_": 2724,
      "kernel": 2725,
      "\u2581timetable": 2726,
      "\u2581qsort": 2727,
      "\u2581Environment": 2728,
      "ema": 2729,
      "Details": 2730,
      "cre": 2731,
      "\u2581MPI": 2732,
      "discover": 2733,
      "msr": 2734,
      "\u2581verbose": 2735,
      "\u2581type": 2736,
      "Ap": 2737,
      "BaseName": 2738,
      "\u2581Abstract": 2739,
      "\u2581MAS": 2740,
      "\u2581SHL": 2741,
      "\u2581SHLBYTE": 2742,
      "day": 2743,
      "\u2581modules": 2744,
      "\u2581call": 2745,
      "\u2581ks": 2746,
      "\u2581Cudd": 2747,
      "Strings": 2748,
      "\u2581walk": 2749,
      "_37": 2750,
      "uto": 2751,
      "verse": 2752,
      "\u2581HIBYTE": 2753,
      "irq": 2754,
      "\u2581sscanf": 2755,
      "\u2581clear": 2756,
      "tqueue": 2757,
      "plugin": 2758,
      "trol": 2759,
      "device": 2760,
      "\u2581iommu": 2761,
      "\u2581Is": 2762,
      "breakpoint": 2763,
      "og": 2764,
      "uth": 2765,
      "\u2581Node": 2766,
      "\u2581arena": 2767,
      "\u2581gpgme": 2768,
      "Hel": 2769,
      "ide": 2770,
      "\u2581packetqueue": 2771,
      "38": 2772,
      "Man": 2773,
      "Line": 2774,
      "\u2581HIWORD": 2775,
      "hread": 2776,
      "\u2581sk": 2777,
      "\u2581BasicBlock": 2778,
      "chema": 2779,
      "\u2581prop": 2780,
      "\u2581addr": 2781,
      "errs": 2782,
      "alig": 2783,
      "vi": 2784,
      "mil": 2785,
      "Sp": 2786,
      "\u2581timeval": 2787,
      "\u2581Tr": 2788,
      "acer": 2789,
      "\u2581strtoul": 2790,
      "\u2581term": 2791,
      "eno": 2792,
      "xml": 2793,
      "\u2581osip": 2794,
      "\u2581In": 2795,
      "\u2581TestDetails": 2796,
      "oped": 2797,
      "Inter": 2798,
      "\u2581unlink": 2799,
      "Schema": 2800,
      "gcov": 2801,
      "ux": 2802,
      "\u2581cmdline": 2803,
      "\u2581sort": 2804,
      "\u2581stbi": 2805,
      "igrate": 2806,
      "tract": 2807,
      "exists": 2808,
      "\u2581crc": 2809,
      "pm": 2810,
      "mily": 2811,
      "getc": 2812,
      "ParseTuple": 2813,
      "unch": 2814,
      "gram": 2815,
      "STRING": 2816,
      "\u2581PyArg": 2817,
      "\u2581zconfin": 2818,
      "anup": 2819,
      "31": 2820,
      "21": 2821,
      "\u2581Gen": 2822,
      "ostream": 2823,
      "class": 2824,
      "\u2581queued": 2825,
      "connect": 2826,
      "\u2581vir": 2827,
      "BS": 2828,
      "expect": 2829,
      "ops": 2830,
      "afe": 2831,
      "sl": 2832,
      "cel": 2833,
      "Report": 2834,
      "ader": 2835,
      "ilk": 2836,
      "Ch": 2837,
      "status": 2838,
      "SetError": 2839,
      "gt": 2840,
      "\u2581setsockopt": 2841,
      "\u2581lseek": 2842,
      "ialized": 2843,
      "cd": 2844,
      "eof": 2845,
      "\u2581fputs": 2846,
      "\u2581seqan": 2847,
      "Silk": 2848,
      "begin": 2849,
      "family": 2850,
      "Helper": 2851,
      "_41": 2852,
      "stamp": 2853,
      "shift": 2854,
      "last": 2855,
      "\u2581ai": 2856,
      "govern": 2857,
      "Reg": 2858,
      "adow": 2859,
      "broadcast": 2860,
      "service": 2861,
      "root": 2862,
      "\u2581decode": 2863,
      "\u2581socklen": 2864,
      "hdrptr": 2865,
      "\u2581sr": 2866,
      "umask": 2867,
      "Failure": 2868,
      "Check": 2869,
      "ont": 2870,
      "78": 2871,
      "agment": 2872,
      "\u2581dl": 2873,
      "\u2581start": 2874,
      "34": 2875,
      "attributes": 2876,
      "Dis": 2877,
      "cntl": 2878,
      "order": 2879,
      "Token": 2880,
      "rotocolSchema": 2881,
      "_29": 2882,
      "Tracer": 2883,
      "pack": 2884,
      "\u2581LockTracer": 2885,
      "\u2581rw": 2886,
      "\u2581sched": 2887,
      "unicast": 2888,
      "\u2581short": 2889,
      "\u2581Set": 2890,
      "\u2581no": 2891,
      "lags": 2892,
      "PP": 2893,
      "\u2581trans": 2894,
      "Bo": 2895,
      "nerrs": 2896,
      "\u2581zconfnerrs": 2897,
      "\u2581ProtocolSchema": 2898,
      "dy": 2899,
      "available": 2900,
      "Bit": 2901,
      "Sub": 2902,
      "locks": 2903,
      "setup": 2904,
      "_38": 2905,
      "State": 2906,
      "\u2581icl": 2907,
      "\u2581eval": 2908,
      "gate": 2909,
      "over": 2910,
      "_610": 2911,
      "sd": 2912,
      "\u2581BUG": 2913,
      "\u2581push": 2914,
      "_25": 2915,
      "lineno": 2916,
      "US": 2917,
      "cancel": 2918,
      "For": 2919,
      "\u2581fseek": 2920,
      "\u2581htonl": 2921,
      "\u2581wrap": 2922,
      "Lock": 2923,
      "Len": 2924,
      "warned": 2925,
      "als": 2926,
      "gbl": 2927,
      "yes": 2928,
      "\u2581Vec": 2929,
      "\u2581bb": 2930,
      "Look": 2931,
      "sched": 2932,
      "\u2581stdin": 2933,
      "eq": 2934,
      "cont": 2935,
      "\u2581virtqueue": 2936,
      "Next": 2937,
      "ofday": 2938,
      "tify": 2939,
      "uty": 2940,
      "cmpgt": 2941,
      "color": 2942,
      "ax": 2943,
      "timeofday": 2944,
      "ian": 2945,
      "\u2581Value": 2946,
      "BLE": 2947,
      "ency": 2948,
      "sure": 2949,
      "zma": 2950,
      "\u2581load": 2951,
      "mpt": 2952,
      "\u2581Var": 2953,
      "utycycle": 2954,
      "DOU": 2955,
      "DOUBLE": 2956,
      "pf": 2957,
      "ctr": 2958,
      "\u2581poll": 2959,
      "\u2581ostream": 2960,
      "usage": 2961,
      "IS": 2962,
      "\u2581md": 2963,
      "Graph": 2964,
      "tests": 2965,
      "00": 2966,
      "\u2581block": 2967,
      "lower": 2968,
      "\u2581asprintf": 2969,
      "pagesize": 2970,
      "Update": 2971,
      "Destroy": 2972,
      "rname": 2973,
      "cipher": 2974,
      "\u2581Sh": 2975,
      "\u2581total": 2976,
      "Tree": 2977,
      "ED": 2978,
      "ssi": 2979,
      "\u2581Trace": 2980,
      "\u2581Red": 2981,
      "New": 2982,
      "expi": 2983,
      "\u2581fcntl": 2984,
      "loop": 2985,
      "pool": 2986,
      "work": 2987,
      "imer": 2988,
      "\u2581dummy": 2989,
      "\u2581runicast": 2990,
      "iod": 2991,
      "\u2581gbl": 2992,
      "Pro": 2993,
      "\u2581SDL": 2994,
      "wr": 2995,
      "nown": 2996,
      "\u2581rad": 2997,
      "shell": 2998,
      "owercycle": 2999,
      "rwlock": 3000,
      "509_": 3001,
      "inate": 3002,
      "pos": 3003,
      "\u2581aes": 3004,
      "\u2581BIO": 3005,
      "\u2581dutycycle": 3006,
      "\u2581server": 3007,
      "rome": 3008,
      "tific": 3009,
      "ape": 3010,
      "deps": 3011,
      "tran": 3012,
      "route": 3013,
      "\u2581strtol": 3014,
      "locked": 3015,
      "\u2581strtok": 3016,
      "\u2581mfn": 3017,
      "cfg": 3018,
      "save": 3019,
      "synd": 3020,
      "syndrome": 3021,
      "nout": 3022,
      "59": 3023,
      "Pool": 3024,
      "result": 3025,
      "_42": 3026,
      "omic": 3027,
      "chang": 3028,
      "ulate": 3029,
      "Memory": 3030,
      "\u2581sleep": 3031,
      "uccess": 3032,
      "\u2581mat": 3033,
      "dire": 3034,
      "\u2581hvm": 3035,
      "DC": 3036,
      "fanout": 3037,
      "Ser": 3038,
      "\u2581posix": 3039,
      "hard": 3040,
      "NativeInteger": 3041,
      "tem": 3042,
      "face": 3043,
      "\u2581gf": 3044,
      "strerror": 3045,
      "Func": 3046,
      "channel": 3047,
      "\u2581getopt": 3048,
      "5_": 3049,
      "sample": 3050,
      "\u2581vm": 3051,
      "\u2581Mem": 3052,
      "proc": 3053,
      "\u2581ipolite": 3054,
      "\u2581stunicast": 3055,
      "Ac": 3056,
      "verify": 3057,
      "\u2581local": 3058,
      "\u2581resol": 3059,
      "spon": 3060,
      "ME": 3061,
      "fill": 3062,
      "\u2581Read": 3063,
      "discovery": 3064,
      "irectory": 3065,
      "\u2581Lzma": 3066,
      "\u2581zconfalloc": 3067,
      "elim": 3068,
      "\u2581Print": 3069,
      "WN": 3070,
      "\u2581Add": 3071,
      "\u2581SDM": 3072,
      "Os": 3073,
      "version": 3074,
      "join": 3075,
      "ench": 3076,
      "seals": 3077,
      "eliminate": 3078,
      "Element": 3079,
      "\u2581stats": 3080,
      "\u2581strr": 3081,
      "\u2581ker": 3082,
      "\u2581state": 3083,
      "iff": 3084,
      "NOWN": 3085,
      "quit": 3086,
      "\u2581cpumask": 3087,
      "build": 3088,
      "Record": 3089,
      "dx": 3090,
      "\u2581Con": 3091,
      "\u2581be": 3092,
      "\u2581var": 3093,
      "\u2581index": 3094,
      "body": 3095,
      "Card": 3096,
      "PC": 3097,
      "pthread": 3098,
      "barrier": 3099,
      "\u2581ll": 3100,
      "ped": 3101,
      "jmp": 3102,
      "ErrorType": 3103,
      "ument": 3104,
      "Hash": 3105,
      "sponse": 3106,
      "\u2581bench": 3107,
      "\u2581HawkMsg": 3108,
      "rel": 3109,
      "\u2581pfn": 3110,
      "\u2581DIR": 3111,
      "down": 3112,
      "uint": 3113,
      "\u2581EV": 3114,
      "\u2581getpid": 3115,
      "24": 3116,
      "rb": 3117,
      "\u2581cfs": 3118,
      "\u2581gettimeofday": 3119,
      "rd": 3120,
      "Mutex": 3121,
      "Convert": 3122,
      "CT": 3123,
      "\u2581getpagesize": 3124,
      "yp": 3125,
      "ware": 3126,
      "\u2581DebugPrint": 3127,
      "\u2581insert": 3128,
      "Format": 3129,
      "atic": 3130,
      "files": 3131,
      "short": 3132,
      "\u2581fill": 3133,
      "curname": 3134,
      "Val": 3135,
      "TO": 3136,
      "query": 3137,
      "\u2581vfprintf": 3138,
      "\u2581ir": 3139,
      "uce": 3140,
      "rx": 3141,
      "Task": 3142,
      "\u2581scsi": 3143,
      "expr": 3144,
      "\u2581encode": 3145,
      "resh": 3146,
      "\u2581TraceInfo": 3147,
      "entity": 3148,
      "26": 3149,
      "Enc": 3150,
      "_30": 3151,
      "Attribute": 3152,
      "Device": 3153,
      "Fixture": 3154,
      "\u2581it": 3155,
      "system": 3156,
      "Reset": 3157,
      "lib": 3158,
      "ocket": 3159,
      "Allocator": 3160,
      "ickle": 3161,
      "\u2581mpc": 3162,
      "\u2581target": 3163,
      "ms": 3164,
      "gg": 3165,
      "\u2581bbcp": 3166,
      "mb": 3167,
      "sw": 3168,
      "byteswap": 3169,
      "ld": 3170,
      "\u2581GTest": 3171,
      "Shell": 3172,
      "hdralloc": 3173,
      "queued": 3174,
      "ssimp": 3175,
      "_28": 3176,
      "aunch": 3177,
      "ole": 3178,
      "timestamp": 3179,
      "\u2581St": 3180,
      "\u2581ntohl": 3181,
      "\u2581Current": 3182,
      "enerate": 3183,
      "AD": 3184,
      "\u2581fork": 3185,
      "\u2581kernel": 3186,
      "pare": 3187,
      "pop": 3188,
      "shared": 3189,
      "\u2581EVP": 3190,
      "_27": 3191,
      "lay": 3192,
      "_16_": 3193,
      "Num": 3194,
      "context": 3195,
      "\u2581tcpip": 3196,
      "tern": 3197,
      "child": 3198,
      "\u2581rootmenu": 3199,
      "ulti": 3200,
      "enc": 3201,
      "\u2581bsearch": 3202,
      "\u2581xmalloc": 3203,
      "Results": 3204,
      "\u2581Assimp": 3205,
      "\u2581vsnprintf": 3206,
      "rs": 3207,
      "\u2581TI": 3208,
      "even": 3209,
      "Mode": 3210,
      "wd": 3211,
      "\u2581fm": 3212,
      "Guid": 3213,
      "CD": 3214,
      "ii": 3215,
      "group": 3216,
      "\u2581launch": 3217,
      "\u2581raw": 3218,
      "failed": 3219,
      "ius": 3220,
      "plit": 3221,
      "Const": 3222,
      "sed": 3223,
      "make": 3224,
      "Index": 3225,
      "Trans": 3226,
      "sscanf": 3227,
      "\u2581pix": 3228,
      "tification": 3229,
      "resol": 3230,
      "\u2581gp": 3231,
      "cxa": 3232,
      "\u2581LockGraph": 3233,
      "ave": 3234,
      "frequ": 3235,
      "\u2581HawkMsgListener": 3236,
      "27": 3237,
      "\u2581stbroadcast": 3238,
      "\u2581Net": 3239,
      "ready": 3240,
      "emap": 3241,
      "\u2581node": 3242,
      "\u2581lj": 3243,
      "\u2581BN": 3244,
      "ank": 3245,
      "\u2581benchmark": 3246,
      "\u2581CR": 3247,
      "expired": 3248,
      "ggle": 3249,
      "session": 3250,
      "within": 3251,
      "activ": 3252,
      "\u2581command": 3253,
      "\u2581exec": 3254,
      "cn": 3255,
      "warn": 3256,
      "\u2581observer": 3257,
      "\u2581pt": 3258,
      "strlen": 3259,
      "prefetch": 3260,
      "apic": 3261,
      "\u2581reloc": 3262,
      "OC": 3263,
      "erase": 3264,
      "\u2581gBS": 3265,
      "sighandler": 3266,
      "_6075": 3267,
      "\u2581turn": 3268,
      "rep": 3269,
      "\u2581wl": 3270,
      "pel": 3271,
      "callbacks": 3272,
      "\u2581bc": 3273,
      "isra": 3274,
      "\u2581field": 3275,
      "SetErrorMsg": 3276,
      "\u2581fp": 3277,
      "Equal": 3278,
      "\u2581regexec": 3279,
      "Exception": 3280,
      "attern": 3281,
      "\u2581pg": 3282,
      "tries": 3283,
      "ected": 3284,
      "\u2581cache": 3285,
      "ids": 3286,
      "tb": 3287,
      "Level": 3288,
      "\u2581radius": 3289,
      "nsors": 3290,
      "Protocol": 3291,
      "tail": 3292,
      "\u2581FilePath": 3293,
      "transmit": 3294,
      "crement": 3295,
      "eneric": 3296,
      "Reporter": 3297,
      "ef": 3298,
      "\u2581Int": 3299,
      "\u2581uci": 3300,
      "iommu": 3301,
      "\u2581resolv": 3302,
      "\u2581dup": 3303,
      "Lookback": 3304,
      "oid": 3305,
      "Map": 3306,
      "\u2581abc": 3307,
      "gfexp": 3308,
      "sizes": 3309,
      "\u2581connect": 3310,
      "left": 3311,
      "quo": 3312,
      "Iter": 3313,
      "\u2581profile": 3314,
      "control": 3315,
      "prefix": 3316,
      "strto": 3317,
      "\u2581TR": 3318,
      "\u2581syscall": 3319,
      "_47": 3320,
      "_66": 3321,
      "etach": 3322,
      "usercall": 3323,
      "ict": 3324,
      "way": 3325,
      "CON": 3326,
      "\u2581Tcl": 3327,
      "\u2581rp": 3328,
      "Sy": 3329,
      "\u2581dns": 3330,
      "With": 3331,
      "eval": 3332,
      "EN": 3333,
      "\u2581IO": 3334,
      "\u2581serial": 3335,
      "lone": 3336,
      "affected": 3337,
      "128_": 3338,
      "ueue": 3339,
      "\u2581polite": 3340,
      "\u2581futex": 3341,
      "_44": 3342,
      "Counter": 3343,
      "otification": 3344,
      "olph": 3345,
      "\u2581rud": 3346,
      "\u2581rudolph": 3347,
      "_606": 3348,
      "conds": 3349,
      "pdx": 3350,
      "\u2581ne": 3351,
      "uper": 3352,
      "\u2581append": 3353,
      "MA": 3354,
      "fscanf": 3355,
      "\u2581format": 3356,
      "def": 3357,
      "\u2581fl": 3358,
      "events": 3359,
      "sql": 3360,
      "\u2581on": 3361,
      "ior": 3362,
      "\u2581verify": 3363,
      "\u2581TIFF": 3364,
      "Finder": 3365,
      "timeout": 3366,
      "uration": 3367,
      "pages": 3368,
      "bail": 3369,
      "\u2581bpf": 3370,
      "YP": 3371,
      "bcfg": 3372,
      "\u2581lString": 3373,
      "connection": 3374,
      "\u2581rename": 3375,
      "\u2581List": 3376,
      "source": 3377,
      "\u2581table": 3378,
      "\u2581dirent": 3379,
      "18": 3380,
      "\u2581expand": 3381,
      "visi": 3382,
      "Col": 3383,
      "not": 3384,
      "ios": 3385,
      "eter": 3386,
      "\u2581unix": 3387,
      "inal": 3388,
      "mote": 3389,
      "14": 3390,
      "sition": 3391,
      "\u2581rbcfg": 3392,
      "\u2581sigaction": 3393,
      "\u2581ctime": 3394,
      "\u2581semop": 3395,
      "\u2581namespace": 3396,
      "andler": 3397,
      "tokenname": 3398,
      "xer": 3399,
      "\u2581array": 3400,
      "migrate": 3401,
      "hardware": 3402,
      "Run": 3403,
      "YPTO": 3404,
      "dl": 3405,
      "\u2581atomic": 3406,
      "\u2581anonymous": 3407,
      "auth": 3408,
      "ntop": 3409,
      "option": 3410,
      "internal": 3411,
      "As": 3412,
      "random": 3413,
      "ingPi": 3414,
      "odd": 3415,
      "sor": 3416,
      "found": 3417,
      "\u2581ring": 3418,
      "\u2581SHA": 3419,
      "\u2581wir": 3420,
      "\u2581wiringPi": 3421,
      "mc": 3422,
      "RV": 3423,
      "Dele": 3424,
      "Space": 3425,
      "Pre": 3426,
      "57": 3427,
      "loader": 3428,
      "relocs": 3429,
      "_32_": 3430,
      "\u2581tc": 3431,
      "ta": 3432,
      "\u2581th": 3433,
      "\u2581CRYPTO": 3434,
      "Number": 3435,
      "fpu": 3436,
      "Item": 3437,
      "recv": 3438,
      "\u2581je": 3439,
      "restart": 3440,
      "Of": 3441,
      "\u2581stream": 3442,
      "\u2581CurrentTest": 3443,
      "flg": 3444,
      "uff": 3445,
      "\u2581mcount": 3446,
      "\u2581big": 3447,
      "idth": 3448,
      "\u2581build": 3449,
      "ypto": 3450,
      "\u2581fr": 3451,
      "we": 3452,
      "swap": 3453,
      "TP": 3454,
      "fmt": 3455,
      "\u2581or": 3456,
      "Command": 3457,
      "ivate": 3458,
      "unregister": 3459,
      "\u2581shadow": 3460,
      "\u2581mpi": 3461,
      "\u2581ntohs": 3462,
      "_46": 3463,
      "LI": 3464,
      "oper": 3465,
      "Param": 3466,
      "active": 3467,
      "reduce": 3468,
      "aligned": 3469,
      "Delegate": 3470,
      "\u2581destroy": 3471,
      "non": 3472,
      "\u2581pag": 3473,
      "_611": 3474,
      "wind": 3475,
      "emove": 3476,
      "\u2581readd": 3477,
      "mage": 3478,
      "Qu": 3479,
      "sq": 3480,
      "Comm": 3481,
      "\u2581wchar": 3482,
      "FramePP": 3483,
      "\u2581readdir": 3484,
      "Stack": 3485,
      "\u2581rpl": 3486,
      "\u2581mo": 3487,
      "imm": 3488,
      "fined": 3489,
      "notify": 3490,
      "ly": 3491,
      "right": 3492,
      "testShell": 3493,
      "\u2581initialized": 3494,
      "pending": 3495,
      "\u2581zmq": 3496,
      "\u2581zalloc": 3497,
      "\u2581xml": 3498,
      "hod": 3499,
      "ensure": 3500,
      "\u2581isc": 3501,
      "\u2581udp": 3502,
      "success": 3503,
      "\u2581Exception": 3504,
      "Pcd": 3505,
      "\u2581ff": 3506,
      "\u2581id": 3507,
      "\u2581Event": 3508,
      "enabled": 3509,
      "\u2581leds": 3510,
      "AR": 3511,
      "par": 3512,
      "AN": 3513,
      "\u2581listen": 3514,
      "REA": 3515,
      "calloc": 3516,
      "\u2581closedir": 3517,
      "\u2581mutex": 3518,
      "_43": 3519,
      "\u2581<<=": 3520,
      "\u2581matches": 3521,
      "ISOR": 3522,
      "YPERV": 3523,
      "\u2581HYPERV": 3524,
      "\u2581HYPERVISOR": 3525,
      "Expr": 3526,
      "App": 3527,
      "trap": 3528,
      "\u2581sha": 3529,
      "\u2581iw": 3530,
      "hook": 3531,
      "\u2581tlsv": 3532,
      "\u2581Dynamic": 3533,
      "qpel": 3534,
      "2__": 3535,
      "\u2581Co": 3536,
      "inj": 3537,
      "prompt": 3538,
      "Cont": 3539,
      "til": 3540,
      "Socket": 3541,
      "\u2581mp": 3542,
      "inc": 3543,
      "Identity": 3544,
      "optT": 3545,
      "\u2581rtnl": 3546,
      "\u2581UtestShell": 3547,
      "ner": 3548,
      "cleanup": 3549,
      "\u2581compute": 3550,
      "\u2581Memory": 3551,
      "slabs": 3552,
      "Handle": 3553,
      "Struct": 3554,
      "\u2581opend": 3555,
      "encrypt": 3556,
      "13": 3557,
      "lot": 3558,
      "quest": 3559,
      "ish": 3560,
      "\u2581cmp": 3561,
      "place": 3562,
      "\u2581Check": 3563,
      "access": 3564,
      "cnf": 3565,
      "\u2581hashname": 3566,
      "\u2581cpv": 3567,
      "\u2581mode": 3568,
      "INT": 3569,
      "\u2581opendir": 3570,
      "gent": 3571,
      "\u2581MD": 3572,
      "\u2581PyErr": 3573,
      "lf": 3574,
      "\u2581Auto": 3575,
      "ings": 3576,
      "Thread": 3577,
      "\u2581hdr": 3578,
      "\u2581match": 3579,
      "ocab": 3580,
      "\u2581restore": 3581,
      "ning": 3582,
      "onent": 3583,
      "cvt": 3584,
      "\u2581filter": 3585,
      "iction": 3586,
      "Lib": 3587,
      "gest": 3588,
      "Tp": 3589,
      "\u2581ksft": 3590,
      "ctrl": 3591,
      "23": 3592,
      "\u2581bam": 3593,
      "fopen": 3594,
      "entries": 3595,
      "AF": 3596,
      "Point": 3597,
      "gment": 3598,
      "atchFinder": 3599,
      "pageflags": 3600,
      "gi": 3601,
      "\u2581Directory": 3602,
      "curr": 3603,
      "\u2581AutoPtr": 3604,
      "response": 3605,
      "guest": 3606,
      "86": 3607,
      "igit": 3608,
      "\u2581stack": 3609,
      "Ref": 3610,
      "\u2581calc": 3611,
      "ipe": 3612,
      "Void": 3613,
      "CA": 3614,
      "ingle": 3615,
      "ctx": 3616,
      "niter": 3617,
      "\u2581dest": 3618,
      "\u2581dbg": 3619,
      "assertion": 3620,
      "na": 3621,
      "RG": 3622,
      "mis": 3623,
      "Text": 3624,
      "54": 3625,
      "ension": 3626,
      "Instruction": 3627,
      "\u2581tcache": 3628,
      "clk": 3629,
      "Encode": 3630,
      "istory": 3631,
      "Manager": 3632,
      "iz": 3633,
      "Debug": 3634,
      "\u2581osl": 3635,
      "PtrAnd": 3636,
      "inity": 3637,
      "quoted": 3638,
      "256_": 3639,
      "\u2581Copy": 3640,
      "Module": 3641,
      "pfn": 3642,
      "\u2581Al": 3643,
      "Header": 3644,
      "\u2581task": 3645,
      "\u2581select": 3646,
      "\u2581checked": 3647,
      "pix": 3648,
      "\u2581swap": 3649,
      "termin": 3650,
      "Ver": 3651,
      "gfmul": 3652,
      "\u2581begin": 3653,
      "TET": 3654,
      "ssl": 3655,
      "\u2581del": 3656,
      "Ad": 3657,
      "\u2581alloca": 3658,
      "Status": 3659,
      "\u2581wor": 3660,
      "errup": 3661,
      "idx": 3662,
      "shm": 3663,
      "big": 3664,
      "\u2581class": 3665,
      "keep": 3666,
      "\u2581agent": 3667,
      "\u2581timespec": 3668,
      "affs": 3669,
      "ution": 3670,
      "aux": 3671,
      "mfence": 3672,
      "\u2581HawkApp": 3673,
      "lstring": 3674,
      "card": 3675,
      "\u2581fscanf": 3676,
      "Printf": 3677,
      "\u2581scoped": 3678,
      "\u2581kbuffer": 3679,
      "NC": 3680,
      "\u2581sizeof": 3681,
      "42": 3682,
      "Fact": 3683,
      "\u2581Release": 3684,
      "chars": 3685,
      "uare": 3686,
      "\u2581man": 3687,
      "regex": 3688,
      "mov": 3689,
      "Queue": 3690,
      "Encoder": 3691,
      "\u2581pagemap": 3692,
      "done": 3693,
      "\u2581pci": 3694,
      "throw": 3695,
      "mi": 3696,
      "\u2581perf": 3697,
      "syscall": 3698,
      "used": 3699,
      "label": 3700,
      "box": 3701,
      "AP": 3702,
      "bi": 3703,
      "hest": 3704,
      "limits": 3705,
      "defined": 3706,
      "BB": 3707,
      "\u2581key": 3708,
      "Output": 3709,
      "\u2581avio": 3710,
      "Own": 3711,
      "\u2581BDD": 3712,
      "cvtsi": 3713,
      "\u2581bzero": 3714,
      "Copy": 3715,
      "\u2581tpm": 3716,
      "SH": 3717,
      "\u2581rimestats": 3718,
      "Page": 3719,
      "\u2581trickle": 3720,
      "ses": 3721,
      "_49": 3722,
      "OCTET": 3723,
      "\u2581Free": 3724,
      "\u2581mesh": 3725,
      "\u2581so": 3726,
      "Length": 3727,
      "\u2581waiting": 3728,
      "\u2581SHI": 3729,
      "backward": 3730,
      "\u2581pop": 3731,
      "\u2581pack": 3732,
      "\u2581Shared": 3733,
      "\u2581we": 3734,
      "testing": 3735,
      "Mesh": 3736,
      "enable": 3737,
      "Long": 3738,
      "sysfs": 3739,
      "endian": 3740,
      "\u2581toggle": 3741,
      "sky": 3742,
      "desc": 3743,
      "oly": 3744,
      "SON": 3745,
      "\u2581pow": 3746,
      "older": 3747,
      "aint": 3748,
      "\u2581register": 3749,
      "\u2581mt": 3750,
      "mach": 3751,
      "putstr": 3752,
      "operation": 3753,
      "hton": 3754,
      "task": 3755,
      "\u2581use": 3756,
      "mary": 3757,
      "interval": 3758,
      "\u2581fs": 3759,
      "CONT": 3760,
      "\u2581barrier": 3761,
      "machine": 3762,
      "extract": 3763,
      "nbr": 3764,
      "Component": 3765,
      "pression": 3766,
      "governor": 3767,
      "\u2581addrinfo": 3768,
      "params": 3769,
      "ition": 3770,
      "ai": 3771,
      "gz": 3772,
      "ized": 3773,
      "\u2581TestResults": 3774,
      "ulong": 3775,
      "iodic": 3776,
      "Bytes": 3777,
      "affinity": 3778,
      "rec": 3779,
      "It": 3780,
      "bd": 3781,
      "\u2581HawkObj": 3782,
      "\u2581sin": 3783,
      "hwpoison": 3784,
      "\u2581rlim": 3785,
      "ighest": 3786,
      "\u2581Sc": 3787,
      "Right": 3788,
      "\u2581emit": 3789,
      "mmap": 3790,
      "module": 3791,
      "Per": 3792,
      "idget": 3793,
      "Handler": 3794,
      "\u2581first": 3795,
      "\u2581multi": 3796,
      "wf": 3797,
      "ROL": 3798,
      "\u2581ios": 3799,
      "\u2581bclk": 3800,
      "\u2581kill": 3801,
      "\u2581sensors": 3802,
      "grow": 3803,
      "Decoder": 3804,
      "ark": 3805,
      "\u2581ircc": 3806,
      "expand": 3807,
      "ell": 3808,
      "Fan": 3809,
      "igger": 3810,
      "Delete": 3811,
      "\u2581ge": 3812,
      "\u2581rec": 3813,
      "\u2581Reference": 3814,
      "\u2581save": 3815,
      "Pointer": 3816,
      "rink": 3817,
      "Policy": 3818,
      "detail": 3819,
      "\u2581SharedPtr": 3820,
      "ak": 3821,
      "changed": 3822,
      "tls": 3823,
      "upper": 3824,
      "filename": 3825,
      "tsd": 3826,
      "Iterator": 3827,
      "section": 3828,
      "Cmd": 3829,
      "ivsky": 3830,
      "rapivsky": 3831,
      "\u2581skip": 3832,
      "\u2581frame": 3833,
      "Or": 3834,
      "\u2581sigset": 3835,
      "\u2581rdi": 3836,
      "\u2581krapivsky": 3837,
      "tex": 3838,
      "iority": 3839,
      "\u2581crypto": 3840,
      "track": 3841,
      "\u2581bl": 3842,
      "chksum": 3843,
      "EE": 3844,
      "ding": 3845,
      "checksum": 3846,
      "\u2581pl": 3847,
      "sets": 3848,
      "stringstream": 3849,
      "\u2581relocs": 3850,
      "apd": 3851,
      "Inst": 3852,
      "ases": 3853,
      "\u2581GTestLog": 3854,
      "\u2581all": 3855,
      "gov": 3856,
      "crc": 3857,
      "\u2581qmemcpy": 3858,
      "\u2581ReleasePolicy": 3859,
      "\u2581sim": 3860,
      "\u2581AcpiG": 3861,
      "\u2581constr": 3862,
      "\u2581AcpiGbl": 3863,
      "\u2581zconffree": 3864,
      "\u2581zconfensure": 3865,
      "arp": 3866,
      "ES": 3867,
      "known": 3868,
      "\u2581xode": 3869,
      "\u2581irrAllocator": 3870,
      "\u2581sq": 3871,
      "ret": 3872,
      "ants": 3873,
      "pen": 3874,
      "6_2": 3875,
      "\u2581kh": 3876,
      "pixel": 3877,
      "watch": 3878,
      "quire": 3879,
      "\u2581Alloc": 3880,
      "56": 3881,
      "\u2581bcf": 3882,
      "symbols": 3883,
      "enti": 3884,
      "hy": 3885,
      "ale": 3886,
      "PtrAndOwn": 3887,
      "ConvertPtrAndOwn": 3888,
      "ody": 3889,
      "chain": 3890,
      "lice": 3891,
      "\u2581AcpiOs": 3892,
      "\u2581orc": 3893,
      "44": 3894,
      "\u2581exception": 3895,
      "PA": 3896,
      "drv": 3897,
      "nack": 3898,
      "select": 3899,
      "\u2581rootEntry": 3900,
      "PER": 3901,
      "\u2581receive": 3902,
      "FO": 3903,
      "finv": 3904,
      "funcs": 3905,
      "gfinv": 3906,
      "ictionary": 3907,
      "dups": 3908,
      "Dyn": 3909,
      "\u2581draw": 3910,
      "cap": 3911,
      "width": 3912,
      "\u2581AS": 3913,
      "\u2581curr": 3914,
      "xit": 3915,
      "\u2581cgi": 3916,
      "serve": 3917,
      "\u2581vocab": 3918,
      "secs": 3919,
      "\u2581bots": 3920,
      "\u2581Notification": 3921,
      "pic": 3922,
      "Flags": 3923,
      "flo": 3924,
      "fragment": 3925,
      "Body": 3926,
      "37": 3927,
      "\u2581Err": 3928,
      "\u2581nas": 3929,
      "\u2581safe": 3930,
      "52": 3931,
      "\u2581Format": 3932,
      "\u2581seek": 3933,
      "Group": 3934,
      "08": 3935,
      "\u2581xfree": 3936,
      "\u2581mm": 3937,
      "\u2581deque": 3938,
      "Ro": 3939,
      "tell": 3940,
      "askvalue": 3941,
      "toa": 3942,
      "\u2581old": 3943,
      "sfence": 3944,
      "compare": 3945,
      "record": 3946,
      "Ext": 3947,
      "unp": 3948,
      "Factory": 3949,
      "emp": 3950,
      "\u2581iio": 3951,
      "Vol": 3952,
      "\u2581abs": 3953,
      "\u2581construct": 3954,
      "\u2581lookup": 3955,
      "inte": 3956,
      "REAL": 3957,
      "\u2581hostapd": 3958,
      "ular": 3959,
      "\u2581Write": 3960,
      "ination": 3961,
      "cene": 3962,
      "TestCase": 3963,
      "\u2581avg": 3964,
      "acro": 3965,
      "TestResult": 3966,
      "\u2581Sig": 3967,
      "ded": 3968,
      "ope": 3969,
      "None": 3970,
      "\u2581go": 3971,
      "Dict": 3972,
      "hdrreduce": 3973,
      "Empty": 3974,
      "encies": 3975,
      "sha": 3976,
      "\u2581compare": 3977,
      "coding": 3978,
      "\u2581dep": 3979,
      "NoneStruct": 3980,
      "\u2581tolower": 3981,
      "PO": 3982,
      "\u2581worker": 3983,
      "Input": 3984,
      "namespace": 3985,
      "\u2581Str": 3986,
      "\u2581fds": 3987,
      "Shift": 3988,
      "dec": 3989,
      "man": 3990,
      "osc": 3991,
      "Core": 3992,
      "ose": 3993,
      "shal": 3994,
      "\u2581ref": 3995,
      "\u2581highest": 3996,
      "Loc": 3997,
      "_64": 3998,
      "\u2581window": 3999,
      "Config": 4000,
      "\u2581Internal": 4001,
      "\u2581pattern": 4002,
      "alive": 4003,
      "ferred": 4004,
      "tive": 4005,
      "\u2581client": 4006,
      "\u2581nlmsg": 4007,
      "Interlocked": 4008,
      "arm": 4009,
      "\u2581Un": 4010,
      "river": 4011,
      "ProtocolGuid": 4012,
      "hold": 4013,
      "\u2581logRecord": 4014,
      "ains": 4015,
      "Class": 4016,
      "\u2581mysql": 4017,
      "Open": 4018,
      "Filter": 4019,
      "seconds": 4020,
      "\u2581hdrptr": 4021,
      "Pos": 4022,
      "constants": 4023,
      "PAIR": 4024,
      "\u2581fragment": 4025,
      "\u2581dsk": 4026,
      "35": 4027,
      "anonymous": 4028,
      "received": 4029,
      "oop": 4030,
      "\u2581flags": 4031,
      "ROR": 4032,
      "addrinfo": 4033,
      "ob": 4034,
      "flow": 4035,
      "agg": 4036,
      "Trace": 4037,
      "inode": 4038,
      "sive": 4039,
      "\u2581user": 4040,
      "\u2581bin": 4041,
      "unpck": 4042,
      "No": 4043,
      "udit": 4044,
      "eg": 4045,
      "assign": 4046,
      "orted": 4047,
      "\u2581eloop": 4048,
      "ee": 4049,
      "\u2581psock": 4050,
      "\u2581shmctl": 4051,
      "\u2581MatchFinder": 4052,
      "96": 4053,
      "mlAttribute": 4054,
      "regate": 4055,
      "\u2581ringbuf": 4056,
      "\u2581mos": 4057,
      "\u2581Error": 4058,
      "\u2581hex": 4059,
      "prote": 4060,
      "aliases": 4061,
      "\u2581srand": 4062,
      "istr": 4063,
      "wake": 4064,
      "yaffs": 4065,
      "\u2581pipe": 4066,
      "\u2581search": 4067,
      "\u2581Scoped": 4068,
      "\u2581min": 4069,
      "frequencies": 4070,
      "\u2581Log": 4071,
      "\u2581kpageflags": 4072,
      "governors": 4073,
      "terminate": 4074,
      "\u2581encounter": 4075,
      "announcement": 4076,
      "edge": 4077,
      "\u2581ARG": 4078,
      "Dec": 4079,
      "ced": 4080,
      "\u2581vmx": 4081,
      "Build": 4082,
      "\u2581neighbor": 4083,
      "vmas": 4084,
      "increment": 4085,
      "prev": 4086,
      "Close": 4087,
      "\u2581scan": 4088,
      "Do": 4089,
      "inst": 4090,
      "\u2581ext": 4091,
      "\u2581IN": 4092,
      "\u2581lib": 4093,
      "\u2581strbuf": 4094,
      "\u2581ru": 4095,
      "attrs": 4096,
      "\u2581scene": 4097,
      "\u2581UnitTestImpl": 4098,
      "04": 4099,
      "rsdp": 4100,
      "aggregate": 4101,
      "att": 4102,
      "leon": 4103,
      "ameleon": 4104,
      "related": 4105,
      "ea": 4106,
      "\u2581kvm": 4107,
      "res": 4108,
      "pipe": 4109,
      "helper": 4110,
      "values": 4111,
      "\u2581empty": 4112,
      "total": 4113,
      "\u2581AcpiD": 4114,
      "\u2581usleep": 4115,
      "RI": 4116,
      "real": 4117,
      "program": 4118,
      "schedule": 4119,
      "\u2581mpiPi": 4120,
      "temp": 4121,
      "\u2581HT": 4122,
      "Flag": 4123,
      "full": 4124,
      "PU": 4125,
      "\u2581SL": 4126,
      "dynamic": 4127,
      "\u2581HawkAppObj": 4128,
      "tom": 4129,
      "\u2581ARGTYPE": 4130,
      "strn": 4131,
      "Global": 4132,
      "Th": 4133,
      "_2_": 4134,
      "Exit": 4135,
      "\u2581chameleon": 4136,
      "\u2581regfree": 4137,
      "integer": 4138,
      "\u2581bitmap": 4139,
      "DB": 4140,
      "\u2581length": 4141,
      "ramm": 4142,
      "wo": 4143,
      "arge": 4144,
      "pred": 4145,
      "visible": 4146,
      "\u2581alias": 4147,
      "AL": 4148,
      "\u2581Parse": 4149,
      "andoc": 4150,
      "IL": 4151,
      "\u2581strrchr": 4152,
      "gzf": 4153,
      "DS": 4154,
      "report": 4155,
      "just": 4156,
      "\u2581statfs": 4157,
      "lem": 4158,
      "element": 4159,
      "\u2581feof": 4160,
      "\u2581Ch": 4161,
      "parser": 4162,
      "\u2581mandoc": 4163,
      "By": 4164,
      "\u2581lockdep": 4165,
      "\u2581timed": 4166,
      "\u2581periodic": 4167,
      "51": 4168,
      "\u2581mdoc": 4169,
      "ObjFan": 4170,
      "clu": 4171,
      "rammar": 4172,
      "marshal": 4173,
      "idle": 4174,
      "bittest": 4175,
      "atab": 4176,
      "keepalive": 4177,
      "\u2581sf": 4178,
      "\u2581boot": 4179,
      "aper": 4180,
      "Final": 4181,
      "Constant": 4182,
      "\u2581bgzf": 4183,
      "Addr": 4184,
      "Max": 4185,
      "split": 4186,
      "show": 4187,
      "uffle": 4188,
      "iffer": 4189,
      "\u2581HawkObjBase": 4190,
      "\u2581rap": 4191,
      "acing": 4192,
      "ffset": 4193,
      "getpc": 4194,
      "copyto": 4195,
      "\u2581topo": 4196,
      "\u2581waitpid": 4197,
      "53": 4198,
      "Function": 4199,
      "su": 4200,
      "unlocked": 4201,
      "global": 4202,
      "WA": 4203,
      "Util": 4204,
      "flood": 4205,
      "keys": 4206,
      "\u2581strip": 4207,
      "ga": 4208,
      "\u2581display": 4209,
      "ause": 4210,
      "\u2581Thread": 4211,
      "counters": 4212,
      "\u2581netflood": 4213,
      "17": 4214,
      "conv": 4215,
      "\u2581date": 4216,
      "udd": 4217,
      "large": 4218,
      "\u2581cl": 4219,
      "world": 4220,
      "accept": 4221,
      "\u2581LzmaEnc": 4222,
      "\u2581car": 4223,
      "reply": 4224,
      "activity": 4225,
      "\u2581attributes": 4226,
      "CB": 4227,
      "strings": 4228,
      "UL": 4229,
      "\u2581wr": 4230,
      "ateg": 4231,
      "Ind": 4232,
      "ading": 4233,
      "\u2581cle": 4234,
      "\u2581compower": 4235,
      "reverse": 4236,
      "straint": 4237,
      "ideo": 4238,
      "\u2581vmov": 4239,
      "protect": 4240,
      "94": 4241,
      "Remove": 4242,
      "\u2581vring": 4243,
      "exchange": 4244,
      "vb": 4245,
      "\u2581iup": 4246,
      "constprop": 4247,
      "\u2581DD": 4248,
      "\u2581FT": 4249,
      "11_": 4250,
      "\u2581retransmit": 4251,
      "pk": 4252,
      "fine": 4253,
      "region": 4254,
      "Compare": 4255,
      "\u2581cfg": 4256,
      "OUT": 4257,
      "uni": 4258,
      "lnet": 4259,
      "\u2581SLO": 4260,
      "36": 4261,
      "\u2581prctl": 4262,
      "aliz": 4263,
      "finish": 4264,
      "pga": 4265,
      "miter": 4266,
      "htons": 4267,
      "\u2581this": 4268,
      "\u2581cb": 4269,
      "ise": 4270,
      "atabase": 4271,
      "\u2581shared": 4272,
      "\u2581strrcmp": 4273,
      "Word": 4274,
      "ntax": 4275,
      "\u2581xen": 4276,
      "\u2581STR": 4277,
      "sending": 4278,
      "\u2581store": 4279,
      "\u2581TE": 4280,
      "\u2581reset": 4281,
      "\u2581ps": 4282,
      "\u2581has": 4283,
      "\u2581OPER": 4284,
      "Pl": 4285,
      "\u2581depfile": 4286,
      "errupt": 4287,
      "Dir": 4288,
      "DU": 4289,
      "resolution": 4290,
      "\u2581xer": 4291,
      "fies": 4292,
      "iptr": 4293,
      "chn": 4294,
      "loor": 4295,
      "\u2581chk": 4296,
      "align": 4297,
      "graph": 4298,
      "\u2581powercycle": 4299,
      "FS": 4300,
      "\u2581token": 4301,
      "compute": 4302,
      "\u2581optind": 4303,
      "initialize": 4304,
      "now": 4305,
      "Gate": 4306,
      "\u2581accept": 4307,
      "FLO": 4308,
      "STAT": 4309,
      "json": 4310,
      "\u2581destination": 4311,
      "prog": 4312,
      "\u2581clone": 4313,
      "Cr": 4314,
      "Grammar": 4315,
      "\u2581sm": 4316,
      "\u2581nsecs": 4317,
      "cli": 4318,
      "ton": 4319,
      "\u2581SLODWORD": 4320,
      "upp": 4321,
      "points": 4322,
      "cedence": 4323,
      "\u2581RT": 4324,
      "zalloc": 4325,
      "fe": 4326,
      "\u2581emm": 4327,
      "CS": 4328,
      "\u2581fabs": 4329,
      "lowpass": 4330,
      "did": 4331,
      "rdc": 4332,
      "\u2581nullrdc": 4333,
      "Net": 4334,
      "\u2581some": 4335,
      "constant": 4336,
      "Head": 4337,
      "\u2581flush": 4338,
      "\u2581bignum": 4339,
      "conns": 4340,
      "Descriptor": 4341,
      "CF": 4342,
      "ceiver": 4343,
      "_50": 4344,
      "Red": 4345,
      "WAIT": 4346,
      "\u2581WORD": 4347,
      "\u2581lastport": 4348,
      "215": 4349,
      "\u2581mod": 4350,
      "Start": 4351,
      "Context": 4352,
      "athTest": 4353,
      "hop": 4354,
      "kip": 4355,
      "Field": 4356,
      "unpckl": 4357,
      "unction": 4358,
      "\u2581Range": 4359,
      "\u2581epoll": 4360,
      "\u2581prepare": 4361,
      "\u2581Wait": 4362,
      "\u2581someone": 4363,
      "siz": 4364,
      "peat": 4365,
      "Image": 4366,
      "33": 4367,
      "\u2581setup": 4368,
      "\u2581release": 4369,
      "gettime": 4370,
      "_55": 4371,
      "pair": 4372,
      "\u2581comm": 4373,
      "\u2581qu": 4374,
      "\u2581ener": 4375,
      "sist": 4376,
      "equal": 4377,
      "iffies": 4378,
      "FLOAT": 4379,
      "\u2581fstat": 4380,
      "STATUS": 4381,
      "Decode": 4382,
      "\u2581inflateEnd": 4383,
      "xpg": 4384,
      "streaming": 4385,
      "264_": 4386,
      "decrypt": 4387,
      "jiffies": 4388,
      "\u2581message": 4389,
      "warding": 4390,
      "mlElement": 4391,
      "eros": 4392,
      "uster": 4393,
      "ual": 4394,
      "putchar": 4395,
      "verbose": 4396,
      "\u2581dat": 4397,
      "\u2581eap": 4398,
      "\u2581fvec": 4399,
      "static": 4400,
      "\u2581deallocate": 4401,
      "inject": 4402,
      "\u2581inflateInit": 4403,
      "CDL": 4404,
      "diff": 4405,
      "safe": 4406,
      "Address": 4407,
      "Unit": 4408,
      "\u2581cond": 4409,
      "gettop": 4410,
      "\u2581floor": 4411,
      "ntoa": 4412,
      "\u2581voff": 4413,
      "strcmp": 4414,
      "wakeup": 4415,
      "complete": 4416,
      "\u2581dict": 4417,
      "80215": 4418,
      "mlString": 4419,
      "\u2581chunk": 4420,
      "pointer": 4421,
      "\u2581sqrt": 4422,
      "frames": 4423,
      "MAC": 4424,
      "verti": 4425,
      "ayload": 4426,
      "nodes": 4427,
      "\u2581cudd": 4428,
      "settop": 4429,
      "bot": 4430,
      "802154_": 4431,
      "units": 4432,
      "odv": 4433,
      "\u2581rel": 4434,
      "Append": 4435,
      "\u2581TEST": 4436,
      "\u2581chan": 4437,
      "pin": 4438,
      "\u2581Widget": 4439,
      "directory": 4440,
      "\u2581ASN": 4441,
      "uninit": 4442,
      "\u2581Po": 4443,
      "Action": 4444,
      "cted": 4445,
      "au": 4446,
      "Pack": 4447,
      "gre": 4448,
      "\u2581regcomp": 4449,
      "DevicePath": 4450,
      "variable": 4451,
      "sport": 4452,
      "ardown": 4453,
      "\u2581deflateEnd": 4454,
      "aut": 4455,
      "instruction": 4456,
      "\u2581mnt": 4457,
      "summary": 4458,
      "Release": 4459,
      "hexdump": 4460,
      "lex": 4461,
      "cursive": 4462,
      "\u2581energest": 4463,
      "tcp": 4464,
      "Timer": 4465,
      "\u2581graph": 4466,
      "Database": 4467,
      "vt": 4468,
      "Dump": 4469,
      "mon": 4470,
      "\u2581telnet": 4471,
      "\u2581fdarray": 4472,
      "scii": 4473,
      "\u2581hmac": 4474,
      "\u2581SHIDWORD": 4475,
      "Send": 4476,
      "UMP": 4477,
      "aster": 4478,
      "GetDict": 4479,
      "\u2581Array": 4480,
      "plugins": 4481,
      "atexit": 4482,
      "secp": 4483,
      "UMPOUT": 4484,
      "cursor": 4485,
      "emptyset": 4486,
      "mfn": 4487,
      "patch": 4488,
      "\u2581multihop": 4489,
      "anti": 4490,
      "\u2581hashtab": 4491,
      "\u2581code": 4492,
      "Push": 4493,
      "_6073": 4494,
      "EP": 4495,
      "\u2581rrep": 4496,
      "\u2581generate": 4497,
      "EY": 4498,
      "\u2581gl": 4499,
      "\u2581Unity": 4500,
      "pan": 4501,
      "ness": 4502,
      "abort": 4503,
      "BC": 4504,
      "reference": 4505,
      "Server": 4506,
      "SI": 4507,
      "EAM": 4508,
      "\u2581RTMP": 4509,
      "tot": 4510,
      "\u2581ed": 4511,
      "\u2581cos": 4512,
      "chunks": 4513,
      "mlNode": 4514,
      "pushvalue": 4515,
      "\u2581progress": 4516,
      "Sc": 4517,
      "\u2581convert": 4518,
      "\u2581ic": 4519,
      "tables": 4520,
      "\u2581mosquit": 4521,
      "bitmap": 4522,
      "\u2581guest": 4523,
      "\u2581recent": 4524,
      "\u2581variable": 4525,
      "EC": 4526,
      "\u2581PyModule": 4527,
      "Bits": 4528,
      "\u2581gethost": 4529,
      "72": 4530,
      "SY": 4531,
      "ping": 4532,
      "\u2581ua": 4533,
      "First": 4534,
      "\u2581pollfd": 4535,
      "\u2581SDMComponent": 4536,
      "UD": 4537,
      "swig": 4538,
      "\u2581uaodv": 4539,
      "\u2581Se": 4540,
      "shuffle": 4541,
      "imension": 4542,
      "pio": 4543,
      "\u2581Pro": 4544,
      "Allocate": 4545,
      "ports": 4546,
      "reason": 4547,
      "All": 4548,
      "rtimer": 4549,
      "\u2581buflen": 4550,
      "\u2581Function": 4551,
      "\u2581HawkGate": 4552,
      "bg": 4553,
      "\u2581Coll": 4554,
      "\u2581rtimer": 4555,
      "sole": 4556,
      "Driver": 4557,
      "arameter": 4558,
      "mult": 4559,
      "bump": 4560,
      "reshold": 4561,
      "Register": 4562,
      "\u2581eb": 4563,
      "Range": 4564,
      "rpc": 4565,
      "timers": 4566,
      "changable": 4567,
      "39": 4568,
      "byname": 4569,
      "15": 4570,
      "\u2581access": 4571,
      "wrap": 4572,
      "\u2581adv": 4573,
      "\u2581vx": 4574,
      "scape": 4575,
      "\u2581migrate": 4576,
      "\u2581Reg": 4577,
      "ainer": 4578,
      "ical": 4579,
      "\u2581fail": 4580,
      "\u2581as": 4581,
      "numa": 4582,
      "weight": 4583,
      "DF": 4584,
      "Macro": 4585,
      "inmemb": 4586,
      "ailed": 4587,
      "\u2581package": 4588,
      "\u2581hostent": 4589,
      "utdown": 4590,
      "autoc": 4591,
      "SetConstant": 4592,
      "\u2581inter": 4593,
      "pushstring": 4594,
      "tchn": 4595,
      "ifi": 4596,
      "USER": 4597,
      "\u2581pc": 4598,
      "otag": 4599,
      "actor": 4600,
      "swigconstant": 4601,
      "printk": 4602,
      "olean": 4603,
      "ync": 4604,
      "arameterized": 4605,
      "vcpu": 4606,
      "\u2581remote": 4607,
      "\u2581arp": 4608,
      "powercycle": 4609,
      "\u2581Parameterized": 4610,
      "\u2581Stream": 4611,
      "\u2581ist": 4612,
      "\u2581errbuf": 4613,
      "74": 4614,
      "BIT": 4615,
      "Query": 4616,
      "\u2581ferror": 4617,
      "mid": 4618,
      "bolic": 4619,
      "\u2581tmp": 4620,
      "DA": 4621,
      "anity": 4622,
      "Sec": 4623,
      "symbolic": 4624,
      "deinit": 4625,
      "Temp": 4626,
      "bind": 4627,
      "\u2581validate": 4628,
      "skip": 4629,
      "\u2581bad": 4630,
      "content": 4631,
      "mport": 4632,
      "url": 4633,
      "\u2581To": 4634,
      "\u2581dir": 4635,
      "otate": 4636,
      "\u2581res": 4637,
      "detach": 4638,
      "Offset": 4639,
      "asize": 4640,
      "maddr": 4641,
      "\u2581Dump": 4642,
      "\u2581OA": 4643,
      "\u2581apic": 4644,
      "SIG": 4645,
      "lector": 4646,
      "CL": 4647,
      "bu": 4648,
      "mmx": 4649,
      "Encoding": 4650,
      "rl": 4651,
      "Sim": 4652,
      "Observer": 4653,
      "zone": 4654,
      "\u2581avail": 4655,
      "vents": 4656,
      "\u2581strl": 4657,
      "\u2581fix": 4658,
      "inits": 4659,
      "Exchange": 4660,
      "initscan": 4661,
      "led": 4662,
      "\u2581omp": 4663,
      "71": 4664,
      "Fixed": 4665,
      "Arr": 4666,
      "Met": 4667,
      "image": 4668,
      "\u2581chdir": 4669,
      "ToString": 4670,
      "self": 4671,
      "\u2581force": 4672,
      "55": 4673,
      "div": 4674,
      "NA": 4675,
      "ear": 4676,
      "wt": 4677,
      "xy": 4678,
      "sid": 4679,
      "\u2581Signal": 4680,
      "generate": 4681,
      "\u2581inflateReset": 4682,
      "\u2581spe": 4683,
      "latency": 4684,
      "warf": 4685,
      "\u2581Create": 4686,
      "If": 4687,
      "peg": 4688,
      "binary": 4689,
      "Mat": 4690,
      "Loader": 4691,
      "trapped": 4692,
      "dict": 4693,
      "\u2581yyr": 4694,
      "\u2581STREAM": 4695,
      "_48": 4696,
      "\u2581pp": 4697,
      "\u2581cram": 4698,
      "fstring": 4699,
      "restore": 4700,
      "\u2581pid": 4701,
      "teardown": 4702,
      "slot": 4703,
      "totlen": 4704,
      "adverti": 4705,
      "\u2581istype": 4706,
      "Mult": 4707,
      "SA": 4708,
      "One": 4709,
      "\u2581amd": 4710,
      "\u2581opts": 4711,
      "autocon": 4712,
      "\u2581red": 4713,
      "\u2581ERROR": 4714,
      "99": 4715,
      "round": 4716,
      "Bl": 4717,
      "\u2581Channel": 4718,
      "wc": 4719,
      "\u2581ph": 4720,
      "Valid": 4721,
      "Variable": 4722,
      "autoconfig": 4723,
      "\u2581post": 4724,
      "\u2581Extra": 4725,
      "bus": 4726,
      "eap": 4727,
      "area": 4728,
      "igest": 4729,
      "errors": 4730,
      "Port": 4731,
      "\u2581nla": 4732,
      "Cache": 4733,
      "\u2581genl": 4734,
      "Insert": 4735,
      "82": 4736,
      "sibl": 4737,
      "\u2581par": 4738,
      "advertise": 4739,
      "let": 4740,
      "Double": 4741,
      "ations": 4742,
      "\u2581adler": 4743,
      "\u2581obj": 4744,
      "posix": 4745,
      "sume": 4746,
      "\u2581Lo": 4747,
      "Leading": 4748,
      "Proto": 4749,
      "Simple": 4750,
      "\u2581status": 4751,
      "hello": 4752,
      "anch": 4753,
      "private": 4754,
      "advertisement": 4755,
      "tm": 4756,
      "\u2581Sy": 4757,
      "abel": 4758,
      "ound": 4759,
      "\u2581sigemptyset": 4760,
      "ObjFanin": 4761,
      "Bin": 4762,
      "Br": 4763,
      "\u2581bump": 4764,
      "InfoBase": 4765,
      "strtolong": 4766,
      "TestCaseInfoBase": 4767,
      "gc": 4768,
      "det": 4769,
      "prio": 4770,
      "\u2581rdx": 4771,
      "\u2581wlu": 4772,
      "Client": 4773,
      "\u2581sendto": 4774,
      "\u2581DB": 4775,
      "_620": 4776,
      "\u2581sent": 4777,
      "uncate": 4778,
      "\u2581len": 4779,
      "share": 4780,
      "\u2581glob": 4781,
      "casecmp": 4782,
      "shiftRight": 4783,
      "watchpoints": 4784,
      "\u2581SB": 4785,
      "\u2581cli": 4786,
      "Holder": 4787,
      "hostaddr": 4788,
      "EF": 4789,
      "reen": 4790,
      "matches": 4791,
      "cert": 4792,
      "addrs": 4793,
      "unknown": 4794,
      "\u2581configuration": 4795,
      "fore": 4796,
      "\u2581des": 4797,
      "inflate": 4798,
      "\u2581rr": 4799,
      "\u2581fileno": 4800,
      "ram": 4801,
      "256": 4802,
      "\u2581FF": 4803,
      "deflate": 4804,
      "delay": 4805,
      "\u2581inip": 4806,
      "Printer": 4807,
      "\u2581iniparser": 4808,
      "pushfstring": 4809,
      "Ar": 4810,
      "UE": 4811,
      "vbuf": 4812,
      "\u2581gzclose": 4813,
      "\u2581elfloader": 4814,
      "alg": 4815,
      "sted": 4816,
      "simple": 4817,
      "\u2581scr": 4818,
      "Private": 4819,
      "acquire": 4820,
      "getattr": 4821,
      "case": 4822,
      "\u2581Run": 4823,
      "\u2581history": 4824,
      "\u2581back": 4825,
      "method": 4826,
      "\u2581sync": 4827,
      "Up": 4828,
      "shadow": 4829,
      "two": 4830,
      "andom": 4831,
      "square": 4832,
      "lection": 4833,
      "\u2581memory": 4834,
      "virt": 4835,
      "tual": 4836,
      "MF": 4837,
      "cq": 4838,
      "mtx": 4839,
      "\u2581ts": 4840,
      "\u2581LzmaDec": 4841,
      "rm": 4842,
      "strcpy": 4843,
      "91": 4844,
      "\u2581ds": 4845,
      "iword": 4846,
      "Load": 4847,
      "probe": 4848,
      "\u2581sanity": 4849,
      "Sq": 4850,
      "txt": 4851,
      "Shape": 4852,
      "\u2581slabs": 4853,
      "ny": 4854,
      "aml": 4855,
      "Control": 4856,
      "Window": 4857,
      "\u2581cpuid": 4858,
      "tick": 4859,
      "\u2581Tvb": 4860,
      "reader": 4861,
      "hite": 4862,
      "\u2581detach": 4863,
      "\u2581cpf": 4864,
      "shortShift": 4865,
      "fpga": 4866,
      "\u2581rio": 4867,
      "fprint": 4868,
      "modSub": 4869,
      "Leak": 4870,
      "layer": 4871,
      "proto": 4872,
      "warnings": 4873,
      "Resp": 4874,
      "step": 4875,
      "bound": 4876,
      "countLeading": 4877,
      "clude": 4878,
      "Ev": 4879,
      "Opt": 4880,
      "\u2581fold": 4881,
      "\u2581timeout": 4882,
      "22_": 4883,
      "blk": 4884,
      "batch": 4885,
      "samp": 4886,
      "finalize": 4887,
      "accum": 4888,
      "worker": 4889,
      "overhead": 4890,
      "\u2581FL": 4891,
      "frequency": 4892,
      "\u2581tpl": 4893,
      "dirty": 4894,
      "unnel": 4895,
      "\u2581Text": 4896,
      "neighbors": 4897,
      "seqno": 4898,
      "segment": 4899,
      "Ns": 4900,
      "\u2581mark": 4901,
      "\u2581cpSpace": 4902,
      "\u2581gi": 4903,
      "present": 4904,
      "bewf": 4905,
      "late": 4906,
      "\u2581libewf": 4907,
      "ATA": 4908,
      "fds": 4909,
      "_6074": 4910,
      "ther": 4911,
      "_36": 4912,
      "istance": 4913,
      "\u2581stimer": 4914,
      "resse": 4915,
      "pixels": 4916,
      "\u2581PM": 4917,
      "\u2581one": 4918,
      "window": 4919,
      "\u2581alarm": 4920,
      "_3959": 4921,
      "fat": 4922,
      "tiki": 4923,
      "\u2581fgetc": 4924,
      "\u2581redis": 4925,
      "sity": 4926,
      "\u2581avfilter": 4927,
      "Logger": 4928,
      "acter": 4929,
      "attach": 4930,
      "200": 4931,
      "\u2581gettsd": 4932,
      "\u2581sel": 4933,
      "threads": 4934,
      "irc": 4935,
      "Color": 4936,
      "aybe": 4937,
      "held": 4938,
      "CodeLine": 4939,
      "\u2581AddCodeLine": 4940,
      "\u2581TestFactory": 4941,
      "vmcs": 4942,
      "\u2581true": 4943,
      "single": 4944,
      "\u2581inode": 4945,
      "41": 4946,
      "\u2581Fn": 4947,
      "decoder": 4948,
      "\u2581enqueue": 4949,
      "CH": 4950,
      "ific": 4951,
      "\u2581luaM": 4952,
      "Accept": 4953,
      "\u2581names": 4954,
      "SIGN": 4955,
      "Packet": 4956,
      "pevent": 4957,
      "\u2581sec": 4958,
      "\u2581MR": 4959,
      "\u2581head": 4960,
      "76": 4961,
      "emu": 4962,
      "\u2581aliases": 4963,
      "anks": 4964,
      "\u2581Path": 4965,
      "\u2581zarray": 4966,
      "\u2581rbp": 4967,
      "\u2581Bind": 4968,
      "\u2581fstack": 4969,
      "scrib": 4970,
      "ioinit": 4971,
      "transition": 4972,
      "aptr": 4973,
      "\u2581NPC": 4974,
      "xstat": 4975,
      "unpack": 4976,
      "padd": 4977,
      "\u2581rucb": 4978,
      "\u2581TRInstruction": 4979,
      "pp": 4980,
      "dimension": 4981,
      "\u2581precedence": 4982,
      "\u2581dwarf": 4983,
      "\u2581Token": 4984,
      "SetString": 4985,
      "ln": 4986,
      "\u2581tracing": 4987,
      "Put": 4988,
      "peek": 4989,
      "Setup": 4990,
      "gfn": 4991,
      "\u2581luaD": 4992,
      "ializ": 4993,
      "Runner": 4994,
      "bility": 4995,
      "\u2581audit": 4996,
      "Price": 4997,
      "\u2581received": 4998,
      "\u2581chksum": 4999,
      "\u2581tra": 5000,
      "Request": 5001,
      "Common": 5002,
      "\u2581track": 5003,
      "bad": 5004,
      "Mask": 5005,
      "\u2581ymm": 5006,
      "remain": 5007,
      "Argument": 5008,
      "\u2581unyaffs": 5009,
      "hs": 5010,
      "sampler": 5011,
      "\u2581urg": 5012,
      "solute": 5013,
      "rect": 5014,
      "ending": 5015,
      "\u2581rotate": 5016,
      "writ": 5017,
      "\u2581act": 5018,
      "sitions": 5019,
      "\u2581rsi": 5020,
      "\u2581ftell": 5021,
      "payload": 5022,
      "itor": 5023,
      "\u2581static": 5024,
      "dequeue": 5025,
      "84": 5026,
      "remote": 5027,
      "uri": 5028,
      "Spec": 5029,
      "Malloc": 5030,
      "\u2581Lex": 5031,
      "\u2581sip": 5032,
      "Local": 5033,
      "resize": 5034,
      "\u2581returnError": 5035,
      "_128": 5036,
      "\u2581Find": 5037,
      "copyfrom": 5038,
      "\u2581schedule": 5039,
      "addressof": 5040,
      "LIST": 5041,
      "pton": 5042,
      "power": 5043,
      "\u2581zfree": 5044,
      "Process": 5045,
      "modMult": 5046,
      "\u2581WaitInfo": 5047,
      "4__": 5048,
      "\u2581move": 5049,
      "filters": 5050,
      "remaining": 5051,
      "Indic": 5052,
      "izer": 5053,
      "FileData": 5054,
      "\u2581sd": 5055,
      "site": 5056,
      "running": 5057,
      "ofp": 5058,
      "elem": 5059,
      "\u2581discard": 5060,
      "compact": 5061,
      "refresh": 5062,
      "\u2581Dk": 5063,
      "\u2581sv": 5064,
      "\u2581change": 5065,
      "\u2581contiki": 5066,
      "_31": 5067,
      "Interface": 5068,
      "LevelEnabled": 5069,
      "UDIT": 5070,
      "\u2581ssl": 5071,
      "cmdline": 5072,
      "functions": 5073,
      "asses": 5074,
      "seed": 5075,
      "uffix": 5076,
      "accumulate": 5077,
      "7_": 5078,
      "User": 5079,
      "DynArr": 5080,
      "pub": 5081,
      "\u2581val": 5082,
      "\u2581toupper": 5083,
      "22": 5084,
      "\u2581rx": 5085,
      "tings": 5086,
      "\u2581recov": 5087,
      "enqueue": 5088,
      "\u2581sysconf": 5089,
      "INFO": 5090,
      "\u2581gPcd": 5091,
      "deallocate": 5092,
      "\u2581Out": 5093,
      "aptrs": 5094,
      "System": 5095,
      "\u2581dataptrs": 5096,
      "SYNC": 5097,
      "ivial": 5098,
      "\u2581filename": 5099,
      "Construct": 5100,
      "\u2581MA": 5101,
      "fier": 5102,
      "\u2581apply": 5103,
      "\u2581mz": 5104,
      "clock": 5105,
      "sleep": 5106,
      "eynode": 5107,
      "frm": 5108,
      "\u2581qemu": 5109,
      "\u2581bufptr": 5110,
      "hd": 5111,
      "NAME": 5112,
      "\u2581bss": 5113,
      "03": 5114,
      "vy": 5115,
      "sb": 5116,
      "oct": 5117,
      "\u2581AUDIT": 5118,
      "\u2581unmap": 5119,
      "\u2581getchar": 5120,
      "\u2581extract": 5121,
      "tok": 5122,
      "\u2581rm": 5123,
      "erge": 5124,
      "ting": 5125,
      "multi": 5126,
      "MD": 5127,
      "\u2581PR": 5128,
      "atio": 5129,
      "ade": 5130,
      "\u2581LV": 5131,
      "\u2581uc": 5132,
      "pur": 5133,
      "seg": 5134,
      "dual": 5135,
      "scrip": 5136,
      "\u2581mkdir": 5137,
      "TEDS": 5138,
      "forget": 5139,
      "Form": 5140,
      "Root": 5141,
      "\u2581linkaddr": 5142,
      "On": 5143,
      "\u2581iError": 5144,
      "words": 5145,
      "\u2581path": 5146,
      "\u2581proc": 5147,
      "transitions": 5148,
      "ranges": 5149,
      "\u2581pv": 5150,
      "pause": 5151,
      "\u2581args": 5152,
      "Tok": 5153,
      "Method": 5154,
      "\u2581Blen": 5155,
      "\u2581cdr": 5156,
      "\u2581forwarding": 5157,
      "deref": 5158,
      "bufmem": 5159,
      "\u2581Blender": 5160,
      "\u2581refbufmem": 5161,
      "FC": 5162,
      "ogle": 5163,
      "verted": 5164,
      "IP": 5165,
      "ioctl": 5166,
      "volatile": 5167,
      "conversion": 5168,
      "\u2581sw": 5169,
      "\u2581ve": 5170,
      "SIGNED": 5171,
      "\u2581strtoull": 5172,
      "77": 5173,
      "nter": 5174,
      "\u2581sockt": 5175,
      "\u2581lo": 5176,
      "\u2581contikimac": 5177,
      "\u2581greg": 5178,
      "MacroData": 5179,
      "\u2581gr": 5180,
      "\u2581addattr": 5181,
      "_298": 5182,
      "Der": 5183,
      "formats": 5184,
      "\u2581GenFileData": 5185,
      "\u2581GenMacroData": 5186,
      "atrix": 5187,
      "\u2581pool": 5188,
      "_34": 5189,
      "phy": 5190,
      "\u2581runtime": 5191,
      "\u2581mosquitto": 5192,
      "ets": 5193,
      "vl": 5194,
      "160": 5195,
      "\u2581jo": 5196,
      "ubio": 5197,
      "\u2581SBYTE": 5198,
      "unpoison": 5199,
      "SHT": 5200,
      "\u2581outf": 5201,
      "shrink": 5202,
      "UNSIGNED": 5203,
      "Sig": 5204,
      "ocument": 5205,
      "_52": 5206,
      "optB": 5207,
      "Unsigned": 5208,
      "kick": 5209,
      "\u2581AcpiNs": 5210,
      "Last": 5211,
      "unted": 5212,
      "\u2581shor": 5213,
      "adjust": 5214,
      "Box": 5215,
      "hvm": 5216,
      "categ": 5217,
      "\u2581localtime": 5218,
      "inverted": 5219,
      "vma": 5220,
      "syslog": 5221,
      "\u2581matrix": 5222,
      "\u2581report": 5223,
      "angle": 5224,
      "ks": 5225,
      "adv": 5226,
      "atype": 5227,
      "\u2581xmac": 5228,
      "\u2581video": 5229,
      "tocol": 5230,
      "cluster": 5231,
      "dot": 5232,
      "\u2581vb": 5233,
      "rule": 5234,
      "bosity": 5235,
      "\u2581Close": 5236,
      "\u2581running": 5237,
      "\u2581Null": 5238,
      "constraint": 5239,
      "times": 5240,
      "\u2581rapl": 5241,
      "\u2581wrapper": 5242,
      "\u2581erase": 5243,
      "trlimit": 5244,
      "\u2581Deferred": 5245,
      "blocks": 5246,
      "AtBuild": 5247,
      "prepare": 5248,
      "FixedAtBuild": 5249,
      "scribe": 5250,
      "MeshFile": 5251,
      "pushnumber": 5252,
      "MeshFileLoader": 5253,
      "pkt": 5254,
      "scription": 5255,
      "Back": 5256,
      "peer": 5257,
      "licate": 5258,
      "FA": 5259,
      "\u2581delta": 5260,
      "mesh": 5261,
      "\u2581Send": 5262,
      "ignore": 5263,
      "\u2581ga": 5264,
      "\u2581semctl": 5265,
      "aes": 5266,
      "trivial": 5267,
      "pn": 5268,
      "efi": 5269,
      "kill": 5270,
      "syntax": 5271,
      "nr": 5272,
      "ipv": 5273,
      "\u2581ctl": 5274,
      "Default": 5275,
      "FD": 5276,
      "MIT": 5277,
      "dest": 5278,
      "\u2581deflateInit": 5279,
      "need": 5280,
      "BE": 5281,
      "\u2581seed": 5282,
      "ume": 5283,
      "\u2581sembuf": 5284,
      "\u2581HawkFile": 5285,
      "ialization": 5286,
      "Match": 5287,
      "\u2581HawkDatabase": 5288,
      "src": 5289,
      "\u2581gzopen": 5290,
      "21_": 5291,
      "iew": 5292,
      "Rep": 5293,
      "_4_": 5294,
      "Sort": 5295,
      "spin": 5296,
      "topts": 5297,
      "icode": 5298,
      "ircular": 5299,
      "Acceptor": 5300,
      "threshold": 5301,
      "\u2581pad": 5302,
      "\u2581HMAC": 5303,
      "\u2581probe": 5304,
      "hed": 5305,
      "ature": 5306,
      "\u2581New": 5307,
      "\u2581shortopts": 5308,
      "Cdev": 5309,
      "LIMIT": 5310,
      "tmp": 5311,
      "chan": 5312,
      "headers": 5313,
      "\u2581cc": 5314,
      "Clear": 5315,
      "\u2581cpBody": 5316,
      "isi": 5317,
      "\u2581dlg": 5318,
      "pager": 5319,
      "\u2581TRACE": 5320,
      "tur": 5321,
      "Float": 5322,
      "73": 5323,
      "disp": 5324,
      "\u2581try": 5325,
      "\u2581git": 5326,
      "memset": 5327,
      "\u2581help": 5328,
      "fwrite": 5329,
      "SS": 5330,
      "Sync": 5331,
      "Params": 5332,
      "hist": 5333,
      "iteral": 5334,
      "Service": 5335,
      "Sym": 5336,
      "\u2581Ivy": 5337,
      "\u2581hlock": 5338,
      "\u2581vtable": 5339,
      "bb": 5340,
      "small": 5341,
      "brk": 5342,
      "lua": 5343,
      "\u2581pw": 5344,
      "urity": 5345,
      "igital": 5346,
      "\u2581dictionary": 5347,
      "_526": 5348,
      "\u2581lseq": 5349,
      "\u2581Assert": 5350,
      "destruct": 5351,
      "pointers": 5352,
      "ins": 5353,
      "sect": 5354,
      "Reply": 5355,
      "fixed": 5356,
      "truncate": 5357,
      "Oct": 5358,
      "\u2581pred": 5359,
      "\u2581FileTask": 5360,
      "Disasm": 5361,
      "\u2581unlock": 5362,
      "\u2581traceevent": 5363,
      "tty": 5364,
      "ratio": 5365,
      "xen": 5366,
      "dbg": 5367,
      "room": 5368,
      "Prime": 5369,
      "final": 5370,
      "construct": 5371,
      "\u2581Sub": 5372,
      "95": 5373,
      "BA": 5374,
      "\u2581over": 5375,
      "ipaddr": 5376,
      "65": 5377,
      "\u2581testdev": 5378,
      "cred": 5379,
      "avp": 5380,
      "ushort": 5381,
      "\u2581Dat": 5382,
      "\u2581strncat": 5383,
      "\u2581auto": 5384,
      "\u2581valid": 5385,
      "registr": 5386,
      "\u2581getline": 5387,
      "uge": 5388,
      "mass": 5389,
      "\u2581xfrm": 5390,
      "inding": 5391,
      "\u2581Record": 5392,
      "hole": 5393,
      "\u2581CuCmd": 5394,
      "\u2581selector": 5395,
      "\u2581AssertHelper": 5396,
      "Be": 5397,
      "\u2581tree": 5398,
      "ramer": 5399,
      "fentry": 5400,
      "81": 5401,
      "Child": 5402,
      "\u2581framer": 5403,
      "ui": 5404,
      "DEB": 5405,
      "com": 5406,
      "\u2581disk": 5407,
      "EG": 5408,
      "stic": 5409,
      "purge": 5410,
      "\u2581Load": 5411,
      "\u2581Report": 5412,
      "\u2581google": 5413,
      "\u2581discardCard": 5414,
      "Del": 5415,
      "fork": 5416,
      "delta": 5417,
      "Cap": 5418,
      "nullmac": 5419,
      "\u2581csched": 5420,
      "HEA": 5421,
      "evtchn": 5422,
      "ents": 5423,
      "allow": 5424,
      "fname": 5425,
      "lig": 5426,
      "_400": 5427,
      "\u2581ivec": 5428,
      "\u2581nevents": 5429,
      "TestReporter": 5430,
      "\u2581dr": 5431,
      "_6212": 5432,
      "\u2581bi": 5433,
      "79": 5434,
      "\u2581LY": 5435,
      "\u2581mb": 5436,
      "\u2581siz": 5437,
      "\u2581Default": 5438,
      "ether": 5439,
      "75": 5440,
      "Version": 5441,
      "upported": 5442,
      "ND": 5443,
      "Short": 5444,
      "utton": 5445,
      "signals": 5446,
      "19": 5447,
      "\u2581Next": 5448,
      "\u2581ipc": 5449,
      "\u2581mot": 5450,
      "bigendian": 5451,
      "merge": 5452,
      "\u2581range": 5453,
      "\u2581roff": 5454,
      "\u2581warn": 5455,
      "\u2581mount": 5456,
      "trickle": 5457,
      "\u2581bufmem": 5458,
      "\u2581CuCommon": 5459,
      "ject": 5460,
      "stub": 5461,
      "forward": 5462,
      "encounter": 5463,
      "RT": 5464,
      "cog": 5465,
      "\u2581progname": 5466,
      "mk": 5467,
      "nom": 5468,
      "DEBUG": 5469,
      "\u2581Core": 5470,
      "arrays": 5471,
      "Segment": 5472,
      "listening": 5473,
      "46": 5474,
      "dh": 5475,
      "unit": 5476,
      "\u2581Remove": 5477,
      "\u2581wfa": 5478,
      "ObjIs": 5479,
      "\u2581Hash": 5480,
      "\u2581trigger": 5481,
      "bn": 5482,
      "Move": 5483,
      "hore": 5484,
      "\u2581Exp": 5485,
      "\u2581sizet": 5486,
      "gateway": 5487,
      "strtoul": 5488,
      "interface": 5489,
      "UnitTestResult": 5490,
      "misc": 5491,
      "orage": 5492,
      "display": 5493,
      "\u2581wiringPiMode": 5494,
      "DO": 5495,
      "ha": 5496,
      "\u2581sftp": 5497,
      "ProtoGrammar": 5498,
      "Proc": 5499,
      "\u2581gnt": 5500,
      "\u2581phase": 5501,
      "\u2581Fill": 5502,
      "\u2581zz": 5503,
      "Left": 5504,
      "\u2581SLP": 5505,
      "remap": 5506,
      "Source": 5507,
      "nomial": 5508,
      "\u2581tolua": 5509,
      "\u2581motSim": 5510,
      "\u2581simple": 5511,
      "olynomial": 5512,
      "SSL": 5513,
      "UR": 5514,
      "born": 5515,
      "\u2581request": 5516,
      "\u2581vex": 5517,
      "\u2581look": 5518,
      "Channel": 5519,
      "lst": 5520,
      "Seed": 5521,
      "banks": 5522,
      "bswap": 5523,
      "\u2581xTEDS": 5524,
      "gid": 5525,
      "stubborn": 5526,
      "ri": 5527,
      "\u2581adb": 5528,
      "\u2581port": 5529,
      "boolean": 5530,
      "bottom": 5531,
      "\u2581hello": 5532,
      "\u2581cleanup": 5533,
      "Link": 5534,
      "\u2581ter": 5535,
      "conne": 5536,
      "intel": 5537,
      "Cur": 5538,
      "sis": 5539,
      "readline": 5540,
      "Return": 5541,
      "finite": 5542,
      "collect": 5543,
      "contains": 5544,
      "eas": 5545,
      "Det": 5546,
      "ane": 5547,
      "dma": 5548,
      "\u2581cm": 5549,
      "FB": 5550,
      "MO": 5551,
      "arted": 5552,
      "direct": 5553,
      "\u2581RLIMIT": 5554,
      "\u2581recvfrom": 5555,
      "aton": 5556,
      "protocol": 5557,
      "802": 5558,
      "Period": 5559,
      "\u2581gethostbyname": 5560,
      "_6031": 5561,
      "interrupt": 5562,
      "AY": 5563,
      "Mod": 5564,
      "Generic": 5565,
      "\u2581hts": 5566,
      "clone": 5567,
      "\u2581longjmp": 5568,
      "Scan": 5569,
      "entic": 5570,
      "datapath": 5571,
      "imum": 5572,
      "verr": 5573,
      "eters": 5574,
      "\u2581Encog": 5575,
      "Md": 5576,
      "digit": 5577,
      "userdata": 5578,
      "LOC": 5579,
      "_145": 5580,
      "classes": 5581,
      "perform": 5582,
      "rmc": 5583,
      "\u2581power": 5584,
      "\u2581domain": 5585,
      "\u2581termios": 5586,
      "\u2581Variable": 5587,
      "\u2581compress": 5588,
      "bz": 5589,
      "hw": 5590,
      "\u2581esm": 5591,
      "irect": 5592,
      "urn": 5593,
      "Ascii": 5594,
      "Deref": 5595,
      "\u2581service": 5596,
      "\u2581af": 5597,
      "\u2581Process": 5598,
      "dt": 5599,
      "\u2581Cur": 5600,
      "generic": 5601,
      "\u2581strtoll": 5602,
      "\u2581checkpoint": 5603,
      "bar": 5604,
      "\u2581FA": 5605,
      "maybe": 5606,
      "visibility": 5607,
      "bcmp": 5608,
      "chop": 5609,
      "rawget": 5610,
      "Warning": 5611,
      "priority": 5612,
      "\u2581pdx": 5613,
      "PtrSize": 5614,
      "py": 5615,
      "ample": 5616,
      "arena": 5617,
      "ustom": 5618,
      "\u2581INIT": 5619,
      "\u2581slabinfo": 5620,
      "destruction": 5621,
      "CO": 5622,
      "\u2581svm": 5623,
      "Watch": 5624,
      "Octets": 5625,
      "iffers": 5626,
      "\u2581aliasinfo": 5627,
      "dso": 5628,
      "initialization": 5629,
      "\u2581ADD": 5630,
      "isode": 5631,
      "\u2581Fast": 5632,
      "\u2581program": 5633,
      "emer": 5634,
      "setfilter": 5635,
      "\u2581sniffers": 5636,
      "listenports": 5637,
      "\u2581sds": 5638,
      "adata": 5639,
      "\u2581full": 5640,
      "Square": 5641,
      "achine": 5642,
      "\u2581HawkOctets": 5643,
      "fifo": 5644,
      "86_": 5645,
      "SHA": 5646,
      "rev": 5647,
      "MME": 5648,
      "ffs": 5649,
      "rmcds": 5650,
      "\u2581yrmcds": 5651,
      "exi": 5652,
      "\u2581cy": 5653,
      "gfexi": 5654,
      "\u2581prev": 5655,
      "NOFILE": 5656,
      "\u2581safefree": 5657,
      "\u2581Obj": 5658,
      "unused": 5659,
      "\u2581shmget": 5660,
      "absolute": 5661,
      "\u2581timedout": 5662,
      "irqrestore": 5663,
      "62": 5664,
      "\u2581AMF": 5665,
      "\u2581from": 5666,
      "Internal": 5667,
      "nil": 5668,
      "slen": 5669,
      "acked": 5670,
      "HT": 5671,
      "optP": 5672,
      "erial": 5673,
      "hyper": 5674,
      "\u2581arch": 5675,
      "\u2581header": 5676,
      "\u2581libnet": 5677,
      "Connection": 5678,
      "drop": 5679,
      "_3957": 5680,
      "orian": 5681,
      "\u2581shrink": 5682,
      "cwd": 5683,
      "\u2581FLAC": 5684,
      "\u2581conn": 5685,
      "\u2581llist": 5686,
      "category": 5687,
      "sdt": 5688,
      "jump": 5689,
      "argument": 5690,
      "PEE": 5691,
      "Comple": 5692,
      "injector": 5693,
      "\u2581constant": 5694,
      "Hex": 5695,
      "Prod": 5696,
      "Dumper": 5697,
      "\u2581shmat": 5698,
      "\u2581QDumper": 5699,
      "\u2581kf": 5700,
      "_880": 5701,
      "only": 5702,
      "\u2581Open": 5703,
      "dc": 5704,
      "Tab": 5705,
      "Disk": 5706,
      "icmp": 5707,
      "modSquare": 5708,
      "Gen": 5709,
      "ere": 5710,
      "\u2581diff": 5711,
      "\u2581TSYNC": 5712,
      "reserve": 5713,
      "\u2581overflow": 5714,
      "bittestand": 5715,
      "\u2581ep": 5716,
      "\u2581FAIL": 5717,
      "\u2581gregorian": 5718,
      "rcv": 5719,
      "front": 5720,
      "\u2581luaO": 5721,
      "\u2581TextEncoding": 5722,
      "Lim": 5723,
      "\u2581LEP": 5724,
      "unref": 5725,
      "Cell": 5726,
      "\u2581req": 5727,
      "\u2581orcSHT": 5728,
      "CurrentTest": 5729,
      "gmp": 5730,
      "\u2581restorefs": 5731,
      "sem": 5732,
      "\u2581tb": 5733,
      "uninitialized": 5734,
      "\u2581Skip": 5735,
      "Reverse": 5736,
      "\u2581Network": 5737,
      "DeathTest": 5738,
      "EUSER": 5739,
      "NameIs": 5740,
      "breakpoints": 5741,
      "\u2581cx": 5742,
      "iple": 5743,
      "\u2581lin": 5744,
      "\u2581level": 5745,
      "antiator": 5746,
      "49": 5747,
      "ET": 5748,
      "dg": 5749,
      "\u2581nbr": 5750,
      "preload": 5751,
      "\u2581HawkGateway": 5752,
      "LB": 5753,
      "height": 5754,
      "replace": 5755,
      "\u2581execute": 5756,
      "setaffinity": 5757,
      "Io": 5758,
      "\u2581On": 5759,
      "congest": 5760,
      "unaligned": 5761,
      "sel": 5762,
      "\u2581CS": 5763,
      "Target": 5764,
      "rewind": 5765,
      "Pe": 5766,
      "oint": 5767,
      "turbo": 5768,
      "HEAD": 5769,
      "lent": 5770,
      "une": 5771,
      "\u2581top": 5772,
      "dummy": 5773,
      "\u2581dbgPrint": 5774,
      "tpv": 5775,
      "\u2581mmem": 5776,
      "\u2581stdscr": 5777,
      "MS": 5778,
      "\u2581fw": 5779,
      "direction": 5780,
      "apter": 5781,
      "\u2581cxmac": 5782,
      "rc": 5783,
      "dio": 5784,
      "zip": 5785,
      "tiv": 5786,
      "Area": 5787,
      "dnow": 5788,
      "ross": 5789,
      "verage": 5790,
      "\u2581rewind": 5791,
      "\u2581Program": 5792,
      "StatusExit": 5793,
      "rnd": 5794,
      "argv": 5795,
      "liers": 5796,
      "\u2581itti": 5797,
      "\u2581da": 5798,
      "ambd": 5799,
      "ayer": 5800,
      "ident": 5801,
      "\u2581locaddr": 5802,
      "UTR": 5803,
      "Transl": 5804,
      "Not": 5805,
      "iov": 5806,
      "\u2581mbuf": 5807,
      "datapacket": 5808,
      "\u2581Io": 5809,
      "second": 5810,
      "PtrError": 5811,
      "formation": 5812,
      "\u2581NullPtrError": 5813,
      "DI": 5814,
      "\u2581apr": 5815,
      "Vertex": 5816,
      "\u2581Polynomial": 5817,
      "algo": 5818,
      "tabs": 5819,
      "emeral": 5820,
      "Watcher": 5821,
      "congested": 5822,
      "parameter": 5823,
      "Notification": 5824,
      "boot": 5825,
      "\u2581eax": 5826,
      "\u2581sam": 5827,
      "ambda": 5828,
      "choose": 5829,
      "losure": 5830,
      "trigger": 5831,
      "Multi": 5832,
      "\u2581FastMutex": 5833,
      "\u2581vp": 5834,
      "_138": 5835,
      "\u2581tcset": 5836,
      "\u2581used": 5837,
      "CurrentTime": 5838,
      "yle": 5839,
      "6050": 5840,
      "\u2581eph": 5841,
      "\u2581Comp": 5842,
      "paren": 5843,
      "Reader": 5844,
      "valptr": 5845,
      "\u2581Allocate": 5846,
      "\u2581RangeEnc": 5847,
      "TH": 5848,
      "eyIs": 5849,
      "\u2581MPU": 5850,
      "strcat": 5851,
      "\u2581TestResult": 5852,
      "\u2581TestCaseNameIs": 5853,
      "win": 5854,
      "\u2581pa": 5855,
      "\u2581pe": 5856,
      "pose": 5857,
      "return": 5858,
      "\u2581Insert": 5859,
      "AND": 5860,
      "_228": 5861,
      "ally": 5862,
      "password": 5863,
      "codec": 5864,
      "Parser": 5865,
      "\u2581msgctl": 5866,
      "sappdata": 5867,
      "\u2581ephemeral": 5868,
      "SES": 5869,
      "\u2581AL": 5870,
      "octet": 5871,
      "hitespace": 5872,
      "Black": 5873,
      "algos": 5874,
      "intern": 5875,
      "\u2581tempo": 5876,
      "\u2581typeinfo": 5877,
      "asci": 5878,
      "\u2581BFS": 5879,
      "\u2581ewf": 5880,
      "OutStream": 5881,
      "EB": 5882,
      "MC": 5883,
      "emon": 5884,
      "walk": 5885,
      "acity": 5886,
      "\u2581bdrv": 5887,
      "online": 5888,
      "Success": 5889,
      "\u2581gzwrite": 5890,
      "Fl": 5891,
      "IOS": 5892,
      "\u2581Time": 5893,
      "target": 5894,
      "29": 5895,
      "CR": 5896,
      "gl": 5897,
      "eps": 5898,
      "\u2581vl": 5899,
      "instance": 5900,
      "kfree": 5901,
      "\u2581device": 5902,
      "\u2581NetServer": 5903,
      "\u2581strncasecmp": 5904,
      "snd": 5905,
      "\u2581ass": 5906,
      "\u2581define": 5907,
      "_33": 5908,
      "\u2581tsd": 5909,
      "loaded": 5910,
      "\u2581netdev": 5911,
      "outliers": 5912,
      "receiver": 5913,
      "\u2581AcpiOsPrintf": 5914,
      "\u2581HawkLogger": 5915,
      "branch": 5916,
      "history": 5917,
      "\u2581crunch": 5918,
      "\u2581Formatter": 5919,
      "getCurrentTime": 5920,
      "prob": 5921,
      "\u2581Rio": 5922,
      "AsVal": 5923,
      "raise": 5924,
      "\u2581gTemp": 5925,
      "\u2581Destroy": 5926,
      "\u2581TestRunner": 5927,
      "\u2581DirectoryEvent": 5928,
      "NUL": 5929,
      "\u2581sl": 5930,
      "\u2581CopyStr": 5931,
      "\u2581dh": 5932,
      "Volume": 5933,
      "ingReporter": 5934,
      "\u2581connection": 5935,
      "optC": 5936,
      "optW": 5937,
      "\u2581adj": 5938,
      "\u2581dev": 5939,
      "proxy": 5940,
      "\u2581tids": 5941,
      "itical": 5942,
      "\u2581khmer": 5943,
      "\u2581pindex": 5944,
      "\u2581Datatype": 5945,
      "\u2581zconfdebug": 5946,
      "Tail": 5947,
      "\u2581tracking": 5948,
      "\u2581initialize": 5949,
      "neg": 5950,
      "\u2581Any": 5951,
      "clean": 5952,
      "lines": 5953,
      "\u2581poison": 5954,
      "unmarshal": 5955,
      "\u2581ftruncate": 5956,
      "\u2581lab": 5957,
      "ability": 5958,
      "\u2581xmlrpc": 5959,
      "\u2581redzone": 5960,
      "transport": 5961,
      "awn": 5962,
      "term": 5963,
      "\u2581URI": 5964,
      "scope": 5965,
      "Search": 5966,
      "sensors": 5967,
      "hypercall": 5968,
      "FixtureTest": 5969,
      "\u2581app": 5970,
      "\u2581mtd": 5971,
      "rotate": 5972,
      "Label": 5973,
      "eflags": 5974,
      "\u2581RedOs": 5975,
      "GetNext": 5976,
      "bw": 5977,
      "Gtpv": 5978,
      "\u2581vcpu": 5979,
      "\u2581Timer": 5980,
      "\u2581gfmul": 5981,
      "\u2581freeaddrinfo": 5982,
      "\u2581tl": 5983,
      "\u2581stbir": 5984,
      "\u2581MemoryOutStream": 5985,
      "serial": 5986,
      "sibling": 5987,
      "\u2581result": 5988,
      "\u2581iau": 5989,
      "atial": 5990,
      "87": 5991,
      "Boot": 5992,
      "\u2581QCC": 5993,
      "iltin": 5994,
      "timed": 5995,
      "\u2581getcwd": 5996,
      "Instantiator": 5997,
      "draw": 5998,
      "\u2581assert": 5999,
      "\u2581cpMessage": 6000,
      "\u2581istream": 6001,
      "Translator": 6002,
      "\u2581lambda": 6003,
      "\u2581splice": 6004,
      "\u2581AN": 6005,
      "devices": 6006,
      "\u2581strhash": 6007,
      "Recursive": 6008,
      "\u2581Do": 6009,
      "Detector": 6010,
      "Has": 6011,
      "\u2581sum": 6012,
      "ASS": 6013,
      "\u2581fin": 6014,
      "\u2581genu": 6015,
      "Define": 6016,
      "export": 6017,
      "\u2581genuine": 6018,
      "vars": 6019,
      "\u2581done": 6020,
      "\u2581threads": 6021,
      "Di": 6022,
      "Pass": 6023,
      "encoder": 6024,
      "_54": 6025,
      "cvtp": 6026,
      "\u2581uade": 6027,
      "Callback": 6028,
      "\u2581value": 6029,
      "circular": 6030,
      "MutexLock": 6031,
      "_45": 6032,
      "\u2581src": 6033,
      "\u2581Make": 6034,
      "quence": 6035,
      "job": 6036,
      "2000": 6037,
      "cycles": 6038,
      "\u2581fwcache": 6039,
      "types": 6040,
      "mnt": 6041,
      "\u2581up": 6042,
      "iant": 6043,
      "idge": 6044,
      "meta": 6045,
      "\u2581fdt": 6046,
      "PtrEntry": 6047,
      "Reference": 6048,
      "910": 6049,
      "nch": 6050,
      "ool": 6051,
      "sing": 6052,
      "\u2581item": 6053,
      "\u2581zlib": 6054,
      "shutdown": 6055,
      "\u2581ixml": 6056,
      "netfile": 6057,
      "Container": 6058,
      "stdin": 6059,
      "Pci": 6060,
      "\u2581rreq": 6061,
      "Network": 6062,
      "network": 6063,
      "verride": 6064,
      "DR": 6065,
      "ru": 6066,
      "\u2581gc": 6067,
      "\u2581stop": 6068,
      "irqsave": 6069,
      "\u2581eprintf": 6070,
      "\u2581getaddrinfo": 6071,
      "47": 6072,
      "AA": 6073,
      "kg": 6074,
      "fns": 6075,
      "ioapic": 6076,
      "basename": 6077,
      "\u2581Details": 6078,
      "ToG": 6079,
      "eep": 6080,
      "inv": 6081,
      "\u2581iter": 6082,
      "\u2581evthread": 6083,
      "\u2581erasesize": 6084,
      "des": 6085,
      "\u2581Heap": 6086,
      "Random": 6087,
      "Wait": 6088,
      "gmpz": 6089,
      "\u2581Lib": 6090,
      "\u2581gResp": 6091,
      "Profile": 6092,
      "\u2581gRespStr": 6093,
      "\u2581pass": 6094,
      "unlink": 6095,
      "\u2581wrmsr": 6096,
      "\u2581describe": 6097,
      "\u2581live": 6098,
      "\u2581getCurrent": 6099,
      "\u2581mq": 6100,
      "\u2581mth": 6101,
      "role": 6102,
      "midl": 6103,
      "\u2581ptime": 6104,
      "tpacket": 6105,
      "\u2581mtherr": 6106,
      "\u2581Generic": 6107,
      "Exp": 6108,
      "Lookup": 6109,
      "rbtree": 6110,
      "Null": 6111,
      "\u2581aubio": 6112,
      "Production": 6113,
      "ia": 6114,
      "Option": 6115,
      "nested": 6116,
      "\u2581zhash": 6117,
      "mdt": 6118,
      "\u2581seqno": 6119,
      "\u2581tcsetattr": 6120,
      "\u2581MemoryLeak": 6121,
      "\u2581ScopedLock": 6122,
      "\u2581bu": 6123,
      "StreamBuf": 6124,
      "tim": 6125,
      "sequ": 6126,
      "\u2581usb": 6127,
      "MB": 6128,
      "util": 6129,
      "heard": 6130,
      "FrameRead": 6131,
      "udio": 6132,
      "\u2581gsl": 6133,
      "\u2581gpRed": 6134,
      "\u2581UTP": 6135,
      "\u2581osc": 6136,
      "ftime": 6137,
      "vail": 6138,
      "\u2581dlsym": 6139,
      "yale": 6140,
      "_607410": 6141,
      "lockdep": 6142,
      "\u2581Malloc": 6143,
      "unpacklo": 6144,
      "toggle": 6145,
      "inf": 6146,
      "sta": 6147,
      "\u2581TH": 6148,
      "mpeg": 6149,
      "_4480": 6150,
      "igits": 6151,
      "upport": 6152,
      "Globals": 6153,
      "\u2581TG": 6154,
      "_128_": 6155,
      "\u2581shim": 6156,
      "\u2581trim": 6157,
      "\u2581shmdt": 6158,
      "OS": 6159,
      "xp": 6160,
      "cbc": 6161,
      "\u2581bn": 6162,
      "FAD": 6163,
      "lap": 6164,
      "Norm": 6165,
      "nsor": 6166,
      "convert": 6167,
      "66": 6168,
      "clr": 6169,
      "comb": 6170,
      "\u2581non": 6171,
      "\u2581Exec": 6172,
      "Package": 6173,
      "\u2581enable": 6174,
      "\u2581det": 6175,
      "unique": 6176,
      "da": 6177,
      "nb": 6178,
      "echo": 6179,
      "ascii": 6180,
      "FileName": 6181,
      "\u2581Instruction": 6182,
      "FE": 6183,
      "after": 6184,
      "\u2581PASS": 6185,
      "reactor": 6186,
      "\u2581started": 6187,
      "\u2581liveness": 6188,
      "\u2581mon": 6189,
      "\u2581AcpiDs": 6190,
      "509": 6191,
      "hys": 6192,
      "6803": 6193,
      "bbnode": 6194,
      "gb": 6195,
      "nly": 6196,
      "too": 6197,
      "\u2581ss": 6198,
      "\u2581Base": 6199,
      "\u2581xmem": 6200,
      "PS": 6201,
      "vol": 6202,
      "agic": 6203,
      "\u2581deflateParams": 6204,
      "Only": 6205,
      "\u2581ALU": 6206,
      "ified": 6207,
      "\u2581DeathTest": 6208,
      "45": 6209,
      "wb": 6210,
      "mpul": 6211,
      "failure": 6212,
      "optional": 6213,
      "timestamps": 6214,
      "\u2581ProgramFail": 6215,
      "61": 6216,
      "92": 6217,
      "api": 6218,
      "\u2581ops": 6219,
      "smash": 6220,
      "\u2581announcements": 6221,
      "\u2581chr": 6222,
      "_2299": 6223,
      "\u2581ilog": 6224,
      "\u2581lsmash": 6225,
      "Dictionary": 6226,
      "anic": 6227,
      "Dna": 6228,
      "\u2581su": 6229,
      "Pair": 6230,
      "\u2581merge": 6231,
      "metadata": 6232,
      "useconds": 6233,
      "ala": 6234,
      "FADT": 6235,
      "year": 6236,
      "\u2581tbl": 6237,
      "Non": 6238,
      "priv": 6239,
      "tore": 6240,
      "\u2581sample": 6241,
      "drhd": 6242,
      "\u2581well": 6243,
      "Binding": 6244,
      "longname": 6245,
      "\u2581receiver": 6246,
      "\u2581unpoison": 6247,
      "overloaded": 6248,
      "Over": 6249,
      "perm": 6250,
      "tunnel": 6251,
      "Variant": 6252,
      "TPM": 6253,
      "oki": 6254,
      "\u2581Ac": 6255,
      "TI": 6256,
      "umn": 6257,
      "Diag": 6258,
      "custom": 6259,
      "\u2581mango": 6260,
      "bdd": 6261,
      "\u2581httpd": 6262,
      "atialIndex": 6263,
      "\u2581zconfrestart": 6264,
      "adr": 6265,
      "\u2581mc": 6266,
      "\u2581gate": 6267,
      "\u2581Pr": 6268,
      "\u2581rsa": 6269,
      "\u2581delay": 6270,
      "medi": 6271,
      "\u2581Clock": 6272,
      "Cl": 6273,
      "\u2581jpeg": 6274,
      "sensor": 6275,
      "shmget": 6276,
      "\u2581logfp": 6277,
      "Bdd": 6278,
      "\u2581mi": 6279,
      "aging": 6280,
      "ifnum": 6281,
      "\u2581bcast": 6282,
      "hm": 6283,
      "234": 6284,
      "LIN": 6285,
      "Skip": 6286,
      "\u2581tcc": 6287,
      "silent": 6288,
      "\u2581rxbuf": 6289,
      "detailed": 6290,
      "\u2581yydestruct": 6291,
      "mapping": 6292,
      "freep": 6293,
      "Binary": 6294,
      "Session": 6295,
      "\u2581CheckEqual": 6296,
      "\u2581Expression": 6297,
      "\u2581translate": 6298,
      "Cause": 6299,
      "\u2581msgsnd": 6300,
      "Save": 6301,
      "_199": 6302,
      "rout": 6303,
      "\u2581ompi": 6304,
      "\u2581gateway": 6305,
      "FramePPLB": 6306,
      "\u2581chunksize": 6307,
      "Fin": 6308,
      "igitalWrite": 6309,
      "enter": 6310,
      "timex": 6311,
      "ML": 6312,
      "sz": 6313,
      "_35": 6314,
      "_57": 6315,
      "best": 6316,
      "\u2581luaG": 6317,
      "Plugin": 6318,
      "bclient": 6319,
      "\u2581vmovsd": 6320,
      "\u2581SimpleType": 6321,
      "MM": 6322,
      "Cut": 6323,
      "pif": 6324,
      "\u2581hk": 6325,
      "\u2581auth": 6326,
      "ansport": 6327,
      "\u2581adjtimex": 6328,
      "AssertFail": 6329,
      "\u2581RedOsAssertFail": 6330,
      "uch": 6331,
      "Chunk": 6332,
      "\u2581FCore": 6333,
      "ION": 6334,
      "Wor": 6335,
      "Decl": 6336,
      "\u2581gpio": 6337,
      "Hii": 6338,
      "Pop": 6339,
      "mma": 6340,
      "32_0": 6341,
      "\u2581gnttab": 6342,
      "position": 6343,
      "\u2581CopyMem": 6344,
      "\u2581Ap": 6345,
      "\u2581RND": 6346,
      "dalloc": 6347,
      "\u2581locale": 6348,
      "\u2581deflateReset": 6349,
      "\u2581me": 6350,
      "\u2581nullmac": 6351,
      "4290": 6352,
      "Cost": 6353,
      "orith": 6354,
      "\u2581cipher": 6355,
      "ENU": 6356,
      "_00": 6357,
      "lip": 6358,
      "_3958": 6359,
      "nostic": 6360,
      "wrlock": 6361,
      "\u2581RedBlack": 6362,
      "\u2581webclient": 6363,
      "bdf": 6364,
      "kcmp": 6365,
      "\u2581ofp": 6366,
      "\u2581luaC": 6367,
      "sniffer": 6368,
      "ign": 6369,
      "nas": 6370,
      "Stat": 6371,
      "execute": 6372,
      "interlocked": 6373,
      "dst": 6374,
      "Each": 6375,
      "shim": 6376,
      "nextfile": 6377,
      "ingListener": 6378,
      "iet": 6379,
      "\u2581Dis": 6380,
      "\u2581box": 6381,
      "Install": 6382,
      "\u2581TestFactoryImpl": 6383,
      "AppendResult": 6384,
      "gine": 6385,
      "Units": 6386,
      "yield": 6387,
      "leanup": 6388,
      "endtoken": 6389,
      "expression": 6390,
      "\u2581zconfdump": 6391,
      "\u2581zconfpush": 6392,
      "checknumber": 6393,
      "\u2581zconfparse": 6394,
      "Poco": 6395,
      "\u2581reverse": 6396,
      "\u2581bar": 6397,
      "\u2581wrmsrl": 6398,
      "unloader": 6399,
      "\u2581returnErrorPtr": 6400,
      "loud": 6401,
      "note": 6402,
      "expir": 6403,
      "\u2581luaB": 6404,
      "atable": 6405,
      "vertex": 6406,
      "Tb": 6407,
      "strl": 6408,
      "public": 6409,
      "Diagnostic": 6410,
      "\u2581autostart": 6411,
      "\u2581AcpiEx": 6412,
      "\u2581wiringPiI": 6413,
      "tor": 6414,
      "\u2581query": 6415,
      "\u2581single": 6416,
      "uss": 6417,
      "NCUR": 6418,
      "_5_0": 6419,
      "91023": 6420,
      "NCURSES": 6421,
      "_5_0_199": 6422,
      "_5_0_19991023": 6423,
      "\u2581NN": 6424,
      "\u2581rcu": 6425,
      "Bound": 6426,
      "_2158": 6427,
      "Transform": 6428,
      "alar": 6429,
      "ited": 6430,
      "addch": 6431,
      "\u2581fixup": 6432,
      "\u2581param": 6433,
      "Ip": 6434,
      "\u2581Comm": 6435,
      "\u2581bytes": 6436,
      "activation": 6437,
      "AG": 6438,
      "\u2581er": 6439,
      "Menu": 6440,
      "_201": 6441,
      "bear": 6442,
      "peed": 6443,
      "63": 6444,
      "phys": 6445,
      "\u2581errx": 6446,
      "vernor": 6447,
      "\u2581symbols": 6448,
      "\u2581governor": 6449,
      "Min": 6450,
      "\u2581tty": 6451,
      "Failed": 6452,
      "alance": 6453,
      "\u2581proto": 6454,
      "\u2581RunImpl": 6455,
      "registrar": 6456,
      "pow": 6457,
      "mime": 6458,
      "\u2581AAS": 6459,
      "\u2581mov": 6460,
      "\u2581tab": 6461,
      "\u2581TRAP": 6462,
      "\u2581itimer": 6463,
      "itt": 6464,
      "Date": 6465,
      "jobs": 6466,
      "pree": 6467,
      "uard": 6468,
      "perror": 6469,
      "\u2581readn": 6470,
      "enum": 6471,
      "\u2581locks": 6472,
      "queuebuf": 6473,
      "TF": 6474,
      "unsafe": 6475,
      "asworld": 6476,
      "sequence": 6477,
      "RecursiveDeref": 6478,
      "\u2581Bin": 6479,
      "\u2581join": 6480,
      "tc": 6481,
      "\u2581Ser": 6482,
      "macro": 6483,
      "\u2581down": 6484,
      "expiration": 6485,
      "TestPartResult": 6486,
      "ORE": 6487,
      "intx": 6488,
      "checklstring": 6489,
      "fgets": 6490,
      "\u2581copystr": 6491,
      "transform": 6492,
      "pushlstring": 6493,
      "ENT": 6494,
      "Cdma": 6495,
      "\u2581Ogre": 6496,
      "\u2581cpSp": 6497,
      "Matrix": 6498,
      "mapbits": 6499,
      "\u2581reserve": 6500,
      "\u2581cpSpatialIndex": 6501,
      "trim": 6502,
      "Avail": 6503,
      "\u2581AcpiTb": 6504,
      "Vec": 6505,
      "\u2581rmh": 6506,
      "apping": 6507,
      "tracking": 6508,
      "_604": 6509,
      "\u2581gai": 6510,
      "\u2581rta": 6511,
      "Arbit": 6512,
      "codeAB": 6513,
      "\u2581chrif": 6514,
      "\u2581editor": 6515,
      "\u2581Results": 6516,
      "PDU": 6517,
      "_380": 6518,
      "\u2581PEM": 6519,
      "\u2581edx": 6520,
      "\u2581xht": 6521,
      "delim": 6522,
      "Sock": 6523,
      "icted": 6524,
      "\u2581fltk": 6525,
      "addset": 6526,
      "trylock": 6527,
      "observer": 6528,
      "commit": 6529,
      "\u2581Clear": 6530,
      "authentic": 6531,
      "gs": 6532,
      "dopen": 6533,
      "histo": 6534,
      "listener": 6535,
      "\u2581tracecmd": 6536,
      "Ne": 6537,
      "uld": 6538,
      "\u2581env": 6539,
      "elf": 6540,
      "dead": 6541,
      "Flush": 6542,
      "board": 6543,
      "\u2581syncsearch": 6544,
      "ging": 6545,
      "marker": 6546,
      "Display": 6547,
      "TINFO": 6548,
      "\u2581cont": 6549,
      "\u2581getp": 6550,
      "\u2581mkyaffs": 6551,
      "\u2581freeList": 6552,
      "\u2581VarHolder": 6553,
      "optarg": 6554,
      "\u2581speex": 6555,
      "pal": 6556,
      "\u2581inst": 6557,
      "izerTest": 6558,
      "resolver": 6559,
      "ERR": 6560,
      "filled": 6561,
      "\u2581gzread": 6562,
      "procmask": 6563,
      "BF": 6564,
      "tags": 6565,
      "ffect": 6566,
      "\u2581COgre": 6567,
      "\u2581number": 6568,
      "metatable": 6569,
      "MIN": 6570,
      "\u2581cf": 6571,
      "opts": 6572,
      "\u2581atol": 6573,
      "unload": 6574,
      "Collection": 6575,
      "\u2581Eventable": 6576,
      "xe": 6577,
      "msi": 6578,
      "\u2581Tvba": 6579,
      "\u2581ctype": 6580,
      "\u2581maccalc": 6581,
      "Fast": 6582,
      "Store": 6583,
      "screen": 6584,
      "Content": 6585,
      "\u2581cpus": 6586,
      "\u2581script": 6587,
      "\u2581TestFilter": 6588,
      "LS": 6589,
      "\u2581arptime": 6590,
      "\u2581evicted": 6591,
      "DOW": 6592,
      "\u2581tsl": 6593,
      "INDOW": 6594,
      "idxml": 6595,
      "\u2581counter": 6596,
      "shortShiftRight": 6597,
      "ipc": 6598,
      "\u2581url": 6599,
      "resolve": 6600,
      "\u2581rapidxml": 6601,
      "crash": 6602,
      "etime": 6603,
      "NB": 6604,
      "scale": 6605,
      "\u2581Link": 6606,
      "\u2581clean": 6607,
      "_16_0": 6608,
      "\u2581math": 6609,
      "intremap": 6610,
      "fb": 6611,
      "pci": 6612,
      "mpli": 6613,
      "\u2581Cmd": 6614,
      "\u2581fft": 6615,
      "\u2581trap": 6616,
      "console": 6617,
      "\u2581pclose": 6618,
      "\u2581prefix": 6619,
      "uncompress": 6620,
      "\u2581br": 6621,
      "cell": 6622,
      "cfree": 6623,
      "blevel": 6624,
      "lladdr": 6625,
      "\u2581extra": 6626,
      "\u2581Select": 6627,
      "Critical": 6628,
      "\u2581Psyntax": 6629,
      "\u2581symfile": 6630,
      "\u2581recvnetfile": 6631,
      "\u2581DestroyString": 6632,
      "loy": 6633,
      "\u2581WINDOW": 6634,
      "\u2581rodata": 6635,
      "\u2581outflags": 6636,
      "\u2581MENU": 6637,
      "errmsg": 6638,
      "\u2581action": 6639,
      "Position": 6640,
      "Exec": 6641,
      "Attrib": 6642,
      "ressed": 6643,
      "StreamTo": 6644,
      "\u2581Register": 6645,
      "StreamToHelper": 6646,
      "FP": 6647,
      "\u2581exe": 6648,
      "audit": 6649,
      "\u2581smbc": 6650,
      "sitive": 6651,
      "ollback": 6652,
      "\u2581assign": 6653,
      "queuelen": 6654,
      "tsc": 6655,
      "\u2581gsm": 6656,
      "Matches": 6657,
      "\u2581reparent": 6658,
      "97": 6659,
      "cles": 6660,
      "native": 6661,
      "\u2581rlimit": 6662,
      "distance": 6663,
      "\u2581commands": 6664,
      "MPI": 6665,
      "UTE": 6666,
      "topt": 6667,
      "\u2581RSA": 6668,
      "\u2581jrb": 6669,
      "_6020": 6670,
      "tuple": 6671,
      "mulate": 6672,
      "probing": 6673,
      "identity": 6674,
      "\u2581strftime": 6675,
      "VE": 6676,
      "leg": 6677,
      "mos": 6678,
      "\u2581pin": 6679,
      "\u2581ubi": 6680,
      "\u2581vec": 6681,
      "curse": 6682,
      "concat": 6683,
      "rdlock": 6684,
      "suffix": 6685,
      "unlisten": 6686,
      "\u2581vprintf": 6687,
      "blob": 6688,
      "\u2581Buf": 6689,
      "ucture": 6690,
      "contact": 6691,
      "\u2581hashtable": 6692,
      "fw": 6693,
      "wGtpv": 6694,
      "package": 6695,
      "Ps": 6696,
      "DATA": 6697,
      "adapter": 6698,
      "\u2581Handle": 6699,
      "NG": 6700,
      "xf": 6701,
      "nhm": 6702,
      "fini": 6703,
      "Semap": 6704,
      "assoc": 6705,
      "atures": 6706,
      "\u2581sigaddset": 6707,
      "\u2581ul": 6708,
      "_256": 6709,
      "Options": 6710,
      "\u2581parser": 6711,
      "\u2581FillFlags": 6712,
      "\u2581inflateSync": 6713,
      "vif": 6714,
      "okie": 6715,
      "addrlen": 6716,
      "\u2581xzalloc": 6717,
      "ube": 6718,
      "owner": 6719,
      "Eval": 6720,
      "_000": 6721,
      "\u2581Compare": 6722,
      "shortShiftLeft": 6723,
      "09": 6724,
      "wa": 6725,
      "BSS": 6726,
      "spn": 6727,
      "setjmp": 6728,
      "\u2581FreePool": 6729,
      "Constraint": 6730,
      "\u2581cpowercycle": 6731,
      "\u2581sigprocmask": 6732,
      "eee": 6733,
      "gstr": 6734,
      "\u2581npc": 6735,
      "\u2581vlapic": 6736,
      "parameters": 6737,
      "Fr": 6738,
      "gy": 6739,
      "defrt": 6740,
      "\u2581phys": 6741,
      "bearer": 6742,
      "\u2581parms": 6743,
      "\u2581prefetcht": 6744,
      "Su": 6745,
      "iss": 6746,
      "rtp": 6747,
      "\u2581fi": 6748,
      "Vars": 6749,
      "side": 6750,
      "uptr": 6751,
      "Digest": 6752,
      "itimer": 6753,
      "memcmp": 6754,
      "pushnil": 6755,
      "\u2581js": 6756,
      "cost": 6757,
      "Enter": 6758,
      "\u2581kexec": 6759,
      "\u2581GetNext": 6760,
      "libc": 6761,
      "\u2581qsend": 6762,
      "\u2581luaH": 6763,
      "mutexattr": 6764,
      "\u2581PathArgument": 6765,
      "\u2581the": 6766,
      "ussdrv": 6767,
      "Semaphore": 6768,
      "Expression": 6769,
      "02": 6770,
      "\u2581bt": 6771,
      "\u2581Csr": 6772,
      "\u2581final": 6773,
      "Arbiter": 6774,
      "43": 6775,
      "67": 6776,
      "\u2581bio": 6777,
      "Getopt": 6778,
      "rshift": 6779,
      "Document": 6780,
      "\u2581PyObject": 6781,
      "DP": 6782,
      "Cor": 6783,
      "\u2581ieee": 6784,
      "ono": 6785,
      "\u2581vq": 6786,
      "ious": 6787,
      "\u2581xdg": 6788,
      "Nodes": 6789,
      "episode": 6790,
      "preempt": 6791,
      "setfield": 6792,
      "\u2581advance": 6793,
      "\u2581strlcpy": 6794,
      "\u2581Priority": 6795,
      "93": 6796,
      "\u2581hrt": 6797,
      "Layer": 6798,
      "fread": 6799,
      "\u2581cgiForm": 6800,
      "\u2581calculate": 6801,
      "hdrlen": 6802,
      "\u2581unpack": 6803,
      "\u2581UnityPrint": 6804,
      "uv": 6805,
      "cer": 6806,
      "chg": 6807,
      "Scope": 6808,
      "pathc": 6809,
      "\u2581RedI": 6810,
      "lq": 6811,
      "\u2581pf": 6812,
      "0_39": 6813,
      "poly": 6814,
      "activate": 6815,
      "Information": 6816,
      "mountpoints": 6817,
      "Occ": 6818,
      "trl": 6819,
      "bios": 6820,
      "\u2581Big": 6821,
      "\u2581Iup": 6822,
      "initbatch": 6823,
      "vq": 6824,
      "psr": 6825,
      "Stop": 6826,
      "here": 6827,
      "Order": 6828,
      "member": 6829,
      "\u2581pager": 6830,
      "\u2581panic": 6831,
      "counted": 6832,
      "Response": 6833,
      "features": 6834,
      "\u2581zmalloc": 6835,
      "Supported": 6836,
      "tolstring": 6837,
      "bpf": 6838,
      "ten": 6839,
      "tif": 6840,
      "\u2581vlog": 6841,
      "\u2581source": 6842,
      "verbosity": 6843,
      "\u2581evbuffer": 6844,
      "\u2581tcgetattr": 6845,
      "\u2581webserver": 6846,
      "ADD": 6847,
      "vvmcs": 6848,
      "Literal": 6849,
      "\u2581prussdrv": 6850,
      "CompareExchange": 6851,
      "LM": 6852,
      "\u2581font": 6853,
      "rv": 6854,
      "Emp": 6855,
      "\u2581rcx": 6856,
      "\u2581ret": 6857,
      "cstate": 6858,
      "\u2581Append": 6859,
      "Services": 6860,
      "socktype": 6861,
      "pad": 6862,
      "\u2581ig": 6863,
      "\u2581ns": 6864,
      "\u2581attr": 6865,
      "\u2581tess": 6866,
      "Lua": 6867,
      "\u2581IR": 6868,
      "answ": 6869,
      "view": 6870,
      "\u2581bst": 6871,
      "\u2581ice": 6872,
      "\u2581barf": 6873,
      "omp": 6874,
      "\u2581Os": 6875,
      "\u2581Pe": 6876,
      "font": 6877,
      "\u2581Type": 6878,
      "Crypto": 6879,
      "ToGpio": 6880,
      "\u2581CsrCrypto": 6881,
      "MatchFinder": 6882,
      "ComponentName": 6883,
      "pename": 6884,
      "\u2581lseqi": 6885,
      "Def": 6886,
      "solve": 6887,
      "\u2581Vector": 6888,
      "\u2581pixGet": 6889,
      "\u2581Pointer": 6890,
      "UtilGetopt": 6891,
      "BD": 6892,
      "bp": 6893,
      "_3723": 6894,
      "_14548": 6895,
      "\u2581proactive": 6896,
      "descriptors": 6897,
      "_134": 6898,
      "259": 6899,
      "\u2581blake": 6900,
      "\u2581Buffer": 6901,
      "SetDictionary": 6902,
      "\u2581pcre": 6903,
      "Employ": 6904,
      "\u2581MemoryRead": 6905,
      "NtkIs": 6906,
      "\u2581game": 6907,
      "\u2581HawkM": 6908,
      "\u2581vhost": 6909,
      "resampler": 6910,
      "Par": 6911,
      "bio": 6912,
      "\u2581anet": 6913,
      "\u2581detect": 6914,
      "upstream": 6915,
      "\u2581cpArray": 6916,
      "CP": 6917,
      "FL": 6918,
      "_621": 6919,
      "prep": 6920,
      "Serial": 6921,
      "putnbr": 6922,
      "urface": 6923,
      "toupper": 6924,
      "\u2581gztell": 6925,
      "MUTE": 6926,
      "entifier": 6927,
      "typename": 6928,
      "iten": 6929,
      "\u2581ctx": 6930,
      "\u2581tos": 6931,
      "\u2581pages": 6932,
      "Connect": 6933,
      "\u2581TokenizerTest": 6934,
      "UnsignedInteger": 6935,
      "dbe": 6936,
      "\u2581packetbufptr": 6937,
      "_270": 6938,
      "_622": 6939,
      "frag": 6940,
      "sink": 6941,
      "\u2581uid": 6942,
      "\u2581cpBB": 6943,
      "atomic": 6944,
      "\u2581termp": 6945,
      "\u2581BinInfo": 6946,
      "Indication": 6947,
      "\u2581backtrace": 6948,
      "mlUnitTestResult": 6949,
      "_166": 6950,
      "_8800": 6951,
      "etable": 6952,
      "override": 6953,
      "compressed": 6954,
      "ca": 6955,
      "\u2581tu": 6956,
      "Tick": 6957,
      "ship": 6958,
      "_3827": 6959,
      "\u2581recovi": 6960,
      "\u2581recovj": 6961,
      "sistency": 6962,
      "\u2581gzerror": 6963,
      "virtqueue": 6964,
      "DY": 6965,
      "icro": 6966,
      "\u2581mul": 6967,
      "repeat": 6968,
      "_621240": 6969,
      "\u2581handler": 6970,
      "\u2581descriptor": 6971,
      "rng": 6972,
      "rsa": 6973,
      "\u2581uncompress": 6974,
      "via": 6975,
      "INTE": 6976,
      "mail": 6977,
      "xsdt": 6978,
      "\u2581dist": 6979,
      "edList": 6980,
      "\u2581split": 6981,
      "\u2581windowstart": 6982,
      "_53": 6983,
      "\u2581No": 6984,
      "plus": 6985,
      "voke": 6986,
      "\u2581Sock": 6987,
      "\u2581vmcb": 6988,
      "\u2581xfgets": 6989,
      "\u2581AcpiDbg": 6990,
      "\u2581TestTest": 6991,
      "cf": 6992,
      "CCH": 6993,
      "UINT": 6994,
      "less": 6995,
      "\u2581irq": 6996,
      "\u2581pty": 6997,
      "panic": 6998,
      "latform": 6999,
      "\u2581BFSInfo": 7000,
      "ils": 7001,
      "txn": 7002,
      "\u2581doc": 7003,
      "ities": 7004,
      "upool": 7005,
      "\u2581object": 7006,
      "DriverBinding": 7007,
      "_402": 7008,
      "\u2581PMPI": 7009,
      "Repeat": 7010,
      "player": 7011,
      "recursive": 7012,
      "itr": 7013,
      "\u2581sb": 7014,
      "_162": 7015,
      "STORE": 7016,
      "\u2581abuf": 7017,
      "sIn": 7018,
      "\u2581hn": 7019,
      "\u2581rc": 7020,
      "aged": 7021,
      "until": 7022,
      "vmult": 7023,
      "GER": 7024,
      "\u2581ned": 7025,
      "apsed": 7026,
      "\u2581mask": 7027,
      "Import": 7028,
      "\u2581rq": 7029,
      "rank": 7030,
      "tuid": 7031,
      "Cir": 7032,
      "OMP": 7033,
      "_68": 7034,
      "mpi": 7035,
      "\u2581DH": 7036,
      "prod": 7037,
      "_2652": 7038,
      "htonl": 7039,
      "paddw": 7040,
      "\u2581Posix": 7041,
      "ReturnValue": 7042,
      "Mark": 7043,
      "\u2581ape": 7044,
      "ached": 7045,
      "links": 7046,
      "model": 7047,
      "\u2581Uefi": 7048,
      "mntent": 7049,
      "\u2581aasworld": 7050,
      "nan": 7051,
      "poke": 7052,
      "\u2581jwt": 7053,
      "sources": 7054,
      "eract": 7055,
      "icate": 7056,
      "\u2581GOMP": 7057,
      "mpulse": 7058,
      "\u2581Table": 7059,
      "\u2581memchr": 7060,
      "\u2581xstrdup": 7061,
      "FI": 7062,
      "\u2581ce": 7063,
      "Vdbe": 7064,
      "cryp": 7065,
      "\u2581Map": 7066,
      "resses": 7067,
      "seqnos": 7068,
      "\u2581modes": 7069,
      "duration": 7070,
      "ipconfig": 7071,
      "\u2581tesseract": 7072,
      "Uri": 7073,
      "\u2581extend": 7074,
      "printable": 7075,
      "ino": 7076,
      "Heap": 7077,
      "\u2581dyn": 7078,
      "bitopt": 7079,
      "\u2581radix": 7080,
      "\u2581zcfree": 7081,
      "ba": 7082,
      "Pix": 7083,
      "idb": 7084,
      "Rule": 7085,
      "maps": 7086,
      "Access": 7087,
      "\u2581Bit": 7088,
      "ating": 7089,
      "ested": 7090,
      "tcache": 7091,
      "\u2581popen": 7092,
      "dsn": 7093,
      "\u2581OB": 7094,
      "Pred": 7095,
      "\u2581ANN": 7096,
      "\u2581Efi": 7097,
      "_4060": 7098,
      "fixup": 7099,
      "linked": 7100,
      "mplate": 7101,
      "\u2581cschedule": 7102,
      "icodeString": 7103,
      "Ed": 7104,
      "gnuc": 7105,
      "\u2581dpif": 7106,
      "\u2581Float": 7107,
      "suseconds": 7108,
      "assignment": 7109,
      "orig": 7110,
      "\u2581gST": 7111,
      "\u2581color": 7112,
      "balance": 7113,
      "\u2581msghdr": 7114,
      "TestShell": 7115,
      "ni": 7116,
      "np": 7117,
      "_513": 7118,
      "\u2581dss": 7119,
      "\u2581icu": 7120,
      "\u2581sup": 7121,
      "super": 7122,
      "totals": 7123,
      "\u2581strxf": 7124,
      "DVertex": 7125,
      "Maximum": 7126,
      "rp": 7127,
      "vprintf": 7128,
      "\u2581exclude": 7129,
      "\u2581outbuffer": 7130,
      "Raw": 7131,
      "\u2581ii": 7132,
      "\u2581Dev": 7133,
      "\u2581longpath": 7134,
      "\u2581readline": 7135,
      "10_": 7136,
      "\u2581Put": 7137,
      "_2335": 7138,
      "netif": 7139,
      "Bridge": 7140,
      "rawset": 7141,
      "sistor": 7142,
      "builtin": 7143,
      "\u2581semget": 7144,
      "transmitting": 7145,
      "_51": 7146,
      "_2628": 7147,
      "outils": 7148,
      "tivate": 7149,
      "Instance": 7150,
      "\u2581iioutils": 7151,
      "Ab": 7152,
      "clip": 7153,
      "prof": 7154,
      "\u2581info": 7155,
      "\u2581quiet": 7156,
      "\u2581OnTest": 7157,
      "decompress": 7158,
      "Constructor": 7159,
      "_67": 7160,
      "hci": 7161,
      "\u2581inv": 7162,
      "\u2581luaV": 7163,
      "\u2581rbtree": 7164,
      "blocking": 7165,
      "\u2581gzoffset": 7166,
      "\u2581AcpiError": 7167,
      "PL": 7168,
      "UM": 7169,
      "WT": 7170,
      "Wr": 7171,
      "_603": 7172,
      "\u2581VLM": 7173,
      "\u2581ccp": 7174,
      "depng": 7175,
      "Prefix": 7176,
      "recurse": 7177,
      "\u2581AcpiPs": 7178,
      "\u2581lodepng": 7179,
      "Env": 7180,
      "PEG": 7181,
      "\u2581Line": 7182,
      "\u2581luaF": 7183,
      "\u2581getrlimit": 7184,
      "\u2581Packed": 7185,
      "Aig": 7186,
      "abs": 7187,
      "avg": 7188,
      "ple": 7189,
      "cstr": 7190,
      "reat": 7191,
      "\u2581DevPath": 7192,
      "\u2581baseaddr": 7193,
      "\u2581cpArbiter": 7194,
      "itle": 7195,
      "\u2581cout": 7196,
      "\u2581Index": 7197,
      "\u2581cpvdot": 7198,
      "\u2581SHIWORD": 7199,
      "Listeners": 7200,
      "addresses": 7201,
      "\u2581ThreadLocal": 7202,
      "nex": 7203,
      "\u2581wake": 7204,
      "\u2581saved": 7205,
      "readdir": 7206,
      "\u2581bcastconn": 7207,
      "TM": 7208,
      "\u2581mv": 7209,
      "\u2581bug": 7210,
      "Suite": 7211,
      "\u2581apei": 7212,
      "Master": 7213,
      "special": 7214,
      "container": 7215,
      "\u2581freelist": 7216,
      "Ci": 7217,
      "df": 7218,
[...]
